{
  "version": "1.0",
  "truncation": null,
  "padding": null,
  "added_tokens": [
    {
      "id": 0,
      "content": "<unk>",
      "single_word": false,
      "lstrip": false,
      "rstrip": false,
      "normalized": false,
      "special": true
    },
    {
      "id": 1,
      "content": "<pad>",
      "single_word": false,
      "lstrip": false,
      "rstrip": false,
      "normalized": false,
      "special": true
    },
    {
      "id": 2,
      "content": "<bos>",
      "single_word": false,
      "lstrip": false,
      "rstrip": false,
      "normalized": false,
      "special": true
    },
    {
      "id": 3,
      "content": "<eos>",
      "single_word": false,
      "lstrip": false,
      "rstrip": false,
      "normalized": false,
      "special": true
    }
  ],
  "normalizer": {
    "type": "NFKC"
  },
  "pre_tokenizer": {
    "type": "ByteLevel",
    "add_prefix_space": false,
    "trim_offsets": true,
    "use_regex": true
  },
  "post_processor": null,
  "decoder": null,
  "model": {
    "type": "BPE",
    "dropout": null,
    "unk_token": "<unk>",
    "continuing_subword_prefix": null,
    "end_of_word_suffix": null,
    "fuse_unk": false,
    "byte_fallback": false,
    "ignore_merges": false,
    "vocab": {
      "<unk>": 0,
      "<pad>": 1,
      "<bos>": 2,
      "<eos>": 3,
      "!": 4,
      "\"": 5,
      "#": 6,
      "$": 7,
      "%": 8,
      "&": 9,
      "'": 10,
      "(": 11,
      ")": 12,
      "*": 13,
      "+": 14,
      ",": 15,
      "-": 16,
      ".": 17,
      "/": 18,
      "0": 19,
      "1": 20,
      "2": 21,
      "3": 22,
      "4": 23,
      "5": 24,
      "6": 25,
      "7": 26,
      "8": 27,
      "9": 28,
      ":": 29,
      ";": 30,
      "<": 31,
      "=": 32,
      ">": 33,
      "?": 34,
      "@": 35,
      "A": 36,
      "B": 37,
      "C": 38,
      "D": 39,
      "E": 40,
      "F": 41,
      "G": 42,
      "H": 43,
      "I": 44,
      "J": 45,
      "K": 46,
      "L": 47,
      "M": 48,
      "N": 49,
      "O": 50,
      "P": 51,
      "Q": 52,
      "R": 53,
      "S": 54,
      "T": 55,
      "U": 56,
      "V": 57,
      "W": 58,
      "X": 59,
      "Y": 60,
      "Z": 61,
      "[": 62,
      "\\": 63,
      "]": 64,
      "^": 65,
      "_": 66,
      "`": 67,
      "a": 68,
      "b": 69,
      "c": 70,
      "d": 71,
      "e": 72,
      "f": 73,
      "g": 74,
      "h": 75,
      "i": 76,
      "j": 77,
      "k": 78,
      "l": 79,
      "m": 80,
      "n": 81,
      "o": 82,
      "p": 83,
      "q": 84,
      "r": 85,
      "s": 86,
      "t": 87,
      "u": 88,
      "v": 89,
      "w": 90,
      "x": 91,
      "y": 92,
      "z": 93,
      "|": 94,
      "}": 95,
      "~": 96,
      "¡": 97,
      "¢": 98,
      "£": 99,
      "¤": 100,
      "¥": 101,
      "¦": 102,
      "§": 103,
      "¨": 104,
      "©": 105,
      "ª": 106,
      "«": 107,
      "¬": 108,
      "®": 109,
      "¯": 110,
      "°": 111,
      "±": 112,
      "²": 113,
      "³": 114,
      "´": 115,
      "µ": 116,
      "¶": 117,
      "·": 118,
      "¸": 119,
      "¹": 120,
      "º": 121,
      "»": 122,
      "¼": 123,
      "½": 124,
      "¾": 125,
      "¿": 126,
      "Â": 127,
      "Ã": 128,
      "Ä": 129,
      "Å": 130,
      "Æ": 131,
      "É": 132,
      "Ê": 133,
      "Ë": 134,
      "Ì": 135,
      "Î": 136,
      "Ï": 137,
      "Ð": 138,
      "Ñ": 139,
      "Ò": 140,
      "Ô": 141,
      "×": 142,
      "à": 143,
      "á": 144,
      "â": 145,
      "ã": 146,
      "ä": 147,
      "å": 148,
      "æ": 149,
      "ç": 150,
      "è": 151,
      "é": 152,
      "ê": 153,
      "ë": 154,
      "ì": 155,
      "í": 156,
      "ï": 157,
      "ð": 158,
      "Ċ": 159,
      "Ġ": 160,
      "Ģ": 161,
      "ģ": 162,
      "Ĥ": 163,
      "ĥ": 164,
      "Ħ": 165,
      "ħ": 166,
      "Ĩ": 167,
      "ĩ": 168,
      "Ī": 169,
      "ī": 170,
      "Ĭ": 171,
      "ĭ": 172,
      "Į": 173,
      "į": 174,
      "İ": 175,
      "ı": 176,
      "Ĳ": 177,
      "ĳ": 178,
      "Ĵ": 179,
      "ĵ": 180,
      "Ķ": 181,
      "ķ": 182,
      "ĸ": 183,
      "Ĺ": 184,
      "ĺ": 185,
      "Ļ": 186,
      "ļ": 187,
      "Ľ": 188,
      "ľ": 189,
      "Ŀ": 190,
      "ŀ": 191,
      "Ł": 192,
      "ł": 193,
      "Ń": 194,
      "Ġt": 195,
      "Ġa": 196,
      "he": 197,
      "in": 198,
      "re": 199,
      "on": 200,
      "Ġthe": 201,
      "er": 202,
      "Ġs": 203,
      "Ġw": 204,
      "at": 205,
      "Ġo": 206,
      "nd": 207,
      "Ġc": 208,
      "it": 209,
      "or": 210,
      "is": 211,
      "es": 212,
      "ou": 213,
      "en": 214,
      "Ġb": 215,
      "Ġf": 216,
      "ing": 217,
      "Ġp": 218,
      "ed": 219,
      "an": 220,
      "al": 221,
      "Ġto": 222,
      "Ġm": 223,
      "ar": 224,
      "Ġand": 225,
      "Ġof": 226,
      "Ġin": 227,
      "Ġd": 228,
      "ic": 229,
      "Ġh": 230,
      "le": 231,
      "as": 232,
      "om": 233,
      "ion": 234,
      "Ġth": 235,
      "ll": 236,
      "âĢ": 237,
      "Ġl": 238,
      "ent": 239,
      "ve": 240,
      "st": 241,
      "Ġre": 242,
      "Ġe": 243,
      "ro": 244,
      "Ġn": 245,
      "ĠI": 246,
      "Ġg": 247,
      "Ġy": 248,
      "ly": 249,
      "ct": 250,
      "Ġbe": 251,
      "ĠT": 252,
      "ut": 253,
      "ĠS": 254,
      "et": 255,
      "ot": 256,
      "Ġis": 257,
      "ay": 258,
      "id": 259,
      "Ġyou": 260,
      "Ġon": 261,
      "Ġfor": 262,
      "ow": 263,
      "ĠA": 264,
      "ĠC": 265,
      "ur": 266,
      "im": 267,
      "se": 268,
      "ce": 269,
      "ad": 270,
      "am": 271,
      "ig": 272,
      "Ġu": 273,
      "ver": 274,
      "Ġthat": 275,
      "ch": 276,
      "il": 277,
      "ation": 278,
      "ith": 279,
      "Ġst": 280,
      "ol": 281,
      "ir": 282,
      "Ġwith": 283,
      "Ġit": 284,
      "ĠM": 285,
      "Ġhe": 286,
      "âĢĻ": 287,
      "ra": 288,
      "Ġwe": 289,
      "ĠB": 290,
      "ĠP": 291,
      "Ġan": 292,
      "ill": 293,
      "Ġas": 294,
      "Ġwh": 295,
      "ers": 296,
      "if": 297,
      "ke": 298,
      "Ġpro": 299,
      "Ġha": 300,
      "ĠW": 301,
      "Ġare": 302,
      "ter": 303,
      "ge": 304,
      "oo": 305,
      "ld": 306,
      "Ġcon": 307,
      "Ġor": 308,
      "her": 309,
      "ate": 310,
      "ĠH": 311,
      "Ġat": 312,
      "ĠD": 313,
      "ck": 314,
      "ore": 315,
      "Ġcom": 316,
      "Ġse": 317,
      "ul": 318,
      "pp": 319,
      "ĠF": 320,
      "ess": 321,
      "ment": 322,
      "Ġ1": 323,
      "ĠThe": 324,
      "ĠR": 325,
      "Ġ2": 326,
      "Ġ(": 327,
      "est": 328,
      "igh": 329,
      "ri": 330,
      "Ġde": 331,
      "ab": 332,
      "th": 333,
      "us": 334,
      "Ġwas": 335,
      "rom": 336,
      "ist": 337,
      "un": 338,
      "pe": 339,
      "Ġne": 340,
      "Ġr": 341,
      "Ġex": 342,
      "ity": 343,
      "ant": 344,
      "ure": 345,
      "Ġv": 346,
      "ive": 347,
      "Ġhave": 348,
      "qu": 349,
      "ĠN": 350,
      "ĠL": 351,
      "em": 352,
      "um": 353,
      "op": 354,
      "ĠG": 355,
      "ĠâĢ": 356,
      "ĠE": 357,
      "Ġthis": 358,
      "Ġnot": 359,
      "ust": 360,
      "art": 361,
      "nt": 362,
      "ain": 363,
      "ort": 364,
      "Ġfrom": 365,
      "Ġyour": 366,
      "Ġsh": 367,
      "Ġby": 368,
      "ight": 369,
      "os": 370,
      "and": 371,
      "ies": 372,
      "el": 373,
      "Ġal": 374,
      "all": 375,
      "Ġcan": 376,
      "Ġch": 377,
      "ĠO": 378,
      "Ġle": 379,
      "ie": 380,
      "ard": 381,
      "Ġwill": 382,
      "Ġsu": 383,
      "res": 384,
      "ould": 385,
      "ome": 386,
      "out": 387,
      "Ġdo": 388,
      "ost": 389,
      "our": 390,
      "Ġab": 391,
      "te": 392,
      "00": 393,
      "..": 394,
      "Ġpl": 395,
      "ud": 396,
      "iv": 397,
      "gh": 398,
      "ally": 399,
      "'s": 400,
      "Ġall": 401,
      "Ġwor": 402,
      "rou": 403,
      "red": 404,
      "ear": 405,
      "ast": 406,
      "od": 407,
      "Ġj": 408,
      "ide": 409,
      "ci": 410,
      "The": 411,
      "ag": 412,
      "ĠJ": 413,
      "ak": 414,
      "Ġhas": 415,
      "ine": 416,
      "pt": 417,
      "Ġbut": 418,
      "Ġso": 419,
      "ice": 420,
      "fe": 421,
      "Ġk": 422,
      "Ġme": 423,
      "per": 424,
      "Ġwhe": 425,
      "age": 426,
      "ack": 427,
      "Ġus": 428,
      "ther": 429,
      "ction": 430,
      "Ġcomp": 431,
      "Ġout": 432,
      "âĢĿ": 433,
      "one": 434,
      "Ġup": 435,
      "Ġthey": 436,
      "Ġad": 437,
      "ac": 438,
      "are": 439,
      "Ġmore": 440,
      "ook": 441,
      "ich": 442,
      "ime": 443,
      "ĠU": 444,
      "ake": 445,
      "ry": 446,
      "pl": 447,
      "Ġmy": 448,
      "ind": 449,
      "so": 450,
      "very": 451,
      "ated": 452,
      "ame": 453,
      "og": 454,
      "ood": 455,
      "ans": 456,
      "Ġsa": 457,
      "ong": 458,
      "able": 459,
      "cc": 460,
      "Ġte": 461,
      "ite": 462,
      "Ġtheir": 463,
      "Ġen": 464,
      "Ġcl": 465,
      "Ġone": 466,
      "ous": 467,
      "Ġhis": 468,
      "iz": 469,
      "ĠIn": 470,
      "ike": 471,
      "ip": 472,
      "ĠTh": 473,
      "Ġcont": 474,
      "orm": 475,
      "01": 476,
      "Ġabout": 477,
      "ber": 478,
      "Ġour": 479,
      "Ġwho": 480,
      "du": 481,
      "Ġgo": 482,
      "Ġ-": 483,
      "ue": 484,
      "ĠâĢľ": 485,
      "cl": 486,
      "Ġim": 487,
      "Ġman": 488,
      "ions": 489,
      "ance": 490,
      "act": 491,
      "ĠY": 492,
      "Ġfe": 493,
      "ap": 494,
      "to": 495,
      "ays": 496,
      "Ġwhich": 497,
      "ick": 498,
      "ail": 499,
      "ase": 500,
      "Ġper": 501,
      "ree": 502,
      "Ġlo": 503,
      "ire": 504,
      "ĠK": 505,
      "Ġoff": 506,
      "ven": 507,
      "ff": 508,
      "ia": 509,
      "Ġtime": 510,
      "ace": 511,
      "Ġother": 512,
      "ne": 513,
      "ĠSt": 514,
      "ep": 515,
      "Ġres": 516,
      "ib": 517,
      "Ġwork": 518,
      "ub": 519,
      "ark": 520,
      "ign": 521,
      "Ġtr": 522,
      "Ġ\"": 523,
      "reat": 524,
      "Ġdis": 525,
      "ations": 526,
      "ult": 527,
      "Ġyear": 528,
      "Ġapp": 529,
      "Ġany": 530,
      "au": 531,
      "ass": 532,
      "ach": 533,
      "Ġsome": 534,
      "Ġlike": 535,
      "ord": 536,
      "Ġqu": 537,
      "Ġhad": 538,
      "Ġget": 539,
      "ary": 540,
      "Ġher": 541,
      "Ġthem": 542,
      "Ġbeen": 543,
      "form": 544,
      "ress": 545,
      "ount": 546,
      "ĠV": 547,
      "Ġalso": 548,
      "own": 549,
      "Ġwould": 550,
      "Ġun": 551,
      "ĠIt": 552,
      "ile": 553,
      "erv": 554,
      "vel": 555,
      "ĠCh": 556,
      "Ġnew": 557,
      "Ġ201": 558,
      "Ġwere": 559,
      "Ġpart": 560,
      "Ġ3": 561,
      "Ġsp": 562,
      "av": 563,
      "ical": 564,
      "Ġag": 565,
      "Ġif": 566,
      "ings": 567,
      "ence": 568,
      "ition": 569,
      "Ġthere": 570,
      "ough": 571,
      "Ġover": 572,
      "Ġthan": 573,
      "ink": 574,
      "Ġpe": 575,
      "ond": 576,
      "ru": 577,
      "Ġar": 578,
      "Ġwhen": 579,
      "Ġwhat": 580,
      "ound": 581,
      "ors": 582,
      "ose": 583,
      "ents": 584,
      "ens": 585,
      "Ġkn": 586,
      "Ġjust": 587,
      "Ġspe": 588,
      "Ġsaid": 589,
      "Ġrec": 590,
      "ĠWe": 591,
      "int": 592,
      "Ġro": 593,
      "Ġpre": 594,
      "ish": 595,
      "wn": 596,
      "Ġbec": 597,
      "ial": 598,
      "Ġam": 599,
      "Ġinto": 600,
      "irst": 601,
      "ob": 602,
      "nder": 603,
      "'t": 604,
      "ren": 605,
      "Ġco": 606,
      "ople": 607,
      "mer": 608,
      "Ġtw": 609,
      "Ġacc": 610,
      "old": 611,
      "Ġshe": 612,
      "ild": 613,
      "ĠâĢĵ": 614,
      "Ġneed": 615,
      "rough": 616,
      "Ġimp": 617,
      "ade": 618,
      "itt": 619,
      "ĠHe": 620,
      "fter": 621,
      "lic": 622,
      "Ġhow": 623,
      "Ġits": 624,
      "Ġno": 625,
      "vers": 626,
      "Ġsc": 627,
      "ning": 628,
      "ory": 629,
      "oy": 630,
      "Ġmay": 631,
      "ons": 632,
      "hed": 633,
      "...": 634,
      "Ġbl": 635,
      "amp": 636,
      "Ġpeople": 637,
      "ater": 638,
      "ang": 639,
      "clud": 640,
      "Ġfirst": 641,
      "cial": 642,
      "ft": 643,
      "oc": 644,
      "ates": 645,
      "ull": 646,
      "Ġ4": 647,
      "ual": 648,
      "Ġonly": 649,
      "ian": 650,
      "Ġknow": 651,
      "gr": 652,
      "ause": 653,
      "Ġdes": 654,
      "Ġ5": 655,
      "Ġcomm": 656,
      "Ġadd": 657,
      "ces": 658,
      "ĠRe": 659,
      "we": 660,
      "Ġlook": 661,
      "Ġuse": 662,
      "Ġtra": 663,
      "Ġback": 664,
      "ric": 665,
      "Ġmake": 666,
      "Ġmost": 667,
      "ov": 668,
      "oll": 669,
      "rent": 670,
      "Ġprov": 671,
      "Ġtwo": 672,
      "round": 673,
      "lp": 674,
      "ments": 675,
      "day": 676,
      "ĠThis": 677,
      "Ġem": 678,
      "hing": 679,
      "end": 680,
      "tern": 681,
      "Ġthrough": 682,
      "Ġwant": 683,
      "les": 684,
      "Ġinclud": 685,
      "Ġprodu": 686,
      "Ġbet": 687,
      "Ġhelp": 688,
      "Ġind": 689,
      "iew": 690,
      "Ġsee": 691,
      "ew": 692,
      "Ġfl": 693,
      "Ġevery": 694,
      "ise": 695,
      "aw": 696,
      "cts": 697,
      "Ġwell": 698,
      "Th": 699,
      "ious": 700,
      "ove": 701,
      "ily": 702,
      "iss": 703,
      "ating": 704,
      "Ġplay": 705,
      "Ġthese": 706,
      "Ġpo": 707,
      "Ġcons": 708,
      "ities": 709,
      "ks": 710,
      "Ġ19": 711,
      "urn": 712,
      "Ġrep": 713,
      "Ġbu": 714,
      "sel": 715,
      "Ġcould": 716,
      "row": 717,
      "ph": 718,
      "fore": 719,
      "ont": 720,
      "Ġvery": 721,
      "Ġact": 722,
      "ific": 723,
      "Ġph": 724,
      "Ġunder": 725,
      "Ġhim": 726,
      "xt": 727,
      "Ġnow": 728,
      "Ġafter": 729,
      ").": 730,
      "je": 731,
      "Ġinc": 732,
      "Ġserv": 733,
      "als": 734,
      "Ġeven": 735,
      "ert": 736,
      "Ġra": 737,
      "Ġgood": 738,
      "Ġ$": 739,
      "Ġpr": 740,
      "Ġdif": 741,
      "ange": 742,
      "ting": 743,
      "ced": 744,
      "Ġke": 745,
      "Ġcol": 746,
      "uch": 747,
      "ife": 748,
      "hen": 749,
      "ĠYou": 750,
      "||": 751,
      "ased": 752,
      "cted": 753,
      "ational": 754,
      "Ġrel": 755,
      "erson": 756,
      "Ġinv": 757,
      "pport": 758,
      "Ġwhere": 759,
      "Ġthen": 760,
      "Ġev": 761,
      "Ġway": 762,
      "Ġdon": 763,
      "Ġdid": 764,
      "com": 765,
      "Ġreg": 766,
      "ble": 767,
      "ful": 768,
      "ility": 769,
      "Ġright": 770,
      "Ġsy": 771,
      "oss": 772,
      "Ġyears": 773,
      "bs": 774,
      "ures": 775,
      "ward": 776,
      "ĠCom": 777,
      "Ġmany": 778,
      "Ġrem": 779,
      "ĠSe": 780,
      "aking": 781,
      "formation": 782,
      "Ġstud": 783,
      "Ġshould": 784,
      "Ġsm": 785,
      "get": 786,
      "oth": 787,
      "cess": 788,
      "erm": 789,
      "Ġ6": 790,
      "rit": 791,
      "ty": 792,
      "Ġgreat": 793,
      "Ġbecause": 794,
      "Ġ200": 795,
      "Ġinte": 796,
      "Ġgu": 797,
      "li": 798,
      "Ġdown": 799,
      "ool": 800,
      "Ġfin": 801,
      "iness": 802,
      "ĠWh": 803,
      "Ġthink": 804,
      ".âĢĿ": 805,
      "up": 806,
      "Ġown": 807,
      "ts": 808,
      "ĠAs": 809,
      "rest": 810,
      "Ġtoo": 811,
      "ular": 812,
      "ĠUn": 813,
      "Ġac": 814,
      "its": 815,
      "ower": 816,
      "any": 817,
      "Ġstart": 818,
      "Ġagain": 819,
      "air": 820,
      "Ġset": 821,
      "alth": 822,
      "Ġsec": 823,
      "Ġmuch": 824,
      "ible": 825,
      "ock": 826,
      "Ġsuch": 827,
      "ath": 828,
      "ices": 829,
      "ident": 830,
      "uring": 831,
      "hip": 832,
      "und": 833,
      "ys": 834,
      "ics": 835,
      "Ġatt": 836,
      "ax": 837,
      "olog": 838,
      "ĠAnd": 839,
      "ell": 840,
      "other": 841,
      "Ġ&": 842,
      "ork": 843,
      "In": 844,
      "Ġent": 845,
      "hes": 846,
      "omet": 847,
      "Ġhere": 848,
      "ĠPro": 849,
      "rib": 850,
      "Ġinst": 851,
      "Ġday": 852,
      "Ġlong": 853,
      "Ġexper": 854,
      "way": 855,
      "Ġbeing": 856,
      "ffe": 857,
      "Ġend": 858,
      "ason": 859,
      "Ġdoes": 860,
      "Ġbel": 861,
      "ative": 862,
      "Ġhigh": 863,
      "ited": 864,
      "Ġbus": 865,
      "Ġdec": 866,
      "Ġwee": 867,
      "velop": 868,
      "Ġbefore": 869,
      "arch": 870,
      "ĠAn": 871,
      "ank": 872,
      "gan": 873,
      "Ġfind": 874,
      "ollow": 875,
      "alk": 876,
      "ix": 877,
      "Ġshow": 878,
      "stem": 879,
      "gram": 880,
      "ĠIf": 881,
      "ner": 882,
      "Ġtake": 883,
      "Ġcall": 884,
      "Ġinformation": 885,
      "ict": 886,
      "ĠDe": 887,
      "Ġdiffe": 888,
      "Ġbest": 889,
      "ract": 890,
      "),": 891,
      "Ġcar": 892,
      "Ġthose": 893,
      "ied": 894,
      "Ġmade": 895,
      "lect": 896,
      "Ġloc": 897,
      "ually": 898,
      "ĠNew": 899,
      "Ġmon": 900,
      "ues": 901,
      "ener": 902,
      "Ġ7": 903,
      "Ġlast": 904,
      "Ġread": 905,
      "Ġrequ": 906,
      "line": 907,
      "Ġmin": 908,
      "âĢľ": 909,
      "Ġtrans": 910,
      "ng": 911,
      "Ġperson": 912,
      "ving": 913,
      "Ġ10": 914,
      "Ġpres": 915,
      "Ġreally": 916,
      "cy": 917,
      "Ġhand": 918,
      "Ġins": 919,
      "Ġass": 920,
      "io": 921,
      "led": 922,
      "Ġsim": 923,
      "Ġsur": 924,
      "We": 925,
      "cept": 926,
      "Ġmark": 927,
      "chool": 928,
      "Ġear": 929,
      "atch": 930,
      "Ġche": 931,
      "Ġbr": 932,
      "ince": 933,
      "ave": 934,
      "Ġhome": 935,
      "Ġgoing": 936,
      "Ġteam": 937,
      "Ġav": 938,
      "ĠBut": 939,
      "ple": 940,
      "ved": 941,
      "arm": 942,
      "Ġworld": 943,
      "ublic": 944,
      "ata": 945,
      "Ġmem": 946,
      "pr": 947,
      "self": 948,
      "pen": 949,
      "Ġused": 950,
      "ins": 951,
      "Ġret": 952,
      "Ġlead": 953,
      "Ġform": 954,
      "Ġnum": 955,
      "Ġsomet": 956,
      "view": 957,
      "ĠSo": 958,
      "read": 959,
      "Ġaround": 960,
      "Ġwhile": 961,
      "Ġdet": 962,
      "ather": 963,
      "Ġeach": 964,
      "Ġdevelop": 965,
      "Ġthough": 966,
      "ize": 967,
      "ject": 968,
      "az": 969,
      "ash": 970,
      "Ġ8": 971,
      "ros": 972,
      ".\"": 973,
      "ĠSh": 974,
      "Ġed": 975,
      "Ġcre": 976,
      "Ġcur": 977,
      "ouse": 978,
      "Ġreal": 979,
      "ages": 980,
      "This": 981,
      "Ġrun": 982,
      "lease": 983,
      "Ġinter": 984,
      "ĠThey": 985,
      "Ġfollow": 986,
      "Ġsame": 987,
      "Ġcare": 988,
      "Ġsub": 989,
      "ness": 990,
      "Ġfam": 991,
      "ĠAl": 992,
      "Ġcount": 993,
      "Ġstill": 994,
      "chn": 995,
      "Ġart": 996,
      "Ġbo": 997,
      "Ġsign": 998,
      "ivers": 999,
      "Ġchar": 1000,
      "land": 1001,
      "Ġprogram": 1002,
      "Ġmod": 1003,
      "Ġexp": 1004,
      "Ġsystem": 1005,
      "Ġvis": 1006,
      "Ġbusiness": 1007,
      "ĠAd": 1008,
      "Ġprovid": 1009,
      "Ġser": 1010,
      "imes": 1011,
      "Ġgr": 1012,
      "Ġ9": 1013,
      "roup": 1014,
      "ex": 1015,
      "ĠBl": 1016,
      "Ġsl": 1017,
      "Ġcomple": 1018,
      "gg": 1019,
      "ves": 1020,
      "unity": 1021,
      "akes": 1022,
      "ience": 1023,
      "der": 1024,
      "Ġpol": 1025,
      "ines": 1026,
      "Ġsay": 1027,
      "Ġlife": 1028,
      "ene": 1029,
      "ute": 1030,
      "Ġmed": 1031,
      ",âĢĿ": 1032,
      "ustom": 1033,
      "It": 1034,
      "ĠCl": 1035,
      "Ġdisc": 1036,
      "Ġlot": 1037,
      "pect": 1038,
      "att": 1039,
      "Ġinterest": 1040,
      "ars": 1041,
      "ives": 1042,
      "ittle": 1043,
      "Ġpoint": 1044,
      "Ġcour": 1045,
      "Ġdifferent": 1046,
      "Ġpur": 1047,
      "ets": 1048,
      "irect": 1049,
      "ever": 1050,
      "Ġplace": 1051,
      "ctions": 1052,
      "000": 1053,
      "ale": 1054,
      "Ġsupport": 1055,
      "Ġeas": 1056,
      "ween": 1057,
      "Ġpost": 1058,
      "Ġhapp": 1059,
      "oun": 1060,
      "ĠFor": 1061,
      "Ġfull": 1062,
      "ways": 1063,
      "Ġstr": 1064,
      "ional": 1065,
      "riend": 1066,
      "Ġthree": 1067,
      "Ġadv": 1068,
      "ĠAr": 1069,
      "ĠBe": 1070,
      "Ġsk": 1071,
      "ature": 1072,
      "ired": 1073,
      "meric": 1074,
      "Ġboth": 1075,
      "Ġgame": 1076,
      "Ġlove": 1077,
      "Ġaut": 1078,
      "Ġ20": 1079,
      "Ġlist": 1080,
      "ames": 1081,
      "Ġfeel": 1082,
      "Ġdesign": 1083,
      "Ġcle": 1084,
      "Ġtop": 1085,
      ",\"": 1086,
      "ety": 1087,
      "Ġhealth": 1088,
      "Ġdata": 1089,
      "ody": 1090,
      "ah": 1091,
      "Ġfr": 1092,
      "oh": 1093,
      "Ġfree": 1094,
      "Ġbook": 1095,
      "Ġfound": 1096,
      "Ġbetween": 1097,
      "Ġfew": 1098,
      "less": 1099,
      "Ġstate": 1100,
      "the": 1101,
      "Ġgot": 1102,
      "ield": 1103,
      "ital": 1104,
      "ering": 1105,
      "ished": 1106,
      "Ġlittle": 1107,
      "cent": 1108,
      "man": 1109,
      "ized": 1110,
      "âĢ¢": 1111,
      "ants": 1112,
      "Ġchild": 1113,
      "Ġgl": 1114,
      "iving": 1115,
      "orn": 1116,
      "Ġusing": 1117,
      "ton": 1118,
      "con": 1119,
      "Wh": 1120,
      "Ġprof": 1121,
      "Ġprocess": 1122,
      "ution": 1123,
      "ĠLe": 1124,
      "Ġcent": 1125,
      "Ġob": 1126,
      "Ġdef": 1127,
      "Ġsomething": 1128,
      "thing": 1129,
      "Ġrece": 1130,
      "Ġmet": 1131,
      "Ġcome": 1132,
      "Ġdist": 1133,
      "Ġthings": 1134,
      "ailable": 1135,
      "Ġext": 1136,
      "Ġref": 1137,
      "Ġplan": 1138,
      "ware": 1139,
      "be": 1140,
      "uc": 1141,
      "ug": 1142,
      "ense": 1143,
      "ross": 1144,
      "rist": 1145,
      "Ġrest": 1146,
      "ĠAmeric": 1147,
      "Ġmight": 1148,
      "Ġlar": 1149,
      "Ġkeep": 1150,
      "Ġgener": 1151,
      "Ġput": 1152,
      "Ġmonth": 1153,
      "Ġsmall": 1154,
      "Ġstand": 1155,
      "Ġdri": 1156,
      "Ġint": 1157,
      "Ġcustom": 1158,
      "uck": 1159,
      "Ġfun": 1160,
      "ient": 1161,
      "ĠThere": 1162,
      "Ġmust": 1163,
      "Ġalways": 1164,
      "Ġnext": 1165,
      "ows": 1166,
      "ology": 1167,
      "tt": 1168,
      "Ġfact": 1169,
      "Ġanother": 1170,
      "Ġreport": 1171,
      "Ġduring": 1172,
      "Ġtechn": 1173,
      "ĠShe": 1174,
      "oot": 1175,
      "ality": 1176,
      "Ġcontin": 1177,
      "Ġtry": 1178,
      "rol": 1179,
      "Ġwithout": 1180,
      "oney": 1181,
      "cer": 1182,
      "Ġpartic": 1183,
      "Ġbig": 1184,
      "Ġincluding": 1185,
      "Ġweek": 1186,
      "Ġopen": 1187,
      "Ġbetter": 1188,
      "ared": 1189,
      "bers": 1190,
      "Ġresult": 1191,
      "Ġdays": 1192,
      "Ġconf": 1193,
      "Ġpat": 1194,
      "atur": 1195,
      "Ġresp": 1196,
      "Ġposs": 1197,
      "ically": 1198,
      "Ġvar": 1199,
      "Ġpass": 1200,
      "ird": 1201,
      "ĠFr": 1202,
      "reen": 1203,
      "Ġlaw": 1204,
      "ists": 1205,
      "Ġgroup": 1206,
      "rence": 1207,
      "Ġavailable": 1208,
      "arn": 1209,
      "Ġiss": 1210,
      "illion": 1211,
      "Ġi": 1212,
      "ined": 1213,
      "Ġpay": 1214,
      "Ġimport": 1215,
      "Ġhead": 1216,
      "Ġopt": 1217,
      "ample": 1218,
      "Ġask": 1219,
      "Ġnumber": 1220,
      "Ġca": 1221,
      "ffect": 1222,
      "ten": 1223,
      "Ġcost": 1224,
      "Ġnever": 1225,
      "Ġsince": 1226,
      "rop": 1227,
      "ision": 1228,
      "ier": 1229,
      "ĠInd": 1230,
      "Ġschool": 1231,
      "Ġpri": 1232,
      "Ġcor": 1233,
      "Ġval": 1234,
      "Ġsol": 1235,
      "ention": 1236,
      "ĠAll": 1237,
      "ĠCon": 1238,
      "Ġcompany": 1239,
      "Ġmarket": 1240,
      "Ġmov": 1241,
      "els": 1242,
      "ling": 1243,
      "ik": 1244,
      "Ġlevel": 1245,
      "Ġsecond": 1246,
      "Ġfil": 1247,
      "If": 1248,
      "Ġty": 1249,
      "rand": 1250,
      "Ġagainst": 1251,
      "Ġquest": 1252,
      "Ġincre": 1253,
      "aj": 1254,
      "ĠHow": 1255,
      "iqu": 1256,
      "Ġwin": 1257,
      "vern": 1258,
      "ted": 1259,
      "Ġhard": 1260,
      "Ġservice": 1261,
      "Ġold": 1262,
      "Ġfriend": 1263,
      "ĠOn": 1264,
      "ploy": 1265,
      "iversity": 1266,
      "ger": 1267,
      "ccess": 1268,
      "ĠPl": 1269,
      "Ġcr": 1270,
      "Ġdi": 1271,
      "Ġ12": 1272,
      "ately": 1273,
      "ior": 1274,
      "Ġwr": 1275,
      "Ġorgan": 1276,
      "ĠâĢĺ": 1277,
      "blem": 1278,
      "ining": 1279,
      "ism": 1280,
      "Ġable": 1281,
      "ems": 1282,
      "ertain": 1283,
      "Ġgive": 1284,
      "pping": 1285,
      "Ġspec": 1286,
      "Ġpower": 1287,
      "50": 1288,
      "raph": 1289,
      "Ġ18": 1290,
      "Ġbuild": 1291,
      "ats": 1292,
      "ĠQ": 1293,
      "ases": 1294,
      "Ġsure": 1295,
      "Ġarea": 1296,
      "10": 1297,
      "here": 1298,
      "Ġperform": 1299,
      "Ġcurrent": 1300,
      "gy": 1301,
      "Ġtri": 1302,
      "ites": 1303,
      "Ġbro": 1304,
      "ards": 1305,
      "Ġide": 1306,
      "Ġpublic": 1307,
      "ered": 1308,
      "Ġmain": 1309,
      "stand": 1310,
      "Ġcolle": 1311,
      "ĠSp": 1312,
      "ĠThat": 1313,
      "work": 1314,
      "Ġlet": 1315,
      "Ġinvest": 1316,
      "Ġexperience": 1317,
      "ĠEx": 1318,
      "Ġexpl": 1319,
      "inal": 1320,
      "Ġproblem": 1321,
      "ĠTe": 1322,
      "Ġonline": 1323,
      "ER": 1324,
      "ĠNo": 1325,
      "Ġel": 1326,
      "Ġbelie": 1327,
      "ral": 1328,
      "Ġfour": 1329,
      "Ġmus": 1330,
      "Ġhum": 1331,
      "Ġless": 1332,
      "Ġve": 1333,
      "ffic": 1334,
      "Ġunt": 1335,
      "You": 1336,
      "Ġvide": 1337,
      "ww": 1338,
      "uss": 1339,
      "Ġterm": 1340,
      "Ġaway": 1341,
      "ump": 1342,
      "Ġwater": 1343,
      "pend": 1344,
      "Ġrecord": 1345,
      "Ġfamily": 1346,
      "gin": 1347,
      "Ġbeh": 1348,
      "Ġwithin": 1349,
      "ope": 1350,
      "ĠIs": 1351,
      "Ġdirect": 1352,
      "Ġoper": 1353,
      "20": 1354,
      "Ġwom": 1355,
      "Ġinf": 1356,
      "Ġleg": 1357,
      "ably": 1358,
      "lo": 1359,
      "ĠRes": 1360,
      "Ġpos": 1361,
      "Ġann": 1362,
      "Ġrese": 1363,
      "ron": 1364,
      "âĢĶ": 1365,
      "ec": 1366,
      "pos": 1367,
      "outh": 1368,
      "ĠCol": 1369,
      "Ġcap": 1370,
      "ĠâĢĶ": 1371,
      "Ġprovide": 1372,
      "Ġgrow": 1373,
      "Ġclass": 1374,
      "ĠMan": 1375,
      "ĠOr": 1376,
      "Ġbre": 1377,
      "ok": 1378,
      "Ġmoney": 1379,
      "ours": 1380,
      "Ġest": 1381,
      "ator": 1382,
      "Ġ15": 1383,
      "Ġaddition": 1384,
      "ission": 1385,
      "aut": 1386,
      "me": 1387,
      "mon": 1388,
      "Ġsays": 1389,
      "pped": 1390,
      "Ġjob": 1391,
      "Ġimportant": 1392,
      "ote": 1393,
      "Ġ'": 1394,
      "Ġturn": 1395,
      "Ġproper": 1396,
      "by": 1397,
      "agement": 1398,
      "'m": 1399,
      "Ġthing": 1400,
      "Ġtoday": 1401,
      "bo": 1402,
      "ury": 1403,
      "ien": 1404,
      "ration": 1405,
      "ĠTr": 1406,
      "med": 1407,
      "Ġ|": 1408,
      "Ġsite": 1409,
      "ains": 1410,
      "ently": 1411,
      "Ġuntil": 1412,
      "He": 1413,
      "Ġequ": 1414,
      "Ġaccess": 1415,
      "ember": 1416,
      "'re": 1417,
      "co": 1418,
      "Ġprev": 1419,
      "Ġ0": 1420,
      "ott": 1421,
      "lish": 1422,
      "cing": 1423,
      "ised": 1424,
      "ina": 1425,
      "ret": 1426,
      "Ġpop": 1427,
      "of": 1428,
      "Ġlight": 1429,
      "oint": 1430,
      "Ġmaking": 1431,
      "ĠPh": 1432,
      "Ġseason": 1433,
      "Ġevent": 1434,
      "por": 1435,
      "Ġwebs": 1436,
      "Ġ2012": 1437,
      "aring": 1438,
      "Ġsal": 1439,
      "Ġfac": 1440,
      "play": 1441,
      "Ġworking": 1442,
      "Ġphot": 1443,
      "Ġservices": 1444,
      "30": 1445,
      "ged": 1446,
      "ider": 1447,
      "Ġorder": 1448,
      "ead": 1449,
      "soci": 1450,
      "ps": 1451,
      "Ġpain": 1452,
      "ĠChrist": 1453,
      "ids": 1454,
      "Ġnight": 1455,
      "IN": 1456,
      "Ġfood": 1457,
      "ĠEng": 1458,
      "St": 1459,
      "Ġchang": 1460,
      "ee": 1461,
      "Ġtalk": 1462,
      "aster": 1463,
      "Ġview": 1464,
      "Ġeng": 1465,
      "Ġmeet": 1466,
      "ĠTo": 1467,
      "orts": 1468,
      "ivid": 1469,
      "ising": 1470,
      "Ġ11": 1471,
      "Ġname": 1472,
      "ajor": 1473,
      "Ġprom": 1474,
      "ream": 1475,
      "tend": 1476,
      "Ġ...": 1477,
      "ĠAt": 1478,
      "ĠCan": 1479,
      "Ġappro": 1480,
      "ges": 1481,
      "Ġpast": 1482,
      "Ġprote": 1483,
      "Ġcontrol": 1484,
      "Ġdidn": 1485,
      "ĠZ": 1486,
      "Ġsing": 1487,
      "ots": 1488,
      "Ġsupp": 1489,
      "Ġactiv": 1490,
      "Ġstudents": 1491,
      "Ġlooking": 1492,
      "omm": 1493,
      "ived": 1494,
      "atter": 1495,
      "Ġmove": 1496,
      "ify": 1497,
      "aim": 1498,
      "ohn": 1499,
      "Ġbas": 1500,
      "iron": 1501,
      "Ġchange": 1502,
      "Ġspecial": 1503,
      "Ġproduct": 1504,
      "ready": 1505,
      "Ġenough": 1506,
      "ĠComm": 1507,
      "let": 1508,
      "ley": 1509,
      "As": 1510,
      "ability": 1511,
      "cu": 1512,
      "Ġ.": 1513,
      "ĠUS": 1514,
      "Ġlocal": 1515,
      "ients": 1516,
      "Ġtest": 1517,
      "Ġpresent": 1518,
      "Ġwhy": 1519,
      "Ġvisit": 1520,
      "Ġleft": 1521,
      "joy": 1522,
      "sh": 1523,
      "Ġallow": 1524,
      "Ġroom": 1525,
      "ĠAm": 1526,
      "ified": 1527,
      "ode": 1528,
      "ium": 1529,
      "Ġsuccess": 1530,
      "Ġlarge": 1531,
      "alf": 1532,
      "Ġproducts": 1533,
      "ush": 1534,
      "ĠCent": 1535,
      "Ġdev": 1536,
      "ored": 1537,
      "Ġair": 1538,
      "itive": 1539,
      "itions": 1540,
      "Ġever": 1541,
      "19": 1542,
      "not": 1543,
      "ither": 1544,
      "Ġapplic": 1545,
      "Ġgovern": 1546,
      "Ġpract": 1547,
      "Ġdetail": 1548,
      "conom": 1549,
      "Ġprofess": 1550,
      "icle": 1551,
      "Ġele": 1552,
      "201": 1553,
      "Ġcou": 1554,
      "ĠWhen": 1555,
      "Ġvideo": 1556,
      "Ġcond": 1557,
      "ization": 1558,
      "Ġcheck": 1559,
      "Ġoffic": 1560,
      "Ġoffer": 1561,
      "Ġalready": 1562,
      "ON": 1563,
      "Ġtoget": 1564,
      "ured": 1565,
      "Ġcommunity": 1566,
      "Ġtogether": 1567,
      "ination": 1568,
      "Ġside": 1569,
      "Ġpa": 1570,
      "ĠUniversity": 1571,
      "Ġcourse": 1572,
      "Ġreturn": 1573,
      "Ġbuy": 1574,
      "hor": 1575,
      "rap": 1576,
      "Ġconst": 1577,
      "Ġtell": 1578,
      "ĠCo": 1579,
      "ĠWhat": 1580,
      ".,": 1581,
      "Ġ[": 1582,
      "Ġhist": 1583,
      "iven": 1584,
      "Ġindust": 1585,
      "Ġchildren": 1586,
      "veral": 1587,
      "ann": 1588,
      "arent": 1589,
      "part": 1590,
      "Ġwon": 1591,
      "Ġcase": 1592,
      "ories": 1593,
      "irl": 1594,
      "Ġword": 1595,
      "ane": 1596,
      "ries": 1597,
      "allen": 1598,
      "Ġcomput": 1599,
      "ocus": 1600,
      "ĠMay": 1601,
      "Ġfollowing": 1602,
      "Ġmeans": 1603,
      "Ġcomplete": 1604,
      "ording": 1605,
      "Ġdr": 1606,
      "Ġeffect": 1607,
      "'ve": 1608,
      "ched": 1609,
      "Ġdone": 1610,
      "Ġemail": 1611,
      "yle": 1612,
      "Ġline": 1613,
      "ĠMed": 1614,
      "Ġhaving": 1615,
      "Ġpercent": 1616,
      "RE": 1617,
      "uff": 1618,
      "ĠFl": 1619,
      "Ġbene": 1620,
      "ruct": 1621,
      "AN": 1622,
      "Ġtimes": 1623,
      "Ġbased": 1624,
      "Ġpress": 1625,
      "Ġ30": 1626,
      "fort": 1627,
      "augh": 1628,
      "Ġ16": 1629,
      "fect": 1630,
      "Ġkey": 1631,
      "Ġemploy": 1632,
      "min": 1633,
      "Ġbody": 1634,
      "Ġinclude": 1635,
      "Ġeduc": 1636,
      "Ġmajor": 1637,
      "Ġaccount": 1638,
      "Ġunderstand": 1639,
      "orth": 1640,
      "'ll": 1641,
      "Ġsw": 1642,
      "Ġnear": 1643,
      "Ġalong": 1644,
      "Ġkind": 1645,
      "Ġcompet": 1646,
      "avor": 1647,
      "Ġdra": 1648,
      "Ġlearn": 1649,
      "Ġlim": 1650,
      "Ġreview": 1651,
      "Ġbit": 1652,
      "ait": 1653,
      "book": 1654,
      "Ġredu": 1655,
      "Ġmillion": 1656,
      "ills": 1657,
      "Ġeasy": 1658,
      "Ġtax": 1659,
      "Ġlow": 1660,
      "Ġoften": 1661,
      "Ġwrit": 1662,
      "aps": 1663,
      "Ġhouse": 1664,
      "Ġla": 1665,
      "Ġsoft": 1666,
      "utes": 1667,
      "Ġseveral": 1668,
      "Ġfar": 1669,
      "ĠWith": 1670,
      "For": 1671,
      "une": 1672,
      "atures": 1673,
      "urs": 1674,
      "Ġleast": 1675,
      "Ġimpro": 1676,
      "ances": 1677,
      "Ġwebsite": 1678,
      "enn": 1679,
      "Ġhold": 1680,
      "ĠApp": 1681,
      "ands": 1682,
      "Ġcharact": 1683,
      "Ġtreat": 1684,
      "ĠSc": 1685,
      "Ġbecome": 1686,
      "Ġfund": 1687,
      "Ġstep": 1688,
      "ery": 1689,
      "Ġdoing": 1690,
      "ĠJohn": 1691,
      "Ġsocial": 1692,
      "ape": 1693,
      "lished": 1694,
      "Ġintern": 1695,
      "Ġnon": 1696,
      "Ġnews": 1697,
      "AT": 1698,
      "ging": 1699,
      "Ġenjoy": 1700,
      "ians": 1701,
      "ĠMar": 1702,
      "Ġcamp": 1703,
      "Ġresearch": 1704,
      "unic": 1705,
      "Ġshort": 1706,
      "isk": 1707,
      "Ġmar": 1708,
      "Ġlive": 1709,
      "fer": 1710,
      "Ġmen": 1711,
      "ĠMy": 1712,
      "Ġdeal": 1713,
      "Ġdoesn": 1714,
      "viron": 1715,
      "Ġcertain": 1716,
      "Ġes": 1717,
      "idd": 1718,
      "Ġlink": 1719,
      "Ġcame": 1720,
      "ourn": 1721,
      "ney": 1722,
      "Ġgetting": 1723,
      "for": 1724,
      "ensive": 1725,
      "Ġtook": 1726,
      "ference": 1727,
      "Ġwent": 1728,
      "Ġfield": 1729,
      "Ġtre": 1730,
      "ern": 1731,
      "Ġmembers": 1732,
      "An": 1733,
      "side": 1734,
      "mber": 1735,
      "Ġ--": 1736,
      "ully": 1737,
      "ency": 1738,
      "osed": 1739,
      "Ġothers": 1740,
      "uro": 1741,
      "Ġwind": 1742,
      "Ġcreate": 1743,
      "Ġbenef": 1744,
      "app": 1745,
      "wards": 1746,
      "Ġcountry": 1747,
      "oice": 1748,
      "aterial": 1749,
      "Ġindivid": 1750,
      "ĠCar": 1751,
      "....": 1752,
      "Ġcreat": 1753,
      "Ġocc": 1754,
      "Ġmakes": 1755,
      "Ġey": 1756,
      "Ġcalled": 1757,
      "Ġpurch": 1758,
      "ĠRo": 1759,
      "ai": 1760,
      "Ġopport": 1761,
      "aken": 1762,
      "Ġtrad": 1763,
      "Ġbelow": 1764,
      "!!": 1765,
      "Ġreason": 1766,
      "Ġyet": 1767,
      "Ġthought": 1768,
      "most": 1769,
      "Ġquality": 1770,
      "crib": 1771,
      "ĠState": 1772,
      "ES": 1773,
      "Ġpersonal": 1774,
      "ique": 1775,
      "ĠX": 1776,
      "Ġexample": 1777,
      "ĠRep": 1778,
      "room": 1779,
      "Ġmean": 1780,
      "âĢĵ": 1781,
      "ential": 1782,
      "Ġclose": 1783,
      "Ġpossible": 1784,
      "ograph": 1785,
      "pro": 1786,
      "ĠCal": 1787,
      "Ġhig": 1788,
      "irm": 1789,
      "port": 1790,
      "Ġproject": 1791,
      "Ġorig": 1792,
      "Ġprice": 1793,
      "Ġfocus": 1794,
      "Ġonce": 1795,
      "son": 1796,
      "Ġsound": 1797,
      "che": 1798,
      "Ġconne": 1799,
      "Ġcontact": 1800,
      "tain": 1801,
      "uly": 1802,
      "AR": 1803,
      "gle": 1804,
      "Ġquick": 1805,
      "Ġactually": 1806,
      "ilities": 1807,
      "Ġspecific": 1808,
      "Ġmom": 1809,
      "Ġ:": 1810,
      "Ġtem": 1811,
      "ones": 1812,
      "ĠIntern": 1813,
      "Ġhappen": 1814,
      "Ġpie": 1815,
      "oose": 1816,
      "There": 1817,
      "uture": 1818,
      "Ġ199": 1819,
      "ĠSte": 1820,
      "verage": 1821,
      "Ġneeds": 1822,
      "Ġdevelopment": 1823,
      "Ġcity": 1824,
      "itor": 1825,
      "Ġfive": 1826,
      "Ġbeaut": 1827,
      "What": 1828,
      "Ġindividual": 1829,
      "Ġeconom": 1830,
      "vironment": 1831,
      "Ġmult": 1832,
      "ption": 1833,
      "load": 1834,
      "Ġfore": 1835,
      "Ġmil": 1836,
      "Ġcut": 1837,
      "ĠDo": 1838,
      "Ġearly": 1839,
      "Ġparticular": 1840,
      "br": 1841,
      "Ġmind": 1842,
      "Ġ14": 1843,
      "aff": 1844,
      "ĠÂ": 1845,
      "Ġsit": 1846,
      "Ġpar": 1847,
      "wh": 1848,
      "12": 1849,
      "Ġpick": 1850,
      "Ġstore": 1851,
      "de": 1852,
      "Ġnet": 1853,
      "roll": 1854,
      "Ġpage": 1855,
      "Ġcomes": 1856,
      "ource": 1857,
      "Ġclaim": 1858,
      "Ġyoung": 1859,
      "Ġperfect": 1860,
      "Ġhours": 1861,
      "iday": 1862,
      "ĠBr": 1863,
      "unch": 1864,
      "But": 1865,
      "urther": 1866,
      "ĠOne": 1867,
      "Ġ2013": 1868,
      "Ġinvol": 1869,
      "Ġcomputer": 1870,
      "Ġtold": 1871,
      "arr": 1872,
      "ulation": 1873,
      "cially": 1874,
      "Ġacross": 1875,
      "Ġclear": 1876,
      "Ġident": 1877,
      "Ġpot": 1878,
      "ift": 1879,
      "Ġprob": 1880,
      "Ġgovernment": 1881,
      "atic": 1882,
      "Ġfront": 1883,
      "Ġmusic": 1884,
      "aly": 1885,
      "ateg": 1886,
      "Ġspace": 1887,
      "ches": 1888,
      "ners": 1889,
      "ĠCont": 1890,
      "ĠNot": 1891,
      "Ġvers": 1892,
      "ides": 1893,
      "Ġtot": 1894,
      "Ġstarted": 1895,
      "lf": 1896,
      "icy": 1897,
      "Ġbring": 1898,
      "Ġpack": 1899,
      "Ġmaterial": 1900,
      "ilar": 1901,
      "Ġdeli": 1902,
      "Ġ17": 1903,
      "Ġcontent": 1904,
      "ĠComp": 1905,
      "illed": 1906,
      "Ġstrong": 1907,
      "11": 1908,
      "Ġce": 1909,
      "Ġpriv": 1910,
      "eral": 1911,
      "Ġdem": 1912,
      "Ġtyp": 1913,
      "sw": 1914,
      "Ġhuman": 1915,
      "When": 1916,
      "oor": 1917,
      "Ġstory": 1918,
      "Ġcomb": 1919,
      "ĠThese": 1920,
      "Ġdog": 1921,
      "Ġfuture": 1922,
      "ams": 1923,
      "err": 1924,
      "Ġwomen": 1925,
      "ĠWor": 1926,
      "Ġmeas": 1927,
      "Ġvari": 1928,
      "cle": 1929,
      "osp": 1930,
      "Ġchallen": 1931,
      "So": 1932,
      "Ġbegin": 1933,
      "Ġhot": 1934,
      "Ġvol": 1935,
      "ned": 1936,
      "Ġhalf": 1937,
      "Ġeither": 1938,
      "rown": 1939,
      "Ġcir": 1940,
      "rodu": 1941,
      "Ġ25": 1942,
      "ĠEn": 1943,
      "Ġwhether": 1944,
      "Ġamong": 1945,
      "IS": 1946,
      "Ġwalk": 1947,
      "Ġlater": 1948,
      "Ġrad": 1949,
      "acy": 1950,
      "Ġheart": 1951,
      "Ġappear": 1952,
      "And": 1953,
      "Ġsum": 1954,
      "Ġsix": 1955,
      "hers": 1956,
      "Ġquestion": 1957,
      "Ġareas": 1958,
      "ĠNe": 1959,
      "Ġplac": 1960,
      "Ġamount": 1961,
      "Ġinstall": 1962,
      "Ġfre": 1963,
      "ĠAmerican": 1964,
      "Ġmonths": 1965,
      "Ġfriends": 1966,
      "OR": 1967,
      "ler": 1968,
      "lement": 1969,
      "utions": 1970,
      "ights": 1971,
      "ips": 1972,
      "ĠYork": 1973,
      "fic": 1974,
      "iod": 1975,
      "ctor": 1976,
      "though": 1977,
      "Ġabove": 1978,
      "Ġmanag": 1979,
      "ED": 1980,
      "Ġface": 1981,
      "Ġfavor": 1982,
      "ĠSu": 1983,
      "Ġsuper": 1984,
      "Ġthird": 1985,
      "Ġseem": 1986,
      "Ġens": 1987,
      "Ġknown": 1988,
      "Ġseen": 1989,
      "//": 1990,
      "now": 1991,
      "Ġ24": 1992,
      "Ġrequire": 1993,
      "Ġbad": 1994,
      "ster": 1995,
      "Ġgames": 1996,
      "ĠGod": 1997,
      "Ġmor": 1998,
      "Ġz": 1999,
      "Ġanything": 2000,
      "par": 2001,
      "Ġet": 2002,
      "jects": 2003,
      "oon": 2004,
      "reet": 2005,
      "ister": 2006,
      "ural": 2007,
      "Ġgiven": 2008,
      "Ġgirl": 2009,
      "ille": 2010,
      "ĠFe": 2011,
      "ĠInst": 2012,
      "Ġwhole": 2013,
      "Ġfilm": 2014,
      "time": 2015,
      "ued": 2016,
      "Ġstay": 2017,
      "selves": 2018,
      "On": 2019,
      "Ġcult": 2020,
      "Ġdou": 2021,
      "amer": 2022,
      "Ġdisplay": 2023,
      ".)": 2024,
      "ibility": 2025,
      "Ġplease": 2026,
      "Ġauthor": 2027,
      "Ġbelieve": 2028,
      "Ġindustry": 2029,
      "anies": 2030,
      "Ġrele": 2031,
      "Ġrespons": 2032,
      "back": 2033,
      "asing": 2034,
      "EN": 2035,
      "vent": 2036,
      "ĠCount": 2037,
      "ĠEuro": 2038,
      "Ġmanagement": 2039,
      "Ġstudy": 2040,
      "dd": 2041,
      "use": 2042,
      "Ġbar": 2043,
      "ĠNational": 2044,
      "new": 2045,
      "Ġ50": 2046,
      "://": 2047,
      "ogn": 2048,
      "rict": 2049,
      "Ġeverything": 2050,
      "Ġclean": 2051,
      "fully": 2052,
      "Ġhope": 2053,
      "ĠWill": 2054,
      "resent": 2055,
      "Ġago": 2056,
      "ball": 2057,
      "Ġaff": 2058,
      "Ġwatch": 2059,
      "cell": 2060,
      "ĠPr": 2061,
      "Ġeff": 2062,
      "Re": 2063,
      "abor": 2064,
      "Ġshare": 2065,
      "Ġenvironment": 2066,
      "used": 2067,
      "ony": 2068,
      "Ġsell": 2069,
      "ĠYour": 2070,
      "Ġsomeone": 2071,
      "Ġworks": 2072,
      "atural": 2073,
      "Ġtaken": 2074,
      "over": 2075,
      "200": 2076,
      "Ġcal": 2077,
      "Ġred": 2078,
      "org": 2079,
      "ĠCity": 2080,
      "ilt": 2081,
      "Ġtrack": 2082,
      "How": 2083,
      "ided": 2084,
      "Ġ100": 2085,
      "iver": 2086,
      "Ġhost": 2087,
      "itted": 2088,
      "Ġtechnology": 2089,
      "Ġ13": 2090,
      "opy": 2091,
      "Ġpark": 2092,
      "urch": 2093,
      "urity": 2094,
      "ament": 2095,
      "Ġanim": 2096,
      "Ġrange": 2097,
      "Ġfeatures": 2098,
      "Ġpub": 2099,
      "Ġdue": 2100,
      "Ġasked": 2101,
      "Ġvalue": 2102,
      "ators": 2103,
      "Ġcra": 2104,
      "Ġelect": 2105,
      "ĠServ": 2106,
      "Ġant": 2107,
      "Ġenc": 2108,
      "Ġpret": 2109,
      "ĠUnited": 2110,
      "hod": 2111,
      "Ġjo": 2112,
      "Ġwait": 2113,
      "Ġport": 2114,
      "anks": 2115,
      "ources": 2116,
      "Ġrecomm": 2117,
      "Ġphys": 2118,
      "ledge": 2119,
      "Ġbreak": 2120,
      "Ġhistory": 2121,
      "Ġrecommend": 2122,
      "cri": 2123,
      "ĠSy": 2124,
      "ggest": 2125,
      "Ġidea": 2126,
      "Ġage": 2127,
      "Ġgra": 2128,
      "gth": 2129,
      "Ġcannot": 2130,
      "Ġsingle": 2131,
      "eds": 2132,
      "idence": 2133,
      "ĠMe": 2134,
      "Ġaddress": 2135,
      "gress": 2136,
      "ply": 2137,
      "Ġsize": 2138,
      "Ġrepl": 2139,
      "Ġminutes": 2140,
      "Ġmess": 2141,
      "ification": 2142,
      "come": 2143,
      "irt": 2144,
      "Ġlikely": 2145,
      "Ġperformance": 2146,
      "mb": 2147,
      "Ġbra": 2148,
      "ĠMc": 2149,
      "15": 2150,
      "Ġball": 2151,
      "Ġdiscuss": 2152,
      "IT": 2153,
      "head": 2154,
      "icro": 2155,
      "ĠBo": 2156,
      "Ġrate": 2157,
      "Ġperiod": 2158,
      "apt": 2159,
      "Ġcred": 2160,
      "vert": 2161,
      "Ġsimple": 2162,
      "ison": 2163,
      "25": 2164,
      "ĠMin": 2165,
      "Ġprobably": 2166,
      "go": 2167,
      "Ġoffers": 2168,
      "iously": 2169,
      "Ch": 2170,
      "where": 2171,
      "ino": 2172,
      "Ġmot": 2173,
      "Ġalmost": 2174,
      "Ġsent": 2175,
      "Ġsearch": 2176,
      "Ġblog": 2177,
      "ĠHowever": 2178,
      "ĠPart": 2179,
      "Ġpolit": 2180,
      "Ġresults": 2181,
      "Ġelse": 2182,
      "Ġexc": 2183,
      "Ġseries": 2184,
      "Ġcharacter": 2185,
      "Ġtool": 2186,
      "Ġrisk": 2187,
      "Ġhowever": 2188,
      "Ġeveryone": 2189,
      "Ġfail": 2190,
      "ĠOur": 2191,
      "Ġquite": 2192,
      "Ġspend": 2193,
      "Ġpretty": 2194,
      "Ġ/": 2195,
      "isc": 2196,
      "Ġrent": 2197,
      "ĠAust": 2198,
      "pecially": 2199,
      "Ġaud": 2200,
      "Ġliving": 2201,
      "imate": 2202,
      "chie": 2203,
      "ID": 2204,
      "eter": 2205,
      "Ġbehind": 2206,
      "ficult": 2207,
      "Ġweb": 2208,
      "Ġself": 2209,
      "Ġconsider": 2210,
      "Ġcustomers": 2211,
      "Ġissues": 2212,
      "AL": 2213,
      "Ġhon": 2214,
      "ĠTw": 2215,
      "Ġconcer": 2216,
      "umb": 2217,
      "ĠGu": 2218,
      "itten": 2219,
      "âĢ¢âĢ¢": 2220,
      "Ġsaw": 2221,
      "Ġconsum": 2222,
      "IC": 2223,
      "Ġstat": 2224,
      "ially": 2225,
      "Ġrather": 2226,
      "Ġtrail": 2227,
      "Ġpoints": 2228,
      "Ġfall": 2229,
      "ĠAb": 2230,
      "ĠGl": 2231,
      "Ġabs": 2232,
      "Ġprint": 2233,
      "Ġtrying": 2234,
      "action": 2235,
      "ĠPark": 2236,
      "ung": 2237,
      "ively": 2238,
      "Ġener": 2239,
      "put": 2240,
      "uation": 2241,
      "ĠPres": 2242,
      "--": 2243,
      "OS": 2244,
      "af": 2245,
      "Ġcoming": 2246,
      "Ġcommon": 2247,
      "rew": 2248,
      "ried": 2249,
      "Ġnothing": 2250,
      "Ġentire": 2251,
      "year": 2252,
      "ĠIm": 2253,
      "Ġdel": 2254,
      "Ġsuggest": 2255,
      "Ġaccording": 2256,
      "Ġdifficult": 2257,
      "Ġbuilding": 2258,
      "Ġwond": 2259,
      "Ġfurther": 2260,
      "ĠOct": 2261,
      "Ġrunning": 2262,
      "Ġeducation": 2263,
      "mit": 2264,
      "ained": 2265,
      "ples": 2266,
      "Ġrequired": 2267,
      "Ġcontinue": 2268,
      "Ġbrand": 2269,
      "ancial": 2270,
      "ĠTH": 2271,
      "cience": 2272,
      "Ġ2011": 2273,
      "ĠPar": 2274,
      "oogle": 2275,
      "Ġvi": 2276,
      "Ġfinal": 2277,
      "Ġsimilar": 2278,
      "Ġprovided": 2279,
      "ĠSchool": 2280,
      "ĠChe": 2281,
      "unities": 2282,
      "Ġoffice": 2283,
      "Ġparticip": 2284,
      "Ã©": 2285,
      "pected": 2286,
      "ĠEurope": 2287,
      "Ġtaking": 2288,
      "Ġcompanies": 2289,
      "Ġwanted": 2290,
      "Ġnice": 2291,
      "nes": 2292,
      "Ð¾": 2293,
      "Ġmag": 2294,
      "ĠPer": 2295,
      "aging": 2296,
      "Ġaccept": 2297,
      "uge": 2298,
      "urance": 2299,
      "Ġheld": 2300,
      "Ġphone": 2301,
      "Ġmedia": 2302,
      "Ġquestions": 2303,
      "Ġwar": 2304,
      "Ġdeath": 2305,
      "ague": 2306,
      "Ġblood": 2307,
      "Ġsignific": 2308,
      "Ġsoftware": 2309,
      "ĠTra": 2310,
      "iful": 2311,
      "bit": 2312,
      "ĠJan": 2313,
      "Ġevents": 2314,
      "uf": 2315,
      "Ġseems": 2316,
      "Ġplayers": 2317,
      "ĠSec": 2318,
      "Ġhigher": 2319,
      "Ġmodel": 2320,
      "Ġfoot": 2321,
      "Ġstop": 2322,
      "Ġsex": 2323,
      "Ġcrit": 2324,
      "Ġmiss": 2325,
      "Ġlog": 2326,
      "earch": 2327,
      "Ġneeded": 2328,
      "Ph": 2329,
      "ires": 2330,
      "Ġpric": 2331,
      "ĠCor": 2332,
      "ama": 2333,
      "Ġsele": 2334,
      "hib": 2335,
      "Ġcard": 2336,
      "Ġadded": 2337,
      "pril": 2338,
      "ĠCenter": 2339,
      "Ġmatter": 2340,
      "ĠHar": 2341,
      "ĠGr": 2342,
      "ĠStates": 2343,
      "Ġrelations": 2344,
      "Ġattack": 2345,
      "18": 2346,
      "val": 2347,
      "Ġtou": 2348,
      "Ġround": 2349,
      "Ġimpact": 2350,
      "empt": 2351,
      "AS": 2352,
      "Ġess": 2353,
      "ĠSm": 2354,
      "ĠFace": 2355,
      "ĠGo": 2356,
      "Ġupon": 2357,
      "Ġextra": 2358,
      "Ġdam": 2359,
      "Ġland": 2360,
      "ĠMark": 2361,
      "Ġsle": 2362,
      "Ġground": 2363,
      "Ġblack": 2364,
      "Ġprovides": 2365,
      "Ġreceive": 2366,
      "ĠAmerica": 2367,
      "CT": 2368,
      "right": 2369,
      "ĠAfter": 2370,
      "ili": 2371,
      "Ġcook": 2372,
      "Ġexist": 2373,
      "ume": 2374,
      "Ġdocu": 2375,
      "obal": 2376,
      "attle": 2377,
      "Ġreceived": 2378,
      "Ġmethod": 2379,
      "aur": 2380,
      "rel": 2381,
      "eth": 2382,
      "Ðµ": 2383,
      "Ġansw": 2384,
      "ables": 2385,
      "Ġvarious": 2386,
      "ĠWorld": 2387,
      "Ġcell": 2388,
      "angu": 2389,
      "Ġmember": 2390,
      "sy": 2391,
      "Ġut": 2392,
      "Ġtit": 2393,
      "arget": 2394,
      "astic": 2395,
      "Ġupd": 2396,
      "Ġrequest": 2397,
      "Ġissue": 2398,
      "Ġproperty": 2399,
      "ĠKe": 2400,
      "Ġimprove": 2401,
      "lex": 2402,
      "Ġclick": 2403,
      "22": 2404,
      "Ġfast": 2405,
      "Ġswe": 2406,
      "iting": 2407,
      "itch": 2408,
      "ĠDep": 2409,
      "aby": 2410,
      "14": 2411,
      "To": 2412,
      "omes": 2413,
      "ĠEd": 2414,
      "Ġgeneral": 2415,
      "Ġsqu": 2416,
      "Ġoil": 2417,
      "Ġinit": 2418,
      "ĠHis": 2419,
      "ords": 2420,
      "itting": 2421,
      "Al": 2422,
      "ival": 2423,
      "ibr": 2424,
      "Ġparty": 2425,
      "rug": 2426,
      "ruction": 2427,
      "Ġtotal": 2428,
      "Ġopp": 2429,
      "ĠDes": 2430,
      "Ġdefe": 2431,
      "Ġnecess": 2432,
      "ĠGe": 2433,
      "OU": 2434,
      "ipping": 2435,
      "na": 2436,
      "ises": 2437,
      "ules": 2438,
      "rie": 2439,
      "Ġsoon": 2440,
      "obile": 2441,
      "Ġcommunic": 2442,
      "Ġdeterm": 2443,
      "Ġtype": 2444,
      "minist": 2445,
      "Ġetc": 2446,
      "ring": 2447,
      "Ġsend": 2448,
      "Ġincludes": 2449,
      "reg": 2450,
      "Ġstaff": 2451,
      "Ġshows": 2452,
      "Ġsignificant": 2453,
      "gest": 2454,
      "Ġbox": 2455,
      "Ġposition": 2456,
      "Ġsong": 2457,
      "Ġfire": 2458,
      "Ġroad": 2459,
      "Ġwords": 2460,
      "Ġ*": 2461,
      "Ġfit": 2462,
      "Ġlic": 2463,
      "ief": 2464,
      "Ġrecogn": 2465,
      "ĠQu": 2466,
      "Ġloss": 2467,
      "ĠSpe": 2468,
      "Ġisn": 2469,
      "Ġforward": 2470,
      "Ġkids": 2471,
      "ĠAssoci": 2472,
      "Ġterms": 2473,
      "ufact": 2474,
      "resh": 2475,
      "Ġagree": 2476,
      "Ġcurrently": 2477,
      "80": 2478,
      "Ġassist": 2479,
      "Ġannoun": 2480,
      "ental": 2481,
      "ada": 2482,
      "pper": 2483,
      "elt": 2484,
      "Ġcover": 2485,
      "Ġsimply": 2486,
      "medi": 2487,
      "Ġprofessional": 2488,
      "Ġespecially": 2489,
      "Ġenergy": 2490,
      "Ġcomfort": 2491,
      "ederal": 2492,
      "amed": 2493,
      "ĠBy": 2494,
      "ĠNow": 2495,
      "Ġtext": 2496,
      "Ġofficial": 2497,
      "'d": 2498,
      "Ġstri": 2499,
      "ĠGoogle": 2500,
      "ĠSouth": 2501,
      "Ġitems": 2502,
      "ĠPe": 2503,
      "ĠJust": 2504,
      "ĠUs": 2505,
      "ipment": 2506,
      "Ġtrue": 2507,
      "Ġhands": 2508,
      "Ġarticle": 2509,
      "Ġdetails": 2510,
      "Ġwriting": 2511,
      "iff": 2512,
      "ĠDav": 2513,
      "Ġwasn": 2514,
      "istic": 2515,
      "Ġprograms": 2516,
      "Ġgrad": 2517,
      "Ġsales": 2518,
      "Ġdig": 2519,
      "Ġdeb": 2520,
      "Ġunique": 2521,
      "ĠCalif": 2522,
      "Ġoriginal": 2523,
      "yn": 2524,
      "ĠPol": 2525,
      "17": 2526,
      "Ġachie": 2527,
      "anced": 2528,
      "Ġindic": 2529,
      "Ġboard": 2530,
      "lt": 2531,
      "Ġste": 2532,
      "Ġestab": 2533,
      "ĠMore": 2534,
      "Ġwhite": 2535,
      "ciety": 2536,
      "Ġanyone": 2537,
      "Ġrecent": 2538,
      "Ġrecently": 2539,
      "Ġdescrib": 2540,
      "Ġhappy": 2541,
      "my": 2542,
      "cient": 2543,
      "Ġregard": 2544,
      "Ġdate": 2545,
      "Ġcontract": 2546,
      "ees": 2547,
      "ĠHigh": 2548,
      "Ġchanges": 2549,
      "16": 2550,
      "Ġfig": 2551,
      "Ġparent": 2552,
      "Ġhy": 2553,
      "Ġsho": 2554,
      "Ġthroughout": 2555,
      "Ġsus": 2556,
      "Ġnorm": 2557,
      "adem": 2558,
      "Ġexpect": 2559,
      "Ġadditional": 2560,
      "Ġ,": 2561,
      "reme": 2562,
      "Ġwide": 2563,
      "Ġways": 2564,
      "ask": 2565,
      "Ġvict": 2566,
      "Ġusually": 2567,
      "Ġtravel": 2568,
      "Ġskin": 2569,
      "Ġnetwork": 2570,
      "Ġchoose": 2571,
      "Ġnatural": 2572,
      "ĠSer": 2573,
      "ĠJune": 2574,
      "Ġpopular": 2575,
      "Ġpaper": 2576,
      "Ġrelationship": 2577,
      "ĠFacebook": 2578,
      "based": 2579,
      "Ġill": 2580,
      "oud": 2581,
      "Ġbal": 2582,
      "Ġinj": 2583,
      "Ġstra": 2584,
      "Ġbeautiful": 2585,
      "arter": 2586,
      "Ġexperien": 2587,
      "Ġdefin": 2588,
      "Ġengine": 2589,
      "Ġfavorite": 2590,
      "Ġ#": 2591,
      "anc": 2592,
      "Ġtraining": 2593,
      "Ġrepresent": 2594,
      "Ġweeks": 2595,
      "Ġcouple": 2596,
      "ole": 2597,
      "Ġtakes": 2598,
      "Ġobs": 2599,
      "ĠApril": 2600,
      "Ġclos": 2601,
      "ĠInc": 2602,
      "ĠEnglish": 2603,
      "ober": 2604,
      "Ġexcept": 2605,
      "itional": 2606,
      "Ġtable": 2607,
      "Ġproblems": 2608,
      "Ġopportunity": 2609,
      "Ġversion": 2610,
      "oring": 2611,
      "ude": 2612,
      "ĠCounty": 2613,
      "OT": 2614,
      "ĠHouse": 2615,
      "izing": 2616,
      "aving": 2617,
      ")||": 2618,
      "Ġsens": 2619,
      "Ġnational": 2620,
      "Ġ40": 2621,
      "Ġpressure": 2622,
      "Ġpict": 2623,
      "ĠDon": 2624,
      "ĠEm": 2625,
      "Ġfeature": 2626,
      "ĠWeb": 2627,
      "oid": 2628,
      "Ġsat": 2629,
      "Ġdom": 2630,
      "ĠWar": 2631,
      "Ġ21": 2632,
      "Ġexam": 2633,
      "ĠColle": 2634,
      "Ġbase": 2635,
      "Ġassoci": 2636,
      "ĠEl": 2637,
      "Ġ2017": 2638,
      "aturday": 2639,
      "Ġensure": 2640,
      "atest": 2641,
      "Ġple": 2642,
      "Ġlost": 2643,
      "Ġworth": 2644,
      "Ġleaders": 2645,
      "Ġinfl": 2646,
      "ĠPresident": 2647,
      "gree": 2648,
      "ĠSome": 2649,
      "ĠDr": 2650,
      "ops": 2651,
      "Ġprep": 2652,
      "ĠReg": 2653,
      "That": 2654,
      "Ġplayer": 2655,
      "ornia": 2656,
      "Ġincrease": 2657,
      "Ġmorning": 2658,
      "Ġdire": 2659,
      "Ġhtt": 2660,
      "Ġlate": 2661,
      "ĠBar": 2662,
      "Ġchance": 2663,
      "Ġemb": 2664,
      "Ġmoment": 2665,
      "40": 2666,
      "Ġsense": 2667,
      "oura": 2668,
      "ĠNorth": 2669,
      "clus": 2670,
      "Ġthemselves": 2671,
      "ING": 2672,
      "Ġbed": 2673,
      "Ġlit": 2674,
      "ĠAct": 2675,
      "ĠPat": 2676,
      "artment": 2677,
      "Ġlonger": 2678,
      "board": 2679,
      "hood": 2680,
      "urg": 2681,
      "Ġ2010": 2682,
      "Ġinde": 2683,
      "Ġcolor": 2684,
      "Ġdecision": 2685,
      "Ġcourt": 2686,
      "iet": 2687,
      "Ġfair": 2688,
      "Ġhit": 2689,
      "Ġyourself": 2690,
      "Ġroll": 2691,
      "aign": 2692,
      "aily": 2693,
      "Ġwall": 2694,
      "Ġinn": 2695,
      "Ġgold": 2696,
      "Ġleave": 2697,
      "Ġprivate": 2698,
      "Ġregular": 2699,
      "Ġstandard": 2700,
      "atory": 2701,
      "aining": 2702,
      "Ġdesigned": 2703,
      "Ġoptions": 2704,
      "ground": 2705,
      "Ġlay": 2706,
      "ĠAf": 2707,
      "ĠFin": 2708,
      "Ġpolicy": 2709,
      "AM": 2710,
      "haps": 2711,
      "Ġaction": 2712,
      "Ġfa": 2713,
      "ĠMarch": 2714,
      "Ġpropos": 2715,
      "ĠNet": 2716,
      "Ġspeak": 2717,
      "Ġscreen": 2718,
      "Ġx": 2719,
      "ĠDay": 2720,
      "Ġlevels": 2721,
      "13": 2722,
      "ades": 2723,
      "irit": 2724,
      "Ġneg": 2725,
      "Ġcreated": 2726,
      "ecut": 2727,
      "Ġsafe": 2728,
      "Ġplaying": 2729,
      "Ġquickly": 2730,
      "aching": 2731,
      "azing": 2732,
      "ĠCalifornia": 2733,
      "OM": 2734,
      "ese": 2735,
      "Ġattend": 2736,
      "Ġsaf": 2737,
      "Ġop": 2738,
      "Ġcases": 2739,
      "Ġsecurity": 2740,
      "Ġready": 2741,
      "ville": 2742,
      "Ġpred": 2743,
      "ĠInt": 2744,
      "Ġlear": 2745,
      "Ġoutside": 2746,
      "ĠAustral": 2747,
      "With": 2748,
      "inary": 2749,
      "Ġfirm": 2750,
      "ĠOff": 2751,
      "Ġveh": 2752,
      "ze": 2753,
      "alys": 2754,
      "ession": 2755,
      "Ġcoll": 2756,
      "iddle": 2757,
      "AC": 2758,
      "usiness": 2759,
      "ĠStud": 2760,
      "Ġworked": 2761,
      "Ġproduction": 2762,
      "Ġrelated": 2763,
      "Ġinside": 2764,
      "Ġtarget": 2765,
      "Ġactivities": 2766,
      "99": 2767,
      "uary": 2768,
      "Ġaw": 2769,
      "Ġbott": 2770,
      "ought": 2771,
      "Ġlooks": 2772,
      "ĠSept": 2773,
      "Ġgrowth": 2774,
      "erve": 2775,
      "duct": 2776,
      "Ġcool": 2777,
      "Ġcosts": 2778,
      "Ġapplication": 2779,
      "Ġviol": 2780,
      "At": 2781,
      "ek": 2782,
      "Ġmatch": 2783,
      "Ġgoal": 2784,
      "Ġrights": 2785,
      "Ġcareer": 2786,
      "Ġtreatment": 2787,
      "60": 2788,
      "My": 2789,
      "gu": 2790,
      "Ġcamer": 2791,
      "Ġpers": 2792,
      "Ġteac": 2793,
      "ishing": 2794,
      "Ġinstead": 2795,
      "rs": 2796,
      "Ġcause": 2797,
      "Ġdeep": 2798,
      "Ġvot": 2799,
      "Ġmyself": 2800,
      "Ġsave": 2801,
      "Ġknowledge": 2802,
      "ructure": 2803,
      "Ġdark": 2804,
      "ĠWell": 2805,
      "unday": 2806,
      "Ġpractice": 2807,
      "Ġinvolved": 2808,
      "fl": 2809,
      "ĠUp": 2810,
      "Ġcontrib": 2811,
      "ression": 2812,
      "Ġrole": 2813,
      "ĠHealth": 2814,
      "Ġblock": 2815,
      "lier": 2816,
      "Ġcapt": 2817,
      "Ġstates": 2818,
      "kend": 2819,
      "Ġinteresting": 2820,
      "Sh": 2821,
      "ester": 2822,
      "Ġformer": 2823,
      "onday": 2824,
      "Ġfight": 2825,
      "Ġdest": 2826,
      "Ġbegan": 2827,
      "ĠAug": 2828,
      "illing": 2829,
      "airs": 2830,
      "Ġsett": 2831,
      "Ġdrive": 2832,
      "ĠDepartment": 2833,
      "like": 2834,
      "Ġmix": 2835,
      "Ġlangu": 2836,
      "imum": 2837,
      "bert": 2838,
      "Ġintrodu": 2839,
      "Ġaverage": 2840,
      "alt": 2841,
      "Ġdrug": 2842,
      "ĠWest": 2843,
      "Ġarri": 2844,
      "ening": 2845,
      "icles": 2846,
      "Ġexact": 2847,
      "Ġusers": 2848,
      "Ġincluded": 2849,
      "Ġfinancial": 2850,
      "Ġmovie": 2851,
      "Ġtur": 2852,
      "Our": 2853,
      "ram": 2854,
      "vey": 2855,
      "Ġdepend": 2856,
      "Ġknew": 2857,
      "Ġimmedi": 2858,
      "Ġattempt": 2859,
      "Ġwritten": 2860,
      "Ġpurchase": 2861,
      "ding": 2862,
      "ms": 2863,
      "ray": 2864,
      "olution": 2865,
      "Ġhair": 2866,
      "Ġability": 2867,
      "oe": 2868,
      "Ġge": 2869,
      "Ġcomment": 2870,
      "ĠJuly": 2871,
      "Ġappe": 2872,
      "Ġapply": 2873,
      "Ġsaying": 2874,
      "Ġequipment": 2875,
      "Ġeyes": 2876,
      "mas": 2877,
      "oke": 2878,
      "Ġcy": 2879,
      "idge": 2880,
      "unt": 2881,
      "Ġmanufact": 2882,
      "Ġdise": 2883,
      "Ġleading": 2884,
      "Ġautom": 2885,
      "www": 2886,
      "Cl": 2887,
      "Ġcand": 2888,
      "Ġstyle": 2889,
      "Ġitself": 2890,
      "Ġplant": 2891,
      "ĠArt": 2892,
      "Ġbehav": 2893,
      "LE": 2894,
      "Ġallows": 2895,
      "They": 2896,
      "ovember": 2897,
      "Ġattention": 2898,
      "Ġwoman": 2899,
      "Ġlatest": 2900,
      "Ġtele": 2901,
      "Ġsystems": 2902,
      "ĠHer": 2903,
      "Ġvia": 2904,
      "cip": 2905,
      "Ġhol": 2906,
      "asons": 2907,
      "Ġep": 2908,
      "Ġ22": 2909,
      "Ġ23": 2910,
      "Ġuser": 2911,
      "Ġclub": 2912,
      "Ġdownload": 2913,
      "Ġprior": 2914,
      "Ġpiece": 2915,
      "Ġsafety": 2916,
      "cil": 2917,
      "ett": 2918,
      "ĠPM": 2919,
      "Ġord": 2920,
      "Ġgets": 2921,
      "ĠFriday": 2922,
      "ming": 2923,
      "ux": 2924,
      "Ġpull": 2925,
      "ashing": 2926,
      "Ġrelease": 2927,
      "ĠPre": 2928,
      "ĠDis": 2929,
      "Ġsepar": 2930,
      "ĠThen": 2931,
      "Ġsurpr": 2932,
      "Ġprotect": 2933,
      "Ġtouch": 2934,
      "face": 2935,
      "su": 2936,
      "onse": 2937,
      "Ġcat": 2938,
      "ĠSen": 2939,
      "key": 2940,
      "ĠNews": 2941,
      "Ġwrong": 2942,
      "ma": 2943,
      "Ġsil": 2944,
      "itc": 2945,
      "Ġbooks": 2946,
      "Ġfunction": 2947,
      "Ġcredit": 2948,
      "Ġlearning": 2949,
      "alysis": 2950,
      "Ġcode": 2951,
      "Ġnature": 2952,
      "ĠSaturday": 2953,
      "ached": 2954,
      "Ġlooked": 2955,
      "Ġeasily": 2956,
      "ournal": 2957,
      "No": 2958,
      "light": 2959,
      "Ġhor": 2960,
      "ĠSw": 2961,
      "ĠSan": 2962,
      "Ġstuff": 2963,
      "ĠOf": 2964,
      "Ġprim": 2965,
      "Ġremember": 2966,
      "ĠÂ£": 2967,
      "21": 2968,
      "ceed": 2969,
      "ĠHere": 2970,
      "ography": 2971,
      "ĠÐ": 2972,
      "All": 2973,
      "Ġlower": 2974,
      "Ġgoes": 2975,
      "avy": 2976,
      "ĠIndian": 2977,
      "Ġwonder": 2978,
      "Ġtal": 2979,
      "iding": 2980,
      "ĠâĢ¢": 2981,
      "ĠChar": 2982,
      "aves": 2983,
      "mercial": 2984,
      "Ġstudent": 2985,
      "Ġ2009": 2986,
      "Ġsummer": 2987,
      "oul": 2988,
      "Ġbaby": 2989,
      "Ġgen": 2990,
      "Ġsubject": 2991,
      "Ġpatients": 2992,
      "ny": 2993,
      "ris": 2994,
      "erc": 2995,
      "Ġtown": 2996,
      "ĠLa": 2997,
      "Ġcustomer": 2998,
      "Ġoption": 2999,
      "ĠOctober": 3000,
      "ences": 3001,
      "ffects": 3002,
      "Ġlocated": 3003,
      "Ġcenter": 3004,
      "Ġcollege": 3005,
      "Ġvariety": 3006,
      "ios": 3007,
      "Ġsun": 3008,
      "Ġpan": 3009,
      "ĠAre": 3010,
      "Ġ2016": 3011,
      "Ġinsp": 3012,
      "Ġpotential": 3013,
      "uate": 3014,
      "Ġmach": 3015,
      "ĠFrom": 3016,
      "oph": 3017,
      "rought": 3018,
      "Ġ2008": 3019,
      "EO": 3020,
      "US": 3021,
      "Ġmention": 3022,
      "Ġhuge": 3023,
      "uses": 3024,
      "ĠVal": 3025,
      "Ġmedical": 3026,
      "Ġencoura": 3027,
      "iam": 3028,
      "wood": 3029,
      "Ġcommit": 3030,
      "Ġintegr": 3031,
      "Ġcountries": 3032,
      "aught": 3033,
      "Ġbenefits": 3034,
      "Ġcele": 3035,
      "Ġfine": 3036,
      "str": 3037,
      "ĠSunday": 3038,
      "olf": 3039,
      "Ġprojects": 3040,
      "Ġdoor": 3041,
      "ĠAssociation": 3042,
      "AP": 3043,
      "Ġsold": 3044,
      "Ġmother": 3045,
      "Ġnote": 3046,
      "venue": 3047,
      "Ġlocation": 3048,
      "Ġreading": 3049,
      "Ġconditions": 3050,
      "Be": 3051,
      "Ġri": 3052,
      "Ġnation": 3053,
      "ĠDirect": 3054,
      "Ġdecided": 3055,
      "Ġskills": 3056,
      "One": 3057,
      "atform": 3058,
      "Ġcoun": 3059,
      "Ġmid": 3060,
      "ests": 3061,
      "Ġ2015": 3062,
      "Ġmeeting": 3063,
      "Ġdevice": 3064,
      "cription": 3065,
      "Ġfix": 3066,
      "ald": 3067,
      "ĠAM": 3068,
      "Ġ26": 3069,
      "Ġhimself": 3070,
      "Ġlimited": 3071,
      "ĠAfric": 3072,
      "Ġmass": 3073,
      "cember": 3074,
      "Ġweekend": 3075,
      "ara": 3076,
      "ĠCour": 3077,
      "Ġexcell": 3078,
      "Ġplans": 3079,
      "Ġrespect": 3080,
      "Ġcollection": 3081,
      "Ġcapital": 3082,
      "ĠInternational": 3083,
      "off": 3084,
      "Ġbur": 3085,
      "Ġgave": 3086,
      "ĠTV": 3087,
      "ĠAc": 3088,
      "Ġ28": 3089,
      "Ġhelps": 3090,
      "Ġ60": 3091,
      "Com": 3092,
      "sc": 3093,
      "uk": 3094,
      "Ġlives": 3095,
      "Ġstru": 3096,
      "Ġexpected": 3097,
      "Ġchoice": 3098,
      "?âĢĿ": 3099,
      "Ġaware": 3100,
      "ĠPa": 3101,
      "ĠNovember": 3102,
      "aged": 3103,
      "Ġbecame": 3104,
      "fficient": 3105,
      "Ġdirectly": 3106,
      "Ġdraw": 3107,
      "erous": 3108,
      "enty": 3109,
      "Ġones": 3110,
      "ĠLaw": 3111,
      "ĠWhile": 3112,
      "ospital": 3113,
      "Ġprices": 3114,
      "just": 3115,
      "Ġfile": 3116,
      "Ġhear": 3117,
      "ivity": 3118,
      "Ġpartners": 3119,
      "Ġbuilt": 3120,
      "Ġgroups": 3121,
      "Ġlegal": 3122,
      "bor": 3123,
      "ns": 3124,
      "yl": 3125,
      "Ġsource": 3126,
      "ĠDem": 3127,
      "Ġimm": 3128,
      "rench": 3129,
      "mp": 3130,
      "pose": 3131,
      "ĠCons": 3132,
      "ĠAdd": 3133,
      "ĠBlack": 3134,
      "Ġreported": 3135,
      "Ġwrite": 3136,
      "name": 3137,
      "idents": 3138,
      "ĠMon": 3139,
      "Ġqual": 3140,
      "Ġrock": 3141,
      "Ġplayed": 3142,
      "Ġstarting": 3143,
      "Ġeffective": 3144,
      "Ġeffort": 3145,
      "Ġpolitical": 3146,
      "mark": 3147,
      "Ġ+": 3148,
      "Ġcopy": 3149,
      "oms": 3150,
      "ĠBro": 3151,
      "Ġ27": 3152,
      "Ġamazing": 3153,
      "Ġmarketing": 3154,
      "Ġcompletely": 3155,
      "rect": 3156,
      "Ġdro": 3157,
      "Ġweight": 3158,
      "ĠGold": 3159,
      "Ġshall": 3160,
      "Ġshoot": 3161,
      "apers": 3162,
      "Ġrace": 3163,
      "Ġhttp": 3164,
      "She": 3165,
      "Ġsn": 3166,
      "Ġfelt": 3167,
      "uth": 3168,
      "add": 3169,
      "idered": 3170,
      "Ġ2014": 3171,
      "Ġinvestig": 3172,
      "Ġcampaign": 3173,
      "vest": 3174,
      "Ġfeed": 3175,
      "Ġarch": 3176,
      "ĠPlease": 3177,
      "Ġimage": 3178,
      "ĠChina": 3179,
      "Ġimplement": 3180,
      "Ġproviding": 3181,
      "Ġorganiz": 3182,
      "ĠJanuary": 3183,
      "pite": 3184,
      "Ġbank": 3185,
      "Ġlif": 3186,
      "irth": 3187,
      "ĠMich": 3188,
      "udget": 3189,
      "ĠSeptember": 3190,
      "Ġfresh": 3191,
      "Ġitem": 3192,
      "ĠBel": 3193,
      "ressed": 3194,
      "Ġprin": 3195,
      "Ġorganization": 3196,
      "Ġpositive": 3197,
      "Ġactivity": 3198,
      "Ġcondition": 3199,
      "Ġinternational": 3200,
      "Ġdemand": 3201,
      "Ġstren": 3202,
      "Ġspent": 3203,
      "Ġsometimes": 3204,
      "Ġplaces": 3205,
      "Ġanswer": 3206,
      "zy": 3207,
      "Ġwild": 3208,
      "nds": 3209,
      "ened": 3210,
      "rote": 3211,
      "ading": 3212,
      "Ġdead": 3213,
      "Ġthinking": 3214,
      "ursday": 3215,
      "Ġdocument": 3216,
      "ĠAugust": 3217,
      "ET": 3218,
      "mitted": 3219,
      "yond": 3220,
      "Ġwood": 3221,
      "Ġcert": 3222,
      "Ġlab": 3223,
      "unk": 3224,
      "iple": 3225,
      "ham": 3226,
      "iber": 3227,
      "ox": 3228,
      "Ġtour": 3229,
      "arily": 3230,
      "rows": 3231,
      "Ġdifference": 3232,
      "Ġsituation": 3233,
      "fit": 3234,
      "isions": 3235,
      "Ġdiv": 3236,
      "itely": 3237,
      "ĠRepublic": 3238,
      "ĠFeb": 3239,
      "Ġpublished": 3240,
      "Ġsleep": 3241,
      "mission": 3242,
      "Ġrev": 3243,
      "Ġgives": 3244,
      "Ġvac": 3245,
      "agn": 3246,
      "Ġimages": 3247,
      "Ġtrust": 3248,
      "Ġfederal": 3249,
      "ana": 3250,
      "Ġgreen": 3251,
      "Ġprogress": 3252,
      "Ġteams": 3253,
      "hel": 3254,
      "Ġcross": 3255,
      "Ġbi": 3256,
      "Ġbrought": 3257,
      "Ġfarm": 3258,
      "Ġoffe": 3259,
      "aste": 3260,
      "Ġled": 3261,
      "ĠBrit": 3262,
      "Ġshown": 3263,
      "soft": 3264,
      "Ġresources": 3265,
      "Ġpresident": 3266,
      "ĠCollege": 3267,
      "AD": 3268,
      "wise": 3269,
      "Ġboy": 3270,
      "Ġfan": 3271,
      "ims": 3272,
      "Ġstock": 3273,
      "ĠOb": 3274,
      "erved": 3275,
      "ĠTHE": 3276,
      "Ġnecessary": 3277,
      "ND": 3278,
      "atives": 3279,
      "ĠBra": 3280,
      "Ġjud": 3281,
      "Ġconsist": 3282,
      "Ġhighly": 3283,
      "uesday": 3284,
      "Ġprevent": 3285,
      "Ġtalking": 3286,
      "Ġreduce": 3287,
      "ĠDavid": 3288,
      "Ġheard": 3289,
      "Ġplatform": 3290,
      "Ġmedic": 3291,
      "Ġpaid": 3292,
      "Ġreleased": 3293,
      "After": 3294,
      "Ex": 3295,
      "Ġpen": 3296,
      "uted": 3297,
      "olute": 3298,
      "ĠMonday": 3299,
      "Ġdecl": 3300,
      "Ġrates": 3301,
      "Ġadminist": 3302,
      "Ġtrade": 3303,
      "Ġincome": 3304,
      "Ġregist": 3305,
      "Ġphysical": 3306,
      "more": 3307,
      "isf": 3308,
      "Ġfinally": 3309,
      "Ġresponse": 3310,
      "Ġeye": 3311,
      "rast": 3312,
      "Ġtick": 3313,
      "anch": 3314,
      "iment": 3315,
      "ulations": 3316,
      "Ġdep": 3317,
      "Ġturned": 3318,
      "Ġapproach": 3319,
      "body": 3320,
      "king": 3321,
      "itation": 3322,
      "itter": 3323,
      "antic": 3324,
      "ĠEvery": 3325,
      "Ġparts": 3326,
      "ĠAnge": 3327,
      "iction": 3328,
      "Ġinvestment": 3329,
      "ĠChristmas": 3330,
      "Ġdoub": 3331,
      "Ġcamera": 3332,
      "75": 3333,
      "bl": 3334,
      "Ġur": 3335,
      "Ġbillion": 3336,
      "ĠMus": 3337,
      "ĠBusiness": 3338,
      "Ġrout": 3339,
      "Ġscore": 3340,
      "ological": 3341,
      "ĠDecember": 3342,
      "Ġinterested": 3343,
      "Ġchanged": 3344,
      "23": 3345,
      "CH": 3346,
      "cast": 3347,
      "Ġlack": 3348,
      "ĠAcc": 3349,
      "ĠFree": 3350,
      "Ġsche": 3351,
      "Ġflow": 3352,
      "24": 3353,
      "sp": 3354,
      "ule": 3355,
      "vin": 3356,
      "Ġcup": 3357,
      "Ġhour": 3358,
      "asy": 3359,
      "ĠHall": 3360,
      "Ġconsidered": 3361,
      "Ġcollect": 3362,
      "ashion": 3363,
      "Ġdistrib": 3364,
      "ĠParis": 3365,
      "ength": 3366,
      "Ġmill": 3367,
      "Ġded": 3368,
      "ĠRed": 3369,
      "oday": 3370,
      "cious": 3371,
      "Ġaccom": 3372,
      "Ġslow": 3373,
      "Ġparents": 3374,
      "down": 3375,
      "aint": 3376,
      "Ġshot": 3377,
      "ĠOut": 3378,
      "âĢĿ.": 3379,
      "Ġcarry": 3380,
      "ha": 3381,
      "estern": 3382,
      "Ġtowards": 3383,
      "Ġmaster": 3384,
      "ĠWed": 3385,
      "ĠEven": 3386,
      "ondon": 3387,
      "Ġenter": 3388,
      "Ġtried": 3389,
      "Ġbeginning": 3390,
      "Ġradio": 3391,
      "Ġlanguage": 3392,
      "Ġwarm": 3393,
      "ĠIN": 3394,
      "Ġsection": 3395,
      "ĠJe": 3396,
      "aker": 3397,
      "Ġinterview": 3398,
      "Ġcharge": 3399,
      "partment": 3400,
      "field": 3401,
      "range": 3402,
      "Ġpages": 3403,
      "Ġ29": 3404,
      "ĠKing": 3405,
      "Ġbroad": 3406,
      "Ġannual": 3407,
      "Ġtypes": 3408,
      "Ġcirc": 3409,
      "Ġdisease": 3410,
      "itchen": 3411,
      "aries": 3412,
      "Ġreach": 3413,
      "ĠWind": 3414,
      "ocr": 3415,
      "Ġsolution": 3416,
      "ĠInternet": 3417,
      "Ð°": 3418,
      "ales": 3419,
      "Ġmount": 3420,
      "Ġclients": 3421,
      "well": 3422,
      "Ġowners": 3423,
      "Ġinsurance": 3424,
      "Ġpattern": 3425,
      "Ġtitle": 3426,
      "70": 3427,
      "ida": 3428,
      "atever": 3429,
      "Ġgoals": 3430,
      "undred": 3431,
      "Ġextreme": 3432,
      "Ġtools": 3433,
      "hold": 3434,
      "nded": 3435,
      "ĠAut": 3436,
      "ĠPost": 3437,
      "Ġcomments": 3438,
      "Ġaltern": 3439,
      "Ġfeeling": 3440,
      "imately": 3441,
      "example": 3442,
      "Ġobject": 3443,
      "Ġsuccessful": 3444,
      "Ġculture": 3445,
      "Ġver": 3446,
      "Ġter": 3447,
      "Ġdry": 3448,
      "Ġemer": 3449,
      "Ġstage": 3450,
      "ĠMost": 3451,
      "Ġselect": 3452,
      "Ġcompl": 3453,
      "aches": 3454,
      "Ġspot": 3455,
      "Ġprem": 3456,
      "ĠReview": 3457,
      "Ġremov": 3458,
      "Ġfully": 3459,
      "Ġglass": 3460,
      "Ġglobal": 3461,
      "pendent": 3462,
      "ĠFlor": 3463,
      "ION": 3464,
      "orrow": 3465,
      "Ġmaintain": 3466,
      "Ġnearly": 3467,
      "Ġreviews": 3468,
      "Ġparticularly": 3469,
      "wide": 3470,
      "Ġaward": 3471,
      "Ġwrote": 3472,
      "sec": 3473,
      "ado": 3474,
      "ĠMicro": 3475,
      "ĠHel": 3476,
      "ĠFirst": 3477,
      "antly": 3478,
      "Ġchurch": 3479,
      "Ġuses": 3480,
      "Ġfloor": 3481,
      "Ġideas": 3482,
      "Ġphotos": 3483,
      "ĠService": 3484,
      "PS": 3485,
      "Ġdrop": 3486,
      "ĠSk": 3487,
      "ĠBu": 3488,
      "Ġrules": 3489,
      "ags": 3490,
      "izes": 3491,
      "ension": 3492,
      "Ġspeed": 3493,
      "Ġhop": 3494,
      "Ġthous": 3495,
      "ĠGener": 3496,
      "ĠEar": 3497,
      "Ġmodern": 3498,
      "Ġgrowing": 3499,
      "Ġeconomic": 3500,
      "Ġfrequ": 3501,
      "\".": 3502,
      "arc": 3503,
      "ads": 3504,
      "Ġjump": 3505,
      "Ġadvant": 3506,
      "Ġdevices": 3507,
      "bed": 3508,
      "Ġsort": 3509,
      "Ġpath": 3510,
      "Ġhous": 3511,
      "Ġgiving": 3512,
      "ivil": 3513,
      "ĠYear": 3514,
      "ervation": 3515,
      "ropri": 3516,
      "ĠTrans": 3517,
      "IG": 3518,
      "Ġbill": 3519,
      "omen": 3520,
      "Ġgone": 3521,
      "Ġneigh": 3522,
      "ĠGroup": 3523,
      "ĠRec": 3524,
      "Ġpolice": 3525,
      "ĠChristian": 3526,
      "Ġnormal": 3527,
      "Now": 3528,
      "ault": 3529,
      "ech": 3530,
      "Ġcas": 3531,
      "Ġfra": 3532,
      "ĠSim": 3533,
      "ĠCle": 3534,
      "ĠMor": 3535,
      "ĠBig": 3536,
      "ĠDel": 3537,
      "ĠStreet": 3538,
      "Ġmaybe": 3539,
      "Ġwants": 3540,
      "Ġrespond": 3541,
      "Ġemployees": 3542,
      "Ġachieve": 3543,
      "gar": 3544,
      "uel": 3545,
      "zz": 3546,
      "Ġson": 3547,
      "Ġeat": 3548,
      "Ġsubs": 3549,
      "tee": 3550,
      "duc": 3551,
      "Ġfell": 3552,
      "Ġcertainly": 3553,
      "90": 3554,
      "Ġten": 3555,
      "hest": 3556,
      "Ġwife": 3557,
      "ĠAlso": 3558,
      "Ġslight": 3559,
      "Ġincreased": 3560,
      "Ġannounced": 3561,
      "35": 3562,
      "cies": 3563,
      "itute": 3564,
      "Ġmobile": 3565,
      "ota": 3566,
      "ĠAg": 3567,
      "ĠPress": 3568,
      "hern": 3569,
      "Ġmeasure": 3570,
      "Ġmessage": 3571,
      "ibrary": 3572,
      "Ġexcellent": 3573,
      "LL": 3574,
      "New": 3575,
      "ael": 3576,
      "band": 3577,
      "oly": 3578,
      "Ġsites": 3579,
      "orge": 3580,
      "Ġfather": 3581,
      "imin": 3582,
      "iring": 3583,
      "Ġconc": 3584,
      "Ġtrip": 3585,
      "Ġdelivery": 3586,
      "ecutive": 3587,
      "Ġcelebr": 3588,
      "IV": 3589,
      "oes": 3590,
      "wor": 3591,
      "Ġeffects": 3592,
      "sequ": 3593,
      "iles": 3594,
      "Ġheat": 3595,
      "Ġhaven": 3596,
      "Ġdrink": 3597,
      "ĠApple": 3598,
      "Ġopportunities": 3599,
      "Ġdefinitely": 3600,
      "lin": 3601,
      "Ġmis": 3602,
      "ago": 3603,
      "ager": 3604,
      "ĠUK": 3605,
      "ruit": 3606,
      "rences": 3607,
      "ĠProf": 3608,
      "ĠProgram": 3609,
      "Ġnumbers": 3610,
      "Ġcomplex": 3611,
      "Ġobtain": 3612,
      "Ġpromot": 3613,
      "Ġdouble": 3614,
      "pre": 3615,
      "oos": 3616,
      "Ġoverall": 3617,
      "Ġ198": 3618,
      "Ġdeveloped": 3619,
      "Ġmaterials": 3620,
      "Ġstatus": 3621,
      "nesday": 3622,
      "Phone": 3623,
      "):": 3624,
      "Ġmer": 3625,
      "Ġdream": 3626,
      "see": 3627,
      "Ġcommercial": 3628,
      "Ġalthough": 3629,
      "apan": 3630,
      "ibly": 3631,
      "Ġmultiple": 3632,
      "Ġwat": 3633,
      "Ġbeyond": 3634,
      "ĠSch": 3635,
      "Ġshipping": 3636,
      "ĠJes": 3637,
      "Ġperhaps": 3638,
      "atively": 3639,
      "house": 3640,
      "arant": 3641,
      "urt": 3642,
      "Ġalone": 3643,
      "Ġfollowed": 3644,
      "Ġserve": 3645,
      "ĠPlay": 3646,
      "Ġexactly": 3647,
      "ashington": 3648,
      "II": 3649,
      "orage": 3650,
      "oming": 3651,
      "ĠIS": 3652,
      "ĠCoun": 3653,
      "Ġdegree": 3654,
      "Ġrank": 3655,
      "Ġmiles": 3656,
      "Ġdeliver": 3657,
      "Ġâ": 3658,
      "ancing": 3659,
      "Ġreve": 3660,
      "Ġnamed": 3661,
      "ĠLondon": 3662,
      "Ġloan": 3663,
      "Ġemot": 3664,
      "Ġprevious": 3665,
      "Ġcompetition": 3666,
      "EC": 3667,
      "ken": 3668,
      "vis": 3669,
      "Ġsen": 3670,
      "Ġhundred": 3671,
      "ĠMac": 3672,
      "unte": 3673,
      "arden": 3674,
      "ruary": 3675,
      "Ġprefer": 3676,
      "Ġacqu": 3677,
      "Ġbusinesses": 3678,
      "Ġapplications": 3679,
      "Ġclaims": 3680,
      "??": 3681,
      "reci": 3682,
      "Ġcash": 3683,
      "Ġdaily": 3684,
      "ĠInformation": 3685,
      "Ġresist": 3686,
      "Ġinstru": 3687,
      "Ġavoid": 3688,
      "Ġincreasing": 3689,
      "Here": 3690,
      "Ġoffered": 3691,
      "May": 3692,
      "Please": 3693,
      "ilies": 3694,
      "ĠPort": 3695,
      "Ġguys": 3696,
      "Ġserious": 3697,
      "Ġcompleted": 3698,
      "ĠManagement": 3699,
      "Ġinflu": 3700,
      "cause": 3701,
      "itar": 3702,
      "Ġband": 3703,
      "icated": 3704,
      "ĠTuesday": 3705,
      "Ġanaly": 3706,
      "Ġseven": 3707,
      "ĠLo": 3708,
      "ĠOF": 3709,
      "ously": 3710,
      "Ġ2019": 3711,
      "ampions": 3712,
      "Ġdriver": 3713,
      "Ġletter": 3714,
      "Ġdirector": 3715,
      "ournament": 3716,
      "Ġstraight": 3717,
      "By": 3718,
      "Pro": 3719,
      "ls": 3720,
      "Ġsale": 3721,
      "isl": 3722,
      "Ġult": 3723,
      "raft": 3724,
      "Ġconvers": 3725,
      "ĠHome": 3726,
      "Ġconsult": 3727,
      "ĠDevelop": 3728,
      "ĠClick": 3729,
      "ĠTechn": 3730,
      "Ġallowed": 3731,
      "Ġdigital": 3732,
      "iation": 3733,
      "Ġwish": 3734,
      "Ġmiddle": 3735,
      "iced": 3736,
      "Ġreasons": 3737,
      "ĠSub": 3738,
      "Ġsociety": 3739,
      "ounds": 3740,
      "Ġremain": 3741,
      "Ġfinish": 3742,
      "Ġdriving": 3743,
      "force": 3744,
      "Ġcandid": 3745,
      "TH": 3746,
      "Un": 3747,
      "ĠÑ": 3748,
      "Ġbudget": 3749,
      "Ġforce": 3750,
      "Ġadvert": 3751,
      "Ġblue": 3752,
      "Ġcorpor": 3753,
      "box": 3754,
      "rief": 3755,
      "Ġsatisf": 3756,
      "?\"": 3757,
      "BC": 3758,
      "reed": 3759,
      "Ġcateg": 3760,
      "itable": 3761,
      "itude": 3762,
      "asc": 3763,
      "Ġgun": 3764,
      "Ġfeet": 3765,
      "Ġtruck": 3766,
      "Ġexpert": 3767,
      "Ġrestaur": 3768,
      "De": 3769,
      "set": 3770,
      "inion": 3771,
      "Ġble": 3772,
      "ico": 3773,
      "Ġeight": 3774,
      "ĠGreat": 3775,
      "Ġrelig": 3776,
      "Ġsmart": 3777,
      "Ġcorrect": 3778,
      "Ġbenefit": 3779,
      "Ġthreat": 3780,
      "ette": 3781,
      "Ġund": 3782,
      "change": 3783,
      "ĠPri": 3784,
      "Ġloved": 3785,
      "Ġwouldn": 3786,
      "ĠWhite": 3787,
      "Ġpurpose": 3788,
      "Ġoccur": 3789,
      "Ġreplace": 3790,
      "Ġabsolute": 3791,
      "100": 3792,
      "CC": 3793,
      "col": 3794,
      "vision": 3795,
      "Ġstick": 3796,
      "Ġanalysis": 3797,
      "ception": 3798,
      "While": 3799,
      "Ġplanning": 3800,
      "Ġstandards": 3801,
      "Ġhistor": 3802,
      "aughter": 3803,
      "Ġwindow": 3804,
      "with": 3805,
      "Ġpoll": 3806,
      "Ġmat": 3807,
      "Ġmax": 3808,
      "Ġlines": 3809,
      "Ġstories": 3810,
      "Ġwhose": 3811,
      "Ġearlier": 3812,
      "Ġstatement": 3813,
      "Ġschools": 3814,
      "Ġprofession": 3815,
      "MS": 3816,
      "Ġ=": 3817,
      "esome": 3818,
      "ĠMiss": 3819,
      "Ġextend": 3820,
      "ĠOther": 3821,
      "ĠJack": 3822,
      "ĠThursday": 3823,
      "Ġspirit": 3824,
      "Ġactive": 3825,
      "ĠAny": 3826,
      "Ġgirls": 3827,
      "Ġimmediately": 3828,
      "Ġwww": 3829,
      "ica": 3830,
      "Ġgar": 3831,
      "aded": 3832,
      "Ġimag": 3833,
      "Ġdisapp": 3834,
      "Ġ2018": 3835,
      "Ġcouldn": 3836,
      "Ġmoved": 3837,
      "ĠCanada": 3838,
      "Ġbasic": 3839,
      "Ġindividuals": 3840,
      "Ġanimals": 3841,
      "AA": 3842,
      "OW": 3843,
      "vant": 3844,
      "ying": 3845,
      "Ġer": 3846,
      "inner": 3847,
      "Ġpet": 3848,
      "ĠTime": 3849,
      "amic": 3850,
      "istics": 3851,
      "ĠGerm": 3852,
      "akers": 3853,
      "Ġsubst": 3854,
      "ĠDesign": 3855,
      ".||": 3856,
      "33": 3857,
      "aled": 3858,
      "Ġaren": 3859,
      "ĠRich": 3860,
      "unn": 3861,
      "Ġdoll": 3862,
      "Ġquarter": 3863,
      "Ġhelped": 3864,
      "Ġguy": 3865,
      "ĠClub": 3866,
      "Ġeconomy": 3867,
      "error": 3868,
      "Se": 3869,
      "Ġtrou": 3870,
      "ulate": 3871,
      "Ġdemon": 3872,
      "pects": 3873,
      "Ġtraffic": 3874,
      "exas": 3875,
      "Ġlots": 3876,
      "Ġeasier": 3877,
      "Ġreports": 3878,
      "Ġboo": 3879,
      "Ġonto": 3880,
      "ĠWashington": 3881,
      "Ġmeant": 3882,
      "ults": 3883,
      "Ġpoor": 3884,
      "Ġstrugg": 3885,
      "mm": 3886,
      "Ġinform": 3887,
      "ĠSur": 3888,
      "eting": 3889,
      "Ġvoice": 3890,
      "umn": 3891,
      "Ġgreater": 3892,
      "ĠBlue": 3893,
      "Ġhealthy": 3894,
      "Ġtemper": 3895,
      "28": 3896,
      "EP": 3897,
      "life": 3898,
      "atab": 3899,
      "Ġtoward": 3900,
      "Ġmur": 3901,
      "Ġrepe": 3902,
      "ĠBook": 3903,
      "Ġexerc": 3904,
      "Ġpowerful": 3905,
      "ifying": 3906,
      "Ġresponsible": 3907,
      "Ġliter": 3908,
      "ses": 3909,
      "Ġfear": 3910,
      "aling": 3911,
      "ĠTre": 3912,
      "ĠEduc": 3913,
      "ĠOpen": 3914,
      "Ġcompared": 3915,
      "Ġsolutions": 3916,
      "ooth": 3917,
      "Ġcit": 3918,
      "Ġfem": 3919,
      "iger": 3920,
      "ĠLet": 3921,
      "acity": 3922,
      "Ġinstit": 3923,
      "ĠConst": 3924,
      "Ġjobs": 3925,
      "Ġmovement": 3926,
      "Ġoccas": 3927,
      "TM": 3928,
      "het": 3929,
      "Ġbirth": 3930,
      "ĠFound": 3931,
      "ĠFrench": 3932,
      "ums": 3933,
      "Ġaccur": 3934,
      "Ġphoto": 3935,
      "inger": 3936,
      "alm": 3937,
      "Ġdress": 3938,
      "vere": 3939,
      "Ġrevenue": 3940,
      "amb": 3941,
      "verse": 3942,
      "ulated": 3943,
      "rial": 3944,
      "ĠGet": 3945,
      "Ġkitchen": 3946,
      "ĠEngine": 3947,
      "ĠServices": 3948,
      "ĠBoard": 3949,
      "sych": 3950,
      "ares": 3951,
      "cont": 3952,
      "pm": 3953,
      "iny": 3954,
      "asp": 3955,
      "Ġlik": 3956,
      "udd": 3957,
      "Ġpartner": 3958,
      "Ġbecomes": 3959,
      "ologies": 3960,
      "Ġearth": 3961,
      "Ġmoving": 3962,
      "Ġlinks": 3963,
      "Ġrequirements": 3964,
      "65": 3965,
      "From": 3966,
      "Some": 3967,
      "ĠCamp": 3968,
      "ĠMet": 3969,
      "Ġconcept": 3970,
      "ategy": 3971,
      "using": 3972,
      "Ġexhib": 3973,
      "ĠEast": 3974,
      "aces": 3975,
      "berg": 3976,
      "ĠStr": 3977,
      "Ġmemory": 3978,
      "Ġlaws": 3979,
      "Ġunderstanding": 3980,
      "Ġtraditional": 3981,
      "Ġchallenge": 3982,
      "Ġvehicle": 3983,
      "ĠFlorida": 3984,
      "Ġing": 3985,
      "Ġban": 3986,
      "Ġbeg": 3987,
      "ĠSince": 3988,
      "ĠScience": 3989,
      "olic": 3990,
      "ĠBer": 3991,
      "ifts": 3992,
      "Ġshop": 3993,
      "Ġappreci": 3994,
      "Ġsetting": 3995,
      "Ġsurround": 3996,
      "Ġgrant": 3997,
      "ĠPhil": 3998,
      "Ġesc": 3999,
      "Ġmanager": 4000,
      "ĠCourt": 4001,
      "itary": 4002,
      "itors": 4003,
      "leg": 4004,
      "lying": 4005,
      "imal": 4006,
      "ĠPublic": 4007,
      "ĠWater": 4008,
      "ĠHot": 4009,
      "cks": 4010,
      "ĠInter": 4011,
      "Ġthanks": 4012,
      "Ġevidence": 4013,
      "ronic": 4014,
      "ĠCommission": 4015,
      "Ġexisting": 4016,
      "Ġbottom": 4017,
      "Ġbehavior": 4018,
      "Ġbattle": 4019,
      "Ġfans": 4020,
      "Ġden": 4021,
      "ils": 4022,
      "ĠMS": 4023,
      "ĠMag": 4024,
      "ĠBrown": 4025,
      "ĠPerson": 4026,
      "Ġplants": 4027,
      "Ġoffering": 4028,
      "Ġtruly": 4029,
      "Ġkept": 4030,
      "Ġreality": 4031,
      "Ġstrateg": 4032,
      "ĠMedic": 4033,
      "Ġhotel": 4034,
      "Ab": 4035,
      "bon": 4036,
      "ford": 4037,
      "Ġsust": 4038,
      "Ġcore": 4039,
      "Ġhospital": 4040,
      "ĠCong": 4041,
      "Ġwel": 4042,
      "coming": 4043,
      "hips": 4044,
      "Ġexpand": 4045,
      "Ġopening": 4046,
      "Ġpassed": 4047,
      "Ġbasis": 4048,
      "rapy": 4049,
      "Ġcreating": 4050,
      "Ġfaith": 4051,
      "ĠMicrosoft": 4052,
      "27": 4053,
      "Ġdang": 4054,
      "ĠAir": 4055,
      "ĠMr": 4056,
      "ĠMal": 4057,
      "ĠBest": 4058,
      "ĠJapan": 4059,
      "Ġenh": 4060,
      "Ġproduce": 4061,
      "Ġsurv": 4062,
      "Ġmeaning": 4063,
      "Ġjoin": 4064,
      "gers": 4065,
      "ĠSam": 4066,
      "ady": 4067,
      "amm": 4068,
      "ĠDist": 4069,
      "istry": 4070,
      "ĠEv": 4071,
      "Ġfinished": 4072,
      "Ġcalls": 4073,
      "Ġobv": 4074,
      "Ġlimit": 4075,
      "Ġsteps": 4076,
      "Ġafford": 4077,
      "Ġinnov": 4078,
      "IM": 4079,
      "lling": 4080,
      "Ġlength": 4081,
      "ĠKn": 4082,
      "Ġguess": 4083,
      "Ġassess": 4084,
      "Ġcaused": 4085,
      "Ġselection": 4086,
      "Ġdamage": 4087,
      "ĠCouncil": 4088,
      "ties": 4089,
      "Ġwed": 4090,
      "Ġmission": 4091,
      "ĠTexas": 4092,
      "ĠGood": 4093,
      "place": 4094,
      "ĠYes": 4095
    },
    "merges": [
      [
        "Ġ",
        "t"
      ],
      [
        "Ġ",
        "a"
      ],
      [
        "h",
        "e"
      ],
      [
        "i",
        "n"
      ],
      [
        "r",
        "e"
      ],
      [
        "o",
        "n"
      ],
      [
        "Ġt",
        "he"
      ],
      [
        "e",
        "r"
      ],
      [
        "Ġ",
        "s"
      ],
      [
        "Ġ",
        "w"
      ],
      [
        "a",
        "t"
      ],
      [
        "Ġ",
        "o"
      ],
      [
        "n",
        "d"
      ],
      [
        "Ġ",
        "c"
      ],
      [
        "i",
        "t"
      ],
      [
        "o",
        "r"
      ],
      [
        "i",
        "s"
      ],
      [
        "e",
        "s"
      ],
      [
        "o",
        "u"
      ],
      [
        "e",
        "n"
      ],
      [
        "Ġ",
        "b"
      ],
      [
        "Ġ",
        "f"
      ],
      [
        "in",
        "g"
      ],
      [
        "Ġ",
        "p"
      ],
      [
        "e",
        "d"
      ],
      [
        "a",
        "n"
      ],
      [
        "a",
        "l"
      ],
      [
        "Ġt",
        "o"
      ],
      [
        "Ġ",
        "m"
      ],
      [
        "a",
        "r"
      ],
      [
        "Ġa",
        "nd"
      ],
      [
        "Ġo",
        "f"
      ],
      [
        "Ġ",
        "in"
      ],
      [
        "Ġ",
        "d"
      ],
      [
        "i",
        "c"
      ],
      [
        "Ġ",
        "h"
      ],
      [
        "l",
        "e"
      ],
      [
        "a",
        "s"
      ],
      [
        "o",
        "m"
      ],
      [
        "i",
        "on"
      ],
      [
        "Ġt",
        "h"
      ],
      [
        "l",
        "l"
      ],
      [
        "â",
        "Ģ"
      ],
      [
        "Ġ",
        "l"
      ],
      [
        "en",
        "t"
      ],
      [
        "v",
        "e"
      ],
      [
        "s",
        "t"
      ],
      [
        "Ġ",
        "re"
      ],
      [
        "Ġ",
        "e"
      ],
      [
        "r",
        "o"
      ],
      [
        "Ġ",
        "n"
      ],
      [
        "Ġ",
        "I"
      ],
      [
        "Ġ",
        "g"
      ],
      [
        "Ġ",
        "y"
      ],
      [
        "l",
        "y"
      ],
      [
        "c",
        "t"
      ],
      [
        "Ġb",
        "e"
      ],
      [
        "Ġ",
        "T"
      ],
      [
        "u",
        "t"
      ],
      [
        "Ġ",
        "S"
      ],
      [
        "e",
        "t"
      ],
      [
        "o",
        "t"
      ],
      [
        "Ġ",
        "is"
      ],
      [
        "a",
        "y"
      ],
      [
        "i",
        "d"
      ],
      [
        "Ġy",
        "ou"
      ],
      [
        "Ġ",
        "on"
      ],
      [
        "Ġf",
        "or"
      ],
      [
        "o",
        "w"
      ],
      [
        "Ġ",
        "A"
      ],
      [
        "Ġ",
        "C"
      ],
      [
        "u",
        "r"
      ],
      [
        "i",
        "m"
      ],
      [
        "s",
        "e"
      ],
      [
        "c",
        "e"
      ],
      [
        "a",
        "d"
      ],
      [
        "a",
        "m"
      ],
      [
        "i",
        "g"
      ],
      [
        "Ġ",
        "u"
      ],
      [
        "v",
        "er"
      ],
      [
        "Ġth",
        "at"
      ],
      [
        "c",
        "h"
      ],
      [
        "i",
        "l"
      ],
      [
        "at",
        "ion"
      ],
      [
        "it",
        "h"
      ],
      [
        "Ġs",
        "t"
      ],
      [
        "o",
        "l"
      ],
      [
        "i",
        "r"
      ],
      [
        "Ġw",
        "ith"
      ],
      [
        "Ġ",
        "it"
      ],
      [
        "Ġ",
        "M"
      ],
      [
        "Ġ",
        "he"
      ],
      [
        "âĢ",
        "Ļ"
      ],
      [
        "r",
        "a"
      ],
      [
        "Ġw",
        "e"
      ],
      [
        "Ġ",
        "B"
      ],
      [
        "Ġ",
        "P"
      ],
      [
        "Ġa",
        "n"
      ],
      [
        "i",
        "ll"
      ],
      [
        "Ġa",
        "s"
      ],
      [
        "Ġw",
        "h"
      ],
      [
        "er",
        "s"
      ],
      [
        "i",
        "f"
      ],
      [
        "k",
        "e"
      ],
      [
        "Ġp",
        "ro"
      ],
      [
        "Ġh",
        "a"
      ],
      [
        "Ġ",
        "W"
      ],
      [
        "Ġa",
        "re"
      ],
      [
        "t",
        "er"
      ],
      [
        "g",
        "e"
      ],
      [
        "o",
        "o"
      ],
      [
        "l",
        "d"
      ],
      [
        "Ġc",
        "on"
      ],
      [
        "Ġo",
        "r"
      ],
      [
        "he",
        "r"
      ],
      [
        "at",
        "e"
      ],
      [
        "Ġ",
        "H"
      ],
      [
        "Ġa",
        "t"
      ],
      [
        "Ġ",
        "D"
      ],
      [
        "c",
        "k"
      ],
      [
        "o",
        "re"
      ],
      [
        "Ġc",
        "om"
      ],
      [
        "Ġs",
        "e"
      ],
      [
        "u",
        "l"
      ],
      [
        "p",
        "p"
      ],
      [
        "Ġ",
        "F"
      ],
      [
        "es",
        "s"
      ],
      [
        "m",
        "ent"
      ],
      [
        "Ġ",
        "1"
      ],
      [
        "ĠT",
        "he"
      ],
      [
        "Ġ",
        "R"
      ],
      [
        "Ġ",
        "2"
      ],
      [
        "Ġ",
        "("
      ],
      [
        "es",
        "t"
      ],
      [
        "ig",
        "h"
      ],
      [
        "r",
        "i"
      ],
      [
        "Ġd",
        "e"
      ],
      [
        "a",
        "b"
      ],
      [
        "t",
        "h"
      ],
      [
        "u",
        "s"
      ],
      [
        "Ġw",
        "as"
      ],
      [
        "r",
        "om"
      ],
      [
        "is",
        "t"
      ],
      [
        "u",
        "n"
      ],
      [
        "p",
        "e"
      ],
      [
        "Ġn",
        "e"
      ],
      [
        "Ġ",
        "r"
      ],
      [
        "Ġe",
        "x"
      ],
      [
        "it",
        "y"
      ],
      [
        "an",
        "t"
      ],
      [
        "u",
        "re"
      ],
      [
        "Ġ",
        "v"
      ],
      [
        "i",
        "ve"
      ],
      [
        "Ġha",
        "ve"
      ],
      [
        "q",
        "u"
      ],
      [
        "Ġ",
        "N"
      ],
      [
        "Ġ",
        "L"
      ],
      [
        "e",
        "m"
      ],
      [
        "u",
        "m"
      ],
      [
        "o",
        "p"
      ],
      [
        "Ġ",
        "G"
      ],
      [
        "Ġ",
        "âĢ"
      ],
      [
        "Ġ",
        "E"
      ],
      [
        "Ġth",
        "is"
      ],
      [
        "Ġn",
        "ot"
      ],
      [
        "u",
        "st"
      ],
      [
        "ar",
        "t"
      ],
      [
        "n",
        "t"
      ],
      [
        "a",
        "in"
      ],
      [
        "or",
        "t"
      ],
      [
        "Ġf",
        "rom"
      ],
      [
        "Ġyou",
        "r"
      ],
      [
        "Ġs",
        "h"
      ],
      [
        "Ġb",
        "y"
      ],
      [
        "igh",
        "t"
      ],
      [
        "o",
        "s"
      ],
      [
        "a",
        "nd"
      ],
      [
        "i",
        "es"
      ],
      [
        "e",
        "l"
      ],
      [
        "Ġa",
        "l"
      ],
      [
        "al",
        "l"
      ],
      [
        "Ġc",
        "an"
      ],
      [
        "Ġc",
        "h"
      ],
      [
        "Ġ",
        "O"
      ],
      [
        "Ġ",
        "le"
      ],
      [
        "i",
        "e"
      ],
      [
        "ar",
        "d"
      ],
      [
        "Ġw",
        "ill"
      ],
      [
        "Ġs",
        "u"
      ],
      [
        "re",
        "s"
      ],
      [
        "ou",
        "ld"
      ],
      [
        "om",
        "e"
      ],
      [
        "ou",
        "t"
      ],
      [
        "Ġd",
        "o"
      ],
      [
        "o",
        "st"
      ],
      [
        "ou",
        "r"
      ],
      [
        "Ġa",
        "b"
      ],
      [
        "t",
        "e"
      ],
      [
        "0",
        "0"
      ],
      [
        ".",
        "."
      ],
      [
        "Ġp",
        "l"
      ],
      [
        "u",
        "d"
      ],
      [
        "i",
        "v"
      ],
      [
        "g",
        "h"
      ],
      [
        "al",
        "ly"
      ],
      [
        "'",
        "s"
      ],
      [
        "Ġa",
        "ll"
      ],
      [
        "Ġw",
        "or"
      ],
      [
        "r",
        "ou"
      ],
      [
        "re",
        "d"
      ],
      [
        "e",
        "ar"
      ],
      [
        "as",
        "t"
      ],
      [
        "o",
        "d"
      ],
      [
        "Ġ",
        "j"
      ],
      [
        "id",
        "e"
      ],
      [
        "c",
        "i"
      ],
      [
        "T",
        "he"
      ],
      [
        "a",
        "g"
      ],
      [
        "Ġ",
        "J"
      ],
      [
        "a",
        "k"
      ],
      [
        "Ġh",
        "as"
      ],
      [
        "in",
        "e"
      ],
      [
        "p",
        "t"
      ],
      [
        "Ġb",
        "ut"
      ],
      [
        "Ġs",
        "o"
      ],
      [
        "ic",
        "e"
      ],
      [
        "f",
        "e"
      ],
      [
        "Ġ",
        "k"
      ],
      [
        "Ġm",
        "e"
      ],
      [
        "p",
        "er"
      ],
      [
        "Ġw",
        "he"
      ],
      [
        "a",
        "ge"
      ],
      [
        "a",
        "ck"
      ],
      [
        "Ġu",
        "s"
      ],
      [
        "t",
        "her"
      ],
      [
        "ct",
        "ion"
      ],
      [
        "Ġcom",
        "p"
      ],
      [
        "Ġo",
        "ut"
      ],
      [
        "âĢ",
        "Ŀ"
      ],
      [
        "on",
        "e"
      ],
      [
        "Ġu",
        "p"
      ],
      [
        "Ġthe",
        "y"
      ],
      [
        "Ġa",
        "d"
      ],
      [
        "a",
        "c"
      ],
      [
        "a",
        "re"
      ],
      [
        "Ġm",
        "ore"
      ],
      [
        "oo",
        "k"
      ],
      [
        "ic",
        "h"
      ],
      [
        "im",
        "e"
      ],
      [
        "Ġ",
        "U"
      ],
      [
        "a",
        "ke"
      ],
      [
        "r",
        "y"
      ],
      [
        "p",
        "l"
      ],
      [
        "Ġm",
        "y"
      ],
      [
        "in",
        "d"
      ],
      [
        "s",
        "o"
      ],
      [
        "ver",
        "y"
      ],
      [
        "at",
        "ed"
      ],
      [
        "am",
        "e"
      ],
      [
        "o",
        "g"
      ],
      [
        "oo",
        "d"
      ],
      [
        "an",
        "s"
      ],
      [
        "Ġs",
        "a"
      ],
      [
        "on",
        "g"
      ],
      [
        "ab",
        "le"
      ],
      [
        "c",
        "c"
      ],
      [
        "Ġt",
        "e"
      ],
      [
        "it",
        "e"
      ],
      [
        "Ġthe",
        "ir"
      ],
      [
        "Ġ",
        "en"
      ],
      [
        "Ġc",
        "l"
      ],
      [
        "Ġon",
        "e"
      ],
      [
        "ou",
        "s"
      ],
      [
        "Ġh",
        "is"
      ],
      [
        "i",
        "z"
      ],
      [
        "ĠI",
        "n"
      ],
      [
        "i",
        "ke"
      ],
      [
        "i",
        "p"
      ],
      [
        "ĠT",
        "h"
      ],
      [
        "Ġcon",
        "t"
      ],
      [
        "or",
        "m"
      ],
      [
        "0",
        "1"
      ],
      [
        "Ġab",
        "out"
      ],
      [
        "b",
        "er"
      ],
      [
        "Ġo",
        "ur"
      ],
      [
        "Ġwh",
        "o"
      ],
      [
        "d",
        "u"
      ],
      [
        "Ġg",
        "o"
      ],
      [
        "Ġ",
        "-"
      ],
      [
        "u",
        "e"
      ],
      [
        "ĠâĢ",
        "ľ"
      ],
      [
        "c",
        "l"
      ],
      [
        "Ġ",
        "im"
      ],
      [
        "Ġm",
        "an"
      ],
      [
        "ion",
        "s"
      ],
      [
        "an",
        "ce"
      ],
      [
        "a",
        "ct"
      ],
      [
        "Ġ",
        "Y"
      ],
      [
        "Ġf",
        "e"
      ],
      [
        "a",
        "p"
      ],
      [
        "t",
        "o"
      ],
      [
        "ay",
        "s"
      ],
      [
        "Ġwh",
        "ich"
      ],
      [
        "ic",
        "k"
      ],
      [
        "a",
        "il"
      ],
      [
        "as",
        "e"
      ],
      [
        "Ġp",
        "er"
      ],
      [
        "re",
        "e"
      ],
      [
        "Ġl",
        "o"
      ],
      [
        "i",
        "re"
      ],
      [
        "Ġ",
        "K"
      ],
      [
        "Ġof",
        "f"
      ],
      [
        "v",
        "en"
      ],
      [
        "f",
        "f"
      ],
      [
        "i",
        "a"
      ],
      [
        "Ġt",
        "ime"
      ],
      [
        "a",
        "ce"
      ],
      [
        "Ġo",
        "ther"
      ],
      [
        "n",
        "e"
      ],
      [
        "ĠS",
        "t"
      ],
      [
        "e",
        "p"
      ],
      [
        "Ġre",
        "s"
      ],
      [
        "i",
        "b"
      ],
      [
        "Ġwor",
        "k"
      ],
      [
        "u",
        "b"
      ],
      [
        "ar",
        "k"
      ],
      [
        "ig",
        "n"
      ],
      [
        "Ġt",
        "r"
      ],
      [
        "Ġ",
        "\""
      ],
      [
        "re",
        "at"
      ],
      [
        "Ġd",
        "is"
      ],
      [
        "ation",
        "s"
      ],
      [
        "ul",
        "t"
      ],
      [
        "Ġy",
        "ear"
      ],
      [
        "Ġa",
        "pp"
      ],
      [
        "Ġan",
        "y"
      ],
      [
        "a",
        "u"
      ],
      [
        "as",
        "s"
      ],
      [
        "a",
        "ch"
      ],
      [
        "Ġs",
        "ome"
      ],
      [
        "Ġl",
        "ike"
      ],
      [
        "or",
        "d"
      ],
      [
        "Ġ",
        "qu"
      ],
      [
        "Ġh",
        "ad"
      ],
      [
        "Ġg",
        "et"
      ],
      [
        "ar",
        "y"
      ],
      [
        "Ġhe",
        "r"
      ],
      [
        "Ġthe",
        "m"
      ],
      [
        "Ġbe",
        "en"
      ],
      [
        "f",
        "orm"
      ],
      [
        "res",
        "s"
      ],
      [
        "ou",
        "nt"
      ],
      [
        "Ġ",
        "V"
      ],
      [
        "Ġal",
        "so"
      ],
      [
        "ow",
        "n"
      ],
      [
        "Ġw",
        "ould"
      ],
      [
        "Ġu",
        "n"
      ],
      [
        "ĠI",
        "t"
      ],
      [
        "i",
        "le"
      ],
      [
        "er",
        "v"
      ],
      [
        "ve",
        "l"
      ],
      [
        "ĠC",
        "h"
      ],
      [
        "Ġne",
        "w"
      ],
      [
        "Ġ2",
        "01"
      ],
      [
        "Ġwe",
        "re"
      ],
      [
        "Ġp",
        "art"
      ],
      [
        "Ġ",
        "3"
      ],
      [
        "Ġs",
        "p"
      ],
      [
        "a",
        "v"
      ],
      [
        "ic",
        "al"
      ],
      [
        "Ġa",
        "g"
      ],
      [
        "Ġ",
        "if"
      ],
      [
        "ing",
        "s"
      ],
      [
        "en",
        "ce"
      ],
      [
        "it",
        "ion"
      ],
      [
        "Ġthe",
        "re"
      ],
      [
        "ou",
        "gh"
      ],
      [
        "Ġo",
        "ver"
      ],
      [
        "Ġth",
        "an"
      ],
      [
        "in",
        "k"
      ],
      [
        "Ġp",
        "e"
      ],
      [
        "on",
        "d"
      ],
      [
        "r",
        "u"
      ],
      [
        "Ġa",
        "r"
      ],
      [
        "Ġwhe",
        "n"
      ],
      [
        "Ġwh",
        "at"
      ],
      [
        "ou",
        "nd"
      ],
      [
        "or",
        "s"
      ],
      [
        "o",
        "se"
      ],
      [
        "ent",
        "s"
      ],
      [
        "en",
        "s"
      ],
      [
        "Ġk",
        "n"
      ],
      [
        "Ġj",
        "ust"
      ],
      [
        "Ġs",
        "pe"
      ],
      [
        "Ġsa",
        "id"
      ],
      [
        "Ġre",
        "c"
      ],
      [
        "ĠW",
        "e"
      ],
      [
        "in",
        "t"
      ],
      [
        "Ġ",
        "ro"
      ],
      [
        "Ġp",
        "re"
      ],
      [
        "is",
        "h"
      ],
      [
        "w",
        "n"
      ],
      [
        "Ġbe",
        "c"
      ],
      [
        "i",
        "al"
      ],
      [
        "Ġa",
        "m"
      ],
      [
        "Ġin",
        "to"
      ],
      [
        "ir",
        "st"
      ],
      [
        "o",
        "b"
      ],
      [
        "nd",
        "er"
      ],
      [
        "'",
        "t"
      ],
      [
        "re",
        "n"
      ],
      [
        "Ġc",
        "o"
      ],
      [
        "op",
        "le"
      ],
      [
        "m",
        "er"
      ],
      [
        "Ġt",
        "w"
      ],
      [
        "Ġa",
        "cc"
      ],
      [
        "ol",
        "d"
      ],
      [
        "Ġs",
        "he"
      ],
      [
        "il",
        "d"
      ],
      [
        "ĠâĢ",
        "ĵ"
      ],
      [
        "Ġne",
        "ed"
      ],
      [
        "rou",
        "gh"
      ],
      [
        "Ġim",
        "p"
      ],
      [
        "ad",
        "e"
      ],
      [
        "it",
        "t"
      ],
      [
        "ĠH",
        "e"
      ],
      [
        "f",
        "ter"
      ],
      [
        "l",
        "ic"
      ],
      [
        "Ġh",
        "ow"
      ],
      [
        "Ġit",
        "s"
      ],
      [
        "Ġn",
        "o"
      ],
      [
        "ver",
        "s"
      ],
      [
        "Ġs",
        "c"
      ],
      [
        "n",
        "ing"
      ],
      [
        "or",
        "y"
      ],
      [
        "o",
        "y"
      ],
      [
        "Ġm",
        "ay"
      ],
      [
        "on",
        "s"
      ],
      [
        "he",
        "d"
      ],
      [
        "..",
        "."
      ],
      [
        "Ġb",
        "l"
      ],
      [
        "am",
        "p"
      ],
      [
        "Ġpe",
        "ople"
      ],
      [
        "at",
        "er"
      ],
      [
        "an",
        "g"
      ],
      [
        "cl",
        "ud"
      ],
      [
        "Ġf",
        "irst"
      ],
      [
        "ci",
        "al"
      ],
      [
        "f",
        "t"
      ],
      [
        "o",
        "c"
      ],
      [
        "at",
        "es"
      ],
      [
        "u",
        "ll"
      ],
      [
        "Ġ",
        "4"
      ],
      [
        "u",
        "al"
      ],
      [
        "Ġon",
        "ly"
      ],
      [
        "i",
        "an"
      ],
      [
        "Ġkn",
        "ow"
      ],
      [
        "g",
        "r"
      ],
      [
        "au",
        "se"
      ],
      [
        "Ġd",
        "es"
      ],
      [
        "Ġ",
        "5"
      ],
      [
        "Ġcom",
        "m"
      ],
      [
        "Ġad",
        "d"
      ],
      [
        "c",
        "es"
      ],
      [
        "ĠR",
        "e"
      ],
      [
        "w",
        "e"
      ],
      [
        "Ġl",
        "ook"
      ],
      [
        "Ġu",
        "se"
      ],
      [
        "Ġt",
        "ra"
      ],
      [
        "Ġb",
        "ack"
      ],
      [
        "r",
        "ic"
      ],
      [
        "Ġm",
        "ake"
      ],
      [
        "Ġm",
        "ost"
      ],
      [
        "o",
        "v"
      ],
      [
        "o",
        "ll"
      ],
      [
        "re",
        "nt"
      ],
      [
        "Ġpro",
        "v"
      ],
      [
        "Ġtw",
        "o"
      ],
      [
        "rou",
        "nd"
      ],
      [
        "l",
        "p"
      ],
      [
        "ment",
        "s"
      ],
      [
        "d",
        "ay"
      ],
      [
        "ĠTh",
        "is"
      ],
      [
        "Ġe",
        "m"
      ],
      [
        "h",
        "ing"
      ],
      [
        "e",
        "nd"
      ],
      [
        "ter",
        "n"
      ],
      [
        "Ġth",
        "rough"
      ],
      [
        "Ġw",
        "ant"
      ],
      [
        "l",
        "es"
      ],
      [
        "Ġin",
        "clud"
      ],
      [
        "Ġpro",
        "du"
      ],
      [
        "Ġbe",
        "t"
      ],
      [
        "Ġhe",
        "lp"
      ],
      [
        "Ġin",
        "d"
      ],
      [
        "ie",
        "w"
      ],
      [
        "Ġse",
        "e"
      ],
      [
        "e",
        "w"
      ],
      [
        "Ġf",
        "l"
      ],
      [
        "Ġe",
        "very"
      ],
      [
        "is",
        "e"
      ],
      [
        "a",
        "w"
      ],
      [
        "ct",
        "s"
      ],
      [
        "Ġwe",
        "ll"
      ],
      [
        "T",
        "h"
      ],
      [
        "i",
        "ous"
      ],
      [
        "o",
        "ve"
      ],
      [
        "i",
        "ly"
      ],
      [
        "is",
        "s"
      ],
      [
        "at",
        "ing"
      ],
      [
        "Ġpl",
        "ay"
      ],
      [
        "Ġthe",
        "se"
      ],
      [
        "Ġp",
        "o"
      ],
      [
        "Ġcon",
        "s"
      ],
      [
        "it",
        "ies"
      ],
      [
        "k",
        "s"
      ],
      [
        "Ġ1",
        "9"
      ],
      [
        "ur",
        "n"
      ],
      [
        "Ġre",
        "p"
      ],
      [
        "Ġb",
        "u"
      ],
      [
        "se",
        "l"
      ],
      [
        "Ġc",
        "ould"
      ],
      [
        "ro",
        "w"
      ],
      [
        "p",
        "h"
      ],
      [
        "f",
        "ore"
      ],
      [
        "on",
        "t"
      ],
      [
        "Ġ",
        "very"
      ],
      [
        "Ġa",
        "ct"
      ],
      [
        "if",
        "ic"
      ],
      [
        "Ġp",
        "h"
      ],
      [
        "Ġu",
        "nder"
      ],
      [
        "Ġh",
        "im"
      ],
      [
        "x",
        "t"
      ],
      [
        "Ġn",
        "ow"
      ],
      [
        "Ġa",
        "fter"
      ],
      [
        ")",
        "."
      ],
      [
        "j",
        "e"
      ],
      [
        "Ġin",
        "c"
      ],
      [
        "Ġs",
        "erv"
      ],
      [
        "al",
        "s"
      ],
      [
        "Ġe",
        "ven"
      ],
      [
        "er",
        "t"
      ],
      [
        "Ġ",
        "ra"
      ],
      [
        "Ġg",
        "ood"
      ],
      [
        "Ġ",
        "$"
      ],
      [
        "Ġp",
        "r"
      ],
      [
        "Ġd",
        "if"
      ],
      [
        "an",
        "ge"
      ],
      [
        "t",
        "ing"
      ],
      [
        "c",
        "ed"
      ],
      [
        "Ġ",
        "ke"
      ],
      [
        "Ġc",
        "ol"
      ],
      [
        "u",
        "ch"
      ],
      [
        "if",
        "e"
      ],
      [
        "he",
        "n"
      ],
      [
        "ĠY",
        "ou"
      ],
      [
        "|",
        "|"
      ],
      [
        "as",
        "ed"
      ],
      [
        "ct",
        "ed"
      ],
      [
        "ation",
        "al"
      ],
      [
        "Ġre",
        "l"
      ],
      [
        "ers",
        "on"
      ],
      [
        "Ġin",
        "v"
      ],
      [
        "pp",
        "ort"
      ],
      [
        "Ġwhe",
        "re"
      ],
      [
        "Ġthe",
        "n"
      ],
      [
        "Ġe",
        "v"
      ],
      [
        "Ġw",
        "ay"
      ],
      [
        "Ġd",
        "on"
      ],
      [
        "Ġd",
        "id"
      ],
      [
        "c",
        "om"
      ],
      [
        "Ġre",
        "g"
      ],
      [
        "b",
        "le"
      ],
      [
        "f",
        "ul"
      ],
      [
        "il",
        "ity"
      ],
      [
        "Ġr",
        "ight"
      ],
      [
        "Ġs",
        "y"
      ],
      [
        "os",
        "s"
      ],
      [
        "Ġyear",
        "s"
      ],
      [
        "b",
        "s"
      ],
      [
        "ure",
        "s"
      ],
      [
        "w",
        "ard"
      ],
      [
        "ĠC",
        "om"
      ],
      [
        "Ġman",
        "y"
      ],
      [
        "Ġre",
        "m"
      ],
      [
        "ĠS",
        "e"
      ],
      [
        "ak",
        "ing"
      ],
      [
        "form",
        "ation"
      ],
      [
        "Ġst",
        "ud"
      ],
      [
        "Ġsh",
        "ould"
      ],
      [
        "Ġs",
        "m"
      ],
      [
        "g",
        "et"
      ],
      [
        "ot",
        "h"
      ],
      [
        "c",
        "ess"
      ],
      [
        "er",
        "m"
      ],
      [
        "Ġ",
        "6"
      ],
      [
        "r",
        "it"
      ],
      [
        "t",
        "y"
      ],
      [
        "Ġg",
        "reat"
      ],
      [
        "Ġbec",
        "ause"
      ],
      [
        "Ġ2",
        "00"
      ],
      [
        "Ġin",
        "te"
      ],
      [
        "Ġg",
        "u"
      ],
      [
        "l",
        "i"
      ],
      [
        "Ġd",
        "own"
      ],
      [
        "o",
        "ol"
      ],
      [
        "Ġf",
        "in"
      ],
      [
        "in",
        "ess"
      ],
      [
        "ĠW",
        "h"
      ],
      [
        "Ġth",
        "ink"
      ],
      [
        ".",
        "âĢĿ"
      ],
      [
        "u",
        "p"
      ],
      [
        "Ġo",
        "wn"
      ],
      [
        "t",
        "s"
      ],
      [
        "ĠA",
        "s"
      ],
      [
        "re",
        "st"
      ],
      [
        "Ġto",
        "o"
      ],
      [
        "ul",
        "ar"
      ],
      [
        "ĠU",
        "n"
      ],
      [
        "Ġa",
        "c"
      ],
      [
        "it",
        "s"
      ],
      [
        "ow",
        "er"
      ],
      [
        "an",
        "y"
      ],
      [
        "Ġst",
        "art"
      ],
      [
        "Ġag",
        "ain"
      ],
      [
        "a",
        "ir"
      ],
      [
        "Ġs",
        "et"
      ],
      [
        "al",
        "th"
      ],
      [
        "Ġse",
        "c"
      ],
      [
        "Ġm",
        "uch"
      ],
      [
        "ib",
        "le"
      ],
      [
        "o",
        "ck"
      ],
      [
        "Ġsu",
        "ch"
      ],
      [
        "at",
        "h"
      ],
      [
        "ic",
        "es"
      ],
      [
        "id",
        "ent"
      ],
      [
        "ur",
        "ing"
      ],
      [
        "h",
        "ip"
      ],
      [
        "u",
        "nd"
      ],
      [
        "y",
        "s"
      ],
      [
        "ic",
        "s"
      ],
      [
        "Ġat",
        "t"
      ],
      [
        "a",
        "x"
      ],
      [
        "ol",
        "og"
      ],
      [
        "ĠA",
        "nd"
      ],
      [
        "e",
        "ll"
      ],
      [
        "ot",
        "her"
      ],
      [
        "Ġ",
        "&"
      ],
      [
        "or",
        "k"
      ],
      [
        "I",
        "n"
      ],
      [
        "Ġ",
        "ent"
      ],
      [
        "he",
        "s"
      ],
      [
        "om",
        "et"
      ],
      [
        "Ġhe",
        "re"
      ],
      [
        "ĠP",
        "ro"
      ],
      [
        "ri",
        "b"
      ],
      [
        "Ġin",
        "st"
      ],
      [
        "Ġd",
        "ay"
      ],
      [
        "Ġl",
        "ong"
      ],
      [
        "Ġex",
        "per"
      ],
      [
        "w",
        "ay"
      ],
      [
        "Ġbe",
        "ing"
      ],
      [
        "f",
        "fe"
      ],
      [
        "Ġe",
        "nd"
      ],
      [
        "as",
        "on"
      ],
      [
        "Ġdo",
        "es"
      ],
      [
        "Ġbe",
        "l"
      ],
      [
        "at",
        "ive"
      ],
      [
        "Ġh",
        "igh"
      ],
      [
        "it",
        "ed"
      ],
      [
        "Ġb",
        "us"
      ],
      [
        "Ġde",
        "c"
      ],
      [
        "Ġwe",
        "e"
      ],
      [
        "vel",
        "op"
      ],
      [
        "Ġbe",
        "fore"
      ],
      [
        "ar",
        "ch"
      ],
      [
        "ĠA",
        "n"
      ],
      [
        "an",
        "k"
      ],
      [
        "g",
        "an"
      ],
      [
        "Ġf",
        "ind"
      ],
      [
        "oll",
        "ow"
      ],
      [
        "al",
        "k"
      ],
      [
        "i",
        "x"
      ],
      [
        "Ġsh",
        "ow"
      ],
      [
        "st",
        "em"
      ],
      [
        "gr",
        "am"
      ],
      [
        "ĠI",
        "f"
      ],
      [
        "n",
        "er"
      ],
      [
        "Ġt",
        "ake"
      ],
      [
        "Ġc",
        "all"
      ],
      [
        "Ġin",
        "formation"
      ],
      [
        "ic",
        "t"
      ],
      [
        "ĠD",
        "e"
      ],
      [
        "Ġdif",
        "fe"
      ],
      [
        "Ġb",
        "est"
      ],
      [
        "ra",
        "ct"
      ],
      [
        ")",
        ","
      ],
      [
        "Ġc",
        "ar"
      ],
      [
        "Ġth",
        "ose"
      ],
      [
        "i",
        "ed"
      ],
      [
        "Ġm",
        "ade"
      ],
      [
        "le",
        "ct"
      ],
      [
        "Ġlo",
        "c"
      ],
      [
        "u",
        "ally"
      ],
      [
        "ĠN",
        "ew"
      ],
      [
        "Ġm",
        "on"
      ],
      [
        "u",
        "es"
      ],
      [
        "en",
        "er"
      ],
      [
        "Ġ",
        "7"
      ],
      [
        "Ġl",
        "ast"
      ],
      [
        "Ġre",
        "ad"
      ],
      [
        "Ġre",
        "qu"
      ],
      [
        "l",
        "ine"
      ],
      [
        "Ġm",
        "in"
      ],
      [
        "âĢ",
        "ľ"
      ],
      [
        "Ġtr",
        "ans"
      ],
      [
        "n",
        "g"
      ],
      [
        "Ġp",
        "erson"
      ],
      [
        "v",
        "ing"
      ],
      [
        "Ġ1",
        "0"
      ],
      [
        "Ġp",
        "res"
      ],
      [
        "Ġre",
        "ally"
      ],
      [
        "c",
        "y"
      ],
      [
        "Ġha",
        "nd"
      ],
      [
        "Ġin",
        "s"
      ],
      [
        "Ġas",
        "s"
      ],
      [
        "i",
        "o"
      ],
      [
        "l",
        "ed"
      ],
      [
        "Ġs",
        "im"
      ],
      [
        "Ġs",
        "ur"
      ],
      [
        "W",
        "e"
      ],
      [
        "ce",
        "pt"
      ],
      [
        "Ġm",
        "ark"
      ],
      [
        "ch",
        "ool"
      ],
      [
        "Ġe",
        "ar"
      ],
      [
        "at",
        "ch"
      ],
      [
        "Ġc",
        "he"
      ],
      [
        "Ġb",
        "r"
      ],
      [
        "in",
        "ce"
      ],
      [
        "a",
        "ve"
      ],
      [
        "Ġh",
        "ome"
      ],
      [
        "Ġgo",
        "ing"
      ],
      [
        "Ġte",
        "am"
      ],
      [
        "Ġa",
        "v"
      ],
      [
        "ĠB",
        "ut"
      ],
      [
        "p",
        "le"
      ],
      [
        "v",
        "ed"
      ],
      [
        "ar",
        "m"
      ],
      [
        "Ġwor",
        "ld"
      ],
      [
        "ub",
        "lic"
      ],
      [
        "at",
        "a"
      ],
      [
        "Ġm",
        "em"
      ],
      [
        "p",
        "r"
      ],
      [
        "sel",
        "f"
      ],
      [
        "p",
        "en"
      ],
      [
        "Ġus",
        "ed"
      ],
      [
        "in",
        "s"
      ],
      [
        "Ġre",
        "t"
      ],
      [
        "Ġle",
        "ad"
      ],
      [
        "Ġfor",
        "m"
      ],
      [
        "Ġn",
        "um"
      ],
      [
        "Ġs",
        "omet"
      ],
      [
        "v",
        "iew"
      ],
      [
        "ĠS",
        "o"
      ],
      [
        "re",
        "ad"
      ],
      [
        "Ġa",
        "round"
      ],
      [
        "Ġwh",
        "ile"
      ],
      [
        "Ġd",
        "et"
      ],
      [
        "at",
        "her"
      ],
      [
        "Ġe",
        "ach"
      ],
      [
        "Ġde",
        "velop"
      ],
      [
        "Ġth",
        "ough"
      ],
      [
        "iz",
        "e"
      ],
      [
        "je",
        "ct"
      ],
      [
        "a",
        "z"
      ],
      [
        "as",
        "h"
      ],
      [
        "Ġ",
        "8"
      ],
      [
        "ro",
        "s"
      ],
      [
        ".",
        "\""
      ],
      [
        "ĠS",
        "h"
      ],
      [
        "Ġ",
        "ed"
      ],
      [
        "Ġc",
        "re"
      ],
      [
        "Ġc",
        "ur"
      ],
      [
        "ou",
        "se"
      ],
      [
        "Ġre",
        "al"
      ],
      [
        "ag",
        "es"
      ],
      [
        "Th",
        "is"
      ],
      [
        "Ġr",
        "un"
      ],
      [
        "le",
        "ase"
      ],
      [
        "Ġin",
        "ter"
      ],
      [
        "ĠThe",
        "y"
      ],
      [
        "Ġf",
        "ollow"
      ],
      [
        "Ġs",
        "ame"
      ],
      [
        "Ġc",
        "are"
      ],
      [
        "Ġsu",
        "b"
      ],
      [
        "n",
        "ess"
      ],
      [
        "Ġf",
        "am"
      ],
      [
        "ĠA",
        "l"
      ],
      [
        "Ġc",
        "ount"
      ],
      [
        "Ġst",
        "ill"
      ],
      [
        "ch",
        "n"
      ],
      [
        "Ġar",
        "t"
      ],
      [
        "Ġb",
        "o"
      ],
      [
        "Ġs",
        "ign"
      ],
      [
        "i",
        "vers"
      ],
      [
        "Ġch",
        "ar"
      ],
      [
        "l",
        "and"
      ],
      [
        "Ġpro",
        "gram"
      ],
      [
        "Ġm",
        "od"
      ],
      [
        "Ġex",
        "p"
      ],
      [
        "Ġsy",
        "stem"
      ],
      [
        "Ġv",
        "is"
      ],
      [
        "Ġbus",
        "iness"
      ],
      [
        "ĠA",
        "d"
      ],
      [
        "Ġprov",
        "id"
      ],
      [
        "Ġs",
        "er"
      ],
      [
        "im",
        "es"
      ],
      [
        "Ġg",
        "r"
      ],
      [
        "Ġ",
        "9"
      ],
      [
        "rou",
        "p"
      ],
      [
        "e",
        "x"
      ],
      [
        "ĠB",
        "l"
      ],
      [
        "Ġs",
        "l"
      ],
      [
        "Ġcomp",
        "le"
      ],
      [
        "g",
        "g"
      ],
      [
        "v",
        "es"
      ],
      [
        "un",
        "ity"
      ],
      [
        "ak",
        "es"
      ],
      [
        "i",
        "ence"
      ],
      [
        "d",
        "er"
      ],
      [
        "Ġp",
        "ol"
      ],
      [
        "in",
        "es"
      ],
      [
        "Ġs",
        "ay"
      ],
      [
        "Ġl",
        "ife"
      ],
      [
        "en",
        "e"
      ],
      [
        "ut",
        "e"
      ],
      [
        "Ġm",
        "ed"
      ],
      [
        ",",
        "âĢĿ"
      ],
      [
        "ust",
        "om"
      ],
      [
        "I",
        "t"
      ],
      [
        "ĠC",
        "l"
      ],
      [
        "Ġdis",
        "c"
      ],
      [
        "Ġl",
        "ot"
      ],
      [
        "pe",
        "ct"
      ],
      [
        "at",
        "t"
      ],
      [
        "Ġinte",
        "rest"
      ],
      [
        "ar",
        "s"
      ],
      [
        "iv",
        "es"
      ],
      [
        "itt",
        "le"
      ],
      [
        "Ġpo",
        "int"
      ],
      [
        "Ġc",
        "our"
      ],
      [
        "Ġdiffe",
        "rent"
      ],
      [
        "Ġp",
        "ur"
      ],
      [
        "et",
        "s"
      ],
      [
        "ire",
        "ct"
      ],
      [
        "e",
        "ver"
      ],
      [
        "Ġpl",
        "ace"
      ],
      [
        "ction",
        "s"
      ],
      [
        "00",
        "0"
      ],
      [
        "al",
        "e"
      ],
      [
        "Ġsu",
        "pport"
      ],
      [
        "Ġe",
        "as"
      ],
      [
        "we",
        "en"
      ],
      [
        "Ġp",
        "ost"
      ],
      [
        "Ġha",
        "pp"
      ],
      [
        "ou",
        "n"
      ],
      [
        "ĠF",
        "or"
      ],
      [
        "Ġf",
        "ull"
      ],
      [
        "w",
        "ays"
      ],
      [
        "Ġst",
        "r"
      ],
      [
        "ion",
        "al"
      ],
      [
        "ri",
        "end"
      ],
      [
        "Ġth",
        "ree"
      ],
      [
        "Ġad",
        "v"
      ],
      [
        "ĠA",
        "r"
      ],
      [
        "ĠB",
        "e"
      ],
      [
        "Ġs",
        "k"
      ],
      [
        "at",
        "ure"
      ],
      [
        "i",
        "red"
      ],
      [
        "mer",
        "ic"
      ],
      [
        "Ġb",
        "oth"
      ],
      [
        "Ġg",
        "ame"
      ],
      [
        "Ġlo",
        "ve"
      ],
      [
        "Ġa",
        "ut"
      ],
      [
        "Ġ2",
        "0"
      ],
      [
        "Ġl",
        "ist"
      ],
      [
        "am",
        "es"
      ],
      [
        "Ġfe",
        "el"
      ],
      [
        "Ġdes",
        "ign"
      ],
      [
        "Ġc",
        "le"
      ],
      [
        "Ġto",
        "p"
      ],
      [
        ",",
        "\""
      ],
      [
        "et",
        "y"
      ],
      [
        "Ġhe",
        "alth"
      ],
      [
        "Ġd",
        "ata"
      ],
      [
        "od",
        "y"
      ],
      [
        "a",
        "h"
      ],
      [
        "Ġf",
        "r"
      ],
      [
        "o",
        "h"
      ],
      [
        "Ġf",
        "ree"
      ],
      [
        "Ġb",
        "ook"
      ],
      [
        "Ġf",
        "ound"
      ],
      [
        "Ġbet",
        "ween"
      ],
      [
        "Ġfe",
        "w"
      ],
      [
        "l",
        "ess"
      ],
      [
        "Ġst",
        "ate"
      ],
      [
        "t",
        "he"
      ],
      [
        "Ġg",
        "ot"
      ],
      [
        "ie",
        "ld"
      ],
      [
        "it",
        "al"
      ],
      [
        "er",
        "ing"
      ],
      [
        "is",
        "hed"
      ],
      [
        "Ġl",
        "ittle"
      ],
      [
        "c",
        "ent"
      ],
      [
        "m",
        "an"
      ],
      [
        "iz",
        "ed"
      ],
      [
        "âĢ",
        "¢"
      ],
      [
        "ant",
        "s"
      ],
      [
        "Ġch",
        "ild"
      ],
      [
        "Ġg",
        "l"
      ],
      [
        "iv",
        "ing"
      ],
      [
        "or",
        "n"
      ],
      [
        "Ġus",
        "ing"
      ],
      [
        "t",
        "on"
      ],
      [
        "c",
        "on"
      ],
      [
        "W",
        "h"
      ],
      [
        "Ġpro",
        "f"
      ],
      [
        "Ġpro",
        "cess"
      ],
      [
        "ut",
        "ion"
      ],
      [
        "ĠL",
        "e"
      ],
      [
        "Ġc",
        "ent"
      ],
      [
        "Ġo",
        "b"
      ],
      [
        "Ġde",
        "f"
      ],
      [
        "Ġsomet",
        "hing"
      ],
      [
        "th",
        "ing"
      ],
      [
        "Ġre",
        "ce"
      ],
      [
        "Ġm",
        "et"
      ],
      [
        "Ġcom",
        "e"
      ],
      [
        "Ġd",
        "ist"
      ],
      [
        "Ġth",
        "ings"
      ],
      [
        "ail",
        "able"
      ],
      [
        "Ġex",
        "t"
      ],
      [
        "Ġre",
        "f"
      ],
      [
        "Ġpl",
        "an"
      ],
      [
        "w",
        "are"
      ],
      [
        "b",
        "e"
      ],
      [
        "u",
        "c"
      ],
      [
        "u",
        "g"
      ],
      [
        "en",
        "se"
      ],
      [
        "ros",
        "s"
      ],
      [
        "r",
        "ist"
      ],
      [
        "Ġre",
        "st"
      ],
      [
        "ĠA",
        "meric"
      ],
      [
        "Ġm",
        "ight"
      ],
      [
        "Ġl",
        "ar"
      ],
      [
        "Ġke",
        "ep"
      ],
      [
        "Ġg",
        "ener"
      ],
      [
        "Ġp",
        "ut"
      ],
      [
        "Ġmon",
        "th"
      ],
      [
        "Ġsm",
        "all"
      ],
      [
        "Ġst",
        "and"
      ],
      [
        "Ġd",
        "ri"
      ],
      [
        "Ġin",
        "t"
      ],
      [
        "Ġc",
        "ustom"
      ],
      [
        "u",
        "ck"
      ],
      [
        "Ġf",
        "un"
      ],
      [
        "i",
        "ent"
      ],
      [
        "ĠThe",
        "re"
      ],
      [
        "Ġm",
        "ust"
      ],
      [
        "Ġal",
        "ways"
      ],
      [
        "Ġne",
        "xt"
      ],
      [
        "ow",
        "s"
      ],
      [
        "olog",
        "y"
      ],
      [
        "t",
        "t"
      ],
      [
        "Ġf",
        "act"
      ],
      [
        "Ġan",
        "other"
      ],
      [
        "Ġrep",
        "ort"
      ],
      [
        "Ġd",
        "uring"
      ],
      [
        "Ġte",
        "chn"
      ],
      [
        "ĠS",
        "he"
      ],
      [
        "o",
        "ot"
      ],
      [
        "al",
        "ity"
      ],
      [
        "Ġcont",
        "in"
      ],
      [
        "Ġt",
        "ry"
      ],
      [
        "ro",
        "l"
      ],
      [
        "Ġwith",
        "out"
      ],
      [
        "one",
        "y"
      ],
      [
        "c",
        "er"
      ],
      [
        "Ġpart",
        "ic"
      ],
      [
        "Ġb",
        "ig"
      ],
      [
        "Ġinclud",
        "ing"
      ],
      [
        "Ġwee",
        "k"
      ],
      [
        "Ġo",
        "pen"
      ],
      [
        "Ġbet",
        "ter"
      ],
      [
        "a",
        "red"
      ],
      [
        "b",
        "ers"
      ],
      [
        "Ġres",
        "ult"
      ],
      [
        "Ġd",
        "ays"
      ],
      [
        "Ġcon",
        "f"
      ],
      [
        "Ġp",
        "at"
      ],
      [
        "at",
        "ur"
      ],
      [
        "Ġres",
        "p"
      ],
      [
        "Ġp",
        "oss"
      ],
      [
        "ic",
        "ally"
      ],
      [
        "Ġv",
        "ar"
      ],
      [
        "Ġp",
        "ass"
      ],
      [
        "ir",
        "d"
      ],
      [
        "ĠF",
        "r"
      ],
      [
        "re",
        "en"
      ],
      [
        "Ġl",
        "aw"
      ],
      [
        "ist",
        "s"
      ],
      [
        "Ġg",
        "roup"
      ],
      [
        "ren",
        "ce"
      ],
      [
        "Ġav",
        "ailable"
      ],
      [
        "ar",
        "n"
      ],
      [
        "Ġis",
        "s"
      ],
      [
        "ill",
        "ion"
      ],
      [
        "Ġ",
        "i"
      ],
      [
        "in",
        "ed"
      ],
      [
        "Ġp",
        "ay"
      ],
      [
        "Ġimp",
        "ort"
      ],
      [
        "Ġhe",
        "ad"
      ],
      [
        "Ġo",
        "pt"
      ],
      [
        "amp",
        "le"
      ],
      [
        "Ġas",
        "k"
      ],
      [
        "Ġnum",
        "ber"
      ],
      [
        "Ġc",
        "a"
      ],
      [
        "ffe",
        "ct"
      ],
      [
        "t",
        "en"
      ],
      [
        "Ġc",
        "ost"
      ],
      [
        "Ġne",
        "ver"
      ],
      [
        "Ġs",
        "ince"
      ],
      [
        "ro",
        "p"
      ],
      [
        "is",
        "ion"
      ],
      [
        "i",
        "er"
      ],
      [
        "ĠI",
        "nd"
      ],
      [
        "Ġs",
        "chool"
      ],
      [
        "Ġp",
        "ri"
      ],
      [
        "Ġc",
        "or"
      ],
      [
        "Ġv",
        "al"
      ],
      [
        "Ġs",
        "ol"
      ],
      [
        "ent",
        "ion"
      ],
      [
        "ĠA",
        "ll"
      ],
      [
        "ĠC",
        "on"
      ],
      [
        "Ġcomp",
        "any"
      ],
      [
        "Ġmark",
        "et"
      ],
      [
        "Ġm",
        "ov"
      ],
      [
        "el",
        "s"
      ],
      [
        "l",
        "ing"
      ],
      [
        "i",
        "k"
      ],
      [
        "Ġle",
        "vel"
      ],
      [
        "Ġsec",
        "ond"
      ],
      [
        "Ġf",
        "il"
      ],
      [
        "I",
        "f"
      ],
      [
        "Ġt",
        "y"
      ],
      [
        "ra",
        "nd"
      ],
      [
        "Ġagain",
        "st"
      ],
      [
        "Ġqu",
        "est"
      ],
      [
        "Ġinc",
        "re"
      ],
      [
        "a",
        "j"
      ],
      [
        "ĠH",
        "ow"
      ],
      [
        "i",
        "qu"
      ],
      [
        "Ġw",
        "in"
      ],
      [
        "ver",
        "n"
      ],
      [
        "t",
        "ed"
      ],
      [
        "Ġh",
        "ard"
      ],
      [
        "Ġserv",
        "ice"
      ],
      [
        "Ġo",
        "ld"
      ],
      [
        "Ġf",
        "riend"
      ],
      [
        "ĠO",
        "n"
      ],
      [
        "pl",
        "oy"
      ],
      [
        "ivers",
        "ity"
      ],
      [
        "g",
        "er"
      ],
      [
        "cc",
        "ess"
      ],
      [
        "ĠP",
        "l"
      ],
      [
        "Ġc",
        "r"
      ],
      [
        "Ġd",
        "i"
      ],
      [
        "Ġ1",
        "2"
      ],
      [
        "ate",
        "ly"
      ],
      [
        "i",
        "or"
      ],
      [
        "Ġw",
        "r"
      ],
      [
        "Ġor",
        "gan"
      ],
      [
        "ĠâĢ",
        "ĺ"
      ],
      [
        "ble",
        "m"
      ],
      [
        "in",
        "ing"
      ],
      [
        "is",
        "m"
      ],
      [
        "Ġab",
        "le"
      ],
      [
        "em",
        "s"
      ],
      [
        "ert",
        "ain"
      ],
      [
        "Ġg",
        "ive"
      ],
      [
        "pp",
        "ing"
      ],
      [
        "Ġspe",
        "c"
      ],
      [
        "Ġp",
        "ower"
      ],
      [
        "5",
        "0"
      ],
      [
        "ra",
        "ph"
      ],
      [
        "Ġ1",
        "8"
      ],
      [
        "Ġbu",
        "ild"
      ],
      [
        "at",
        "s"
      ],
      [
        "Ġ",
        "Q"
      ],
      [
        "as",
        "es"
      ],
      [
        "Ġs",
        "ure"
      ],
      [
        "Ġare",
        "a"
      ],
      [
        "1",
        "0"
      ],
      [
        "he",
        "re"
      ],
      [
        "Ġper",
        "form"
      ],
      [
        "Ġcur",
        "rent"
      ],
      [
        "g",
        "y"
      ],
      [
        "Ġt",
        "ri"
      ],
      [
        "it",
        "es"
      ],
      [
        "Ġb",
        "ro"
      ],
      [
        "ard",
        "s"
      ],
      [
        "Ġ",
        "ide"
      ],
      [
        "Ġp",
        "ublic"
      ],
      [
        "e",
        "red"
      ],
      [
        "Ġm",
        "ain"
      ],
      [
        "st",
        "and"
      ],
      [
        "Ġcol",
        "le"
      ],
      [
        "ĠS",
        "p"
      ],
      [
        "ĠTh",
        "at"
      ],
      [
        "w",
        "ork"
      ],
      [
        "Ġle",
        "t"
      ],
      [
        "Ġinv",
        "est"
      ],
      [
        "Ġexper",
        "ience"
      ],
      [
        "ĠE",
        "x"
      ],
      [
        "Ġex",
        "pl"
      ],
      [
        "in",
        "al"
      ],
      [
        "Ġpro",
        "blem"
      ],
      [
        "ĠT",
        "e"
      ],
      [
        "Ġon",
        "line"
      ],
      [
        "E",
        "R"
      ],
      [
        "ĠN",
        "o"
      ],
      [
        "Ġe",
        "l"
      ],
      [
        "Ġbel",
        "ie"
      ],
      [
        "r",
        "al"
      ],
      [
        "Ġf",
        "our"
      ],
      [
        "Ġm",
        "us"
      ],
      [
        "Ġh",
        "um"
      ],
      [
        "Ġl",
        "ess"
      ],
      [
        "Ġ",
        "ve"
      ],
      [
        "ff",
        "ic"
      ],
      [
        "Ġu",
        "nt"
      ],
      [
        "Y",
        "ou"
      ],
      [
        "Ġv",
        "ide"
      ],
      [
        "w",
        "w"
      ],
      [
        "us",
        "s"
      ],
      [
        "Ġt",
        "erm"
      ],
      [
        "Ġa",
        "way"
      ],
      [
        "um",
        "p"
      ],
      [
        "Ġw",
        "ater"
      ],
      [
        "pe",
        "nd"
      ],
      [
        "Ġrec",
        "ord"
      ],
      [
        "Ġfam",
        "ily"
      ],
      [
        "g",
        "in"
      ],
      [
        "Ġbe",
        "h"
      ],
      [
        "Ġwith",
        "in"
      ],
      [
        "o",
        "pe"
      ],
      [
        "ĠI",
        "s"
      ],
      [
        "Ġd",
        "irect"
      ],
      [
        "Ġo",
        "per"
      ],
      [
        "2",
        "0"
      ],
      [
        "Ġw",
        "om"
      ],
      [
        "Ġin",
        "f"
      ],
      [
        "Ġle",
        "g"
      ],
      [
        "ab",
        "ly"
      ],
      [
        "l",
        "o"
      ],
      [
        "ĠR",
        "es"
      ],
      [
        "Ġp",
        "os"
      ],
      [
        "Ġan",
        "n"
      ],
      [
        "Ġre",
        "se"
      ],
      [
        "r",
        "on"
      ],
      [
        "âĢ",
        "Ķ"
      ],
      [
        "e",
        "c"
      ],
      [
        "p",
        "os"
      ],
      [
        "ou",
        "th"
      ],
      [
        "ĠC",
        "ol"
      ],
      [
        "Ġc",
        "ap"
      ],
      [
        "ĠâĢ",
        "Ķ"
      ],
      [
        "Ġprov",
        "ide"
      ],
      [
        "Ġg",
        "row"
      ],
      [
        "Ġcl",
        "ass"
      ],
      [
        "ĠM",
        "an"
      ],
      [
        "ĠO",
        "r"
      ],
      [
        "Ġb",
        "re"
      ],
      [
        "o",
        "k"
      ],
      [
        "Ġm",
        "oney"
      ],
      [
        "our",
        "s"
      ],
      [
        "Ġ",
        "est"
      ],
      [
        "at",
        "or"
      ],
      [
        "Ġ1",
        "5"
      ],
      [
        "Ġadd",
        "ition"
      ],
      [
        "iss",
        "ion"
      ],
      [
        "a",
        "ut"
      ],
      [
        "m",
        "e"
      ],
      [
        "m",
        "on"
      ],
      [
        "Ġs",
        "ays"
      ],
      [
        "pp",
        "ed"
      ],
      [
        "Ġj",
        "ob"
      ],
      [
        "Ġimport",
        "ant"
      ],
      [
        "ot",
        "e"
      ],
      [
        "Ġ",
        "'"
      ],
      [
        "Ġt",
        "urn"
      ],
      [
        "Ġpro",
        "per"
      ],
      [
        "b",
        "y"
      ],
      [
        "age",
        "ment"
      ],
      [
        "'",
        "m"
      ],
      [
        "Ġth",
        "ing"
      ],
      [
        "Ġto",
        "day"
      ],
      [
        "b",
        "o"
      ],
      [
        "ur",
        "y"
      ],
      [
        "i",
        "en"
      ],
      [
        "r",
        "ation"
      ],
      [
        "ĠT",
        "r"
      ],
      [
        "m",
        "ed"
      ],
      [
        "Ġ",
        "|"
      ],
      [
        "Ġs",
        "ite"
      ],
      [
        "ain",
        "s"
      ],
      [
        "ent",
        "ly"
      ],
      [
        "Ġunt",
        "il"
      ],
      [
        "H",
        "e"
      ],
      [
        "Ġe",
        "qu"
      ],
      [
        "Ġacc",
        "ess"
      ],
      [
        "em",
        "ber"
      ],
      [
        "'",
        "re"
      ],
      [
        "c",
        "o"
      ],
      [
        "Ġpre",
        "v"
      ],
      [
        "Ġ",
        "0"
      ],
      [
        "ot",
        "t"
      ],
      [
        "l",
        "ish"
      ],
      [
        "c",
        "ing"
      ],
      [
        "is",
        "ed"
      ],
      [
        "in",
        "a"
      ],
      [
        "re",
        "t"
      ],
      [
        "Ġp",
        "op"
      ],
      [
        "o",
        "f"
      ],
      [
        "Ġl",
        "ight"
      ],
      [
        "o",
        "int"
      ],
      [
        "Ġm",
        "aking"
      ],
      [
        "ĠP",
        "h"
      ],
      [
        "Ġse",
        "ason"
      ],
      [
        "Ġev",
        "ent"
      ],
      [
        "p",
        "or"
      ],
      [
        "Ġwe",
        "bs"
      ],
      [
        "Ġ201",
        "2"
      ],
      [
        "ar",
        "ing"
      ],
      [
        "Ġs",
        "al"
      ],
      [
        "Ġf",
        "ac"
      ],
      [
        "pl",
        "ay"
      ],
      [
        "Ġwork",
        "ing"
      ],
      [
        "Ġph",
        "ot"
      ],
      [
        "Ġserv",
        "ices"
      ],
      [
        "3",
        "0"
      ],
      [
        "g",
        "ed"
      ],
      [
        "id",
        "er"
      ],
      [
        "Ġor",
        "der"
      ],
      [
        "e",
        "ad"
      ],
      [
        "so",
        "ci"
      ],
      [
        "p",
        "s"
      ],
      [
        "Ġp",
        "ain"
      ],
      [
        "ĠCh",
        "rist"
      ],
      [
        "id",
        "s"
      ],
      [
        "Ġn",
        "ight"
      ],
      [
        "I",
        "N"
      ],
      [
        "Ġf",
        "ood"
      ],
      [
        "ĠE",
        "ng"
      ],
      [
        "S",
        "t"
      ],
      [
        "Ġch",
        "ang"
      ],
      [
        "e",
        "e"
      ],
      [
        "Ġt",
        "alk"
      ],
      [
        "as",
        "ter"
      ],
      [
        "Ġv",
        "iew"
      ],
      [
        "Ġen",
        "g"
      ],
      [
        "Ġme",
        "et"
      ],
      [
        "ĠT",
        "o"
      ],
      [
        "ort",
        "s"
      ],
      [
        "iv",
        "id"
      ],
      [
        "is",
        "ing"
      ],
      [
        "Ġ1",
        "1"
      ],
      [
        "Ġn",
        "ame"
      ],
      [
        "aj",
        "or"
      ],
      [
        "Ġp",
        "rom"
      ],
      [
        "re",
        "am"
      ],
      [
        "te",
        "nd"
      ],
      [
        "Ġ",
        "..."
      ],
      [
        "ĠA",
        "t"
      ],
      [
        "ĠC",
        "an"
      ],
      [
        "Ġapp",
        "ro"
      ],
      [
        "g",
        "es"
      ],
      [
        "Ġp",
        "ast"
      ],
      [
        "Ġpro",
        "te"
      ],
      [
        "Ġcont",
        "rol"
      ],
      [
        "Ġdid",
        "n"
      ],
      [
        "Ġ",
        "Z"
      ],
      [
        "Ġs",
        "ing"
      ],
      [
        "ot",
        "s"
      ],
      [
        "Ġsu",
        "pp"
      ],
      [
        "Ġact",
        "iv"
      ],
      [
        "Ġstud",
        "ents"
      ],
      [
        "Ġlook",
        "ing"
      ],
      [
        "om",
        "m"
      ],
      [
        "iv",
        "ed"
      ],
      [
        "at",
        "ter"
      ],
      [
        "Ġm",
        "ove"
      ],
      [
        "if",
        "y"
      ],
      [
        "a",
        "im"
      ],
      [
        "oh",
        "n"
      ],
      [
        "Ġb",
        "as"
      ],
      [
        "ir",
        "on"
      ],
      [
        "Ġch",
        "ange"
      ],
      [
        "Ġspe",
        "cial"
      ],
      [
        "Ġprodu",
        "ct"
      ],
      [
        "read",
        "y"
      ],
      [
        "Ġen",
        "ough"
      ],
      [
        "ĠCom",
        "m"
      ],
      [
        "le",
        "t"
      ],
      [
        "le",
        "y"
      ],
      [
        "A",
        "s"
      ],
      [
        "ab",
        "ility"
      ],
      [
        "c",
        "u"
      ],
      [
        "Ġ",
        "."
      ],
      [
        "ĠU",
        "S"
      ],
      [
        "Ġloc",
        "al"
      ],
      [
        "i",
        "ents"
      ],
      [
        "Ġt",
        "est"
      ],
      [
        "Ġpres",
        "ent"
      ],
      [
        "Ġwh",
        "y"
      ],
      [
        "Ġvis",
        "it"
      ],
      [
        "Ġle",
        "ft"
      ],
      [
        "j",
        "oy"
      ],
      [
        "s",
        "h"
      ],
      [
        "Ġall",
        "ow"
      ],
      [
        "Ġro",
        "om"
      ],
      [
        "ĠA",
        "m"
      ],
      [
        "if",
        "ied"
      ],
      [
        "od",
        "e"
      ],
      [
        "i",
        "um"
      ],
      [
        "Ġsu",
        "ccess"
      ],
      [
        "Ġlar",
        "ge"
      ],
      [
        "al",
        "f"
      ],
      [
        "Ġprodu",
        "cts"
      ],
      [
        "us",
        "h"
      ],
      [
        "ĠC",
        "ent"
      ],
      [
        "Ġde",
        "v"
      ],
      [
        "ore",
        "d"
      ],
      [
        "Ġa",
        "ir"
      ],
      [
        "it",
        "ive"
      ],
      [
        "it",
        "ions"
      ],
      [
        "Ġe",
        "ver"
      ],
      [
        "1",
        "9"
      ],
      [
        "n",
        "ot"
      ],
      [
        "it",
        "her"
      ],
      [
        "Ġapp",
        "lic"
      ],
      [
        "Ġgo",
        "vern"
      ],
      [
        "Ġp",
        "ract"
      ],
      [
        "Ġdet",
        "ail"
      ],
      [
        "con",
        "om"
      ],
      [
        "Ġprof",
        "ess"
      ],
      [
        "ic",
        "le"
      ],
      [
        "Ġe",
        "le"
      ],
      [
        "2",
        "01"
      ],
      [
        "Ġc",
        "ou"
      ],
      [
        "ĠW",
        "hen"
      ],
      [
        "Ġvide",
        "o"
      ],
      [
        "Ġcon",
        "d"
      ],
      [
        "iz",
        "ation"
      ],
      [
        "Ġche",
        "ck"
      ],
      [
        "Ġoff",
        "ic"
      ],
      [
        "Ġoff",
        "er"
      ],
      [
        "Ġal",
        "ready"
      ],
      [
        "O",
        "N"
      ],
      [
        "Ġto",
        "get"
      ],
      [
        "ure",
        "d"
      ],
      [
        "Ġcomm",
        "unity"
      ],
      [
        "Ġtoget",
        "her"
      ],
      [
        "in",
        "ation"
      ],
      [
        "Ġs",
        "ide"
      ],
      [
        "Ġp",
        "a"
      ],
      [
        "ĠUn",
        "iversity"
      ],
      [
        "Ġcour",
        "se"
      ],
      [
        "Ġret",
        "urn"
      ],
      [
        "Ġbu",
        "y"
      ],
      [
        "h",
        "or"
      ],
      [
        "ra",
        "p"
      ],
      [
        "Ġcon",
        "st"
      ],
      [
        "Ġte",
        "ll"
      ],
      [
        "ĠC",
        "o"
      ],
      [
        "ĠWh",
        "at"
      ],
      [
        ".",
        ","
      ],
      [
        "Ġ",
        "["
      ],
      [
        "Ġh",
        "ist"
      ],
      [
        "iv",
        "en"
      ],
      [
        "Ġind",
        "ust"
      ],
      [
        "Ġchild",
        "ren"
      ],
      [
        "ver",
        "al"
      ],
      [
        "an",
        "n"
      ],
      [
        "are",
        "nt"
      ],
      [
        "p",
        "art"
      ],
      [
        "Ġw",
        "on"
      ],
      [
        "Ġc",
        "ase"
      ],
      [
        "or",
        "ies"
      ],
      [
        "ir",
        "l"
      ],
      [
        "Ġwor",
        "d"
      ],
      [
        "an",
        "e"
      ],
      [
        "ri",
        "es"
      ],
      [
        "all",
        "en"
      ],
      [
        "Ġcomp",
        "ut"
      ],
      [
        "oc",
        "us"
      ],
      [
        "ĠM",
        "ay"
      ],
      [
        "Ġfollow",
        "ing"
      ],
      [
        "Ġme",
        "ans"
      ],
      [
        "Ġcomple",
        "te"
      ],
      [
        "ord",
        "ing"
      ],
      [
        "Ġd",
        "r"
      ],
      [
        "Ġe",
        "ffect"
      ],
      [
        "'",
        "ve"
      ],
      [
        "c",
        "hed"
      ],
      [
        "Ġd",
        "one"
      ],
      [
        "Ġem",
        "ail"
      ],
      [
        "y",
        "le"
      ],
      [
        "Ġl",
        "ine"
      ],
      [
        "ĠM",
        "ed"
      ],
      [
        "Ġha",
        "ving"
      ],
      [
        "Ġper",
        "cent"
      ],
      [
        "R",
        "E"
      ],
      [
        "u",
        "ff"
      ],
      [
        "ĠF",
        "l"
      ],
      [
        "Ġb",
        "ene"
      ],
      [
        "ru",
        "ct"
      ],
      [
        "A",
        "N"
      ],
      [
        "Ġt",
        "imes"
      ],
      [
        "Ġb",
        "ased"
      ],
      [
        "Ġp",
        "ress"
      ],
      [
        "Ġ3",
        "0"
      ],
      [
        "f",
        "ort"
      ],
      [
        "au",
        "gh"
      ],
      [
        "Ġ1",
        "6"
      ],
      [
        "fe",
        "ct"
      ],
      [
        "Ġke",
        "y"
      ],
      [
        "Ġem",
        "ploy"
      ],
      [
        "m",
        "in"
      ],
      [
        "Ġb",
        "ody"
      ],
      [
        "Ġinclud",
        "e"
      ],
      [
        "Ġed",
        "uc"
      ],
      [
        "Ġm",
        "ajor"
      ],
      [
        "Ġacc",
        "ount"
      ],
      [
        "Ġunder",
        "stand"
      ],
      [
        "or",
        "th"
      ],
      [
        "'",
        "ll"
      ],
      [
        "Ġs",
        "w"
      ],
      [
        "Ġne",
        "ar"
      ],
      [
        "Ġal",
        "ong"
      ],
      [
        "Ġk",
        "ind"
      ],
      [
        "Ġcomp",
        "et"
      ],
      [
        "av",
        "or"
      ],
      [
        "Ġd",
        "ra"
      ],
      [
        "Ġle",
        "arn"
      ],
      [
        "Ġl",
        "im"
      ],
      [
        "Ġre",
        "view"
      ],
      [
        "Ġb",
        "it"
      ],
      [
        "a",
        "it"
      ],
      [
        "b",
        "ook"
      ],
      [
        "Ġre",
        "du"
      ],
      [
        "Ġm",
        "illion"
      ],
      [
        "ill",
        "s"
      ],
      [
        "Ġeas",
        "y"
      ],
      [
        "Ġt",
        "ax"
      ],
      [
        "Ġl",
        "ow"
      ],
      [
        "Ġof",
        "ten"
      ],
      [
        "Ġw",
        "rit"
      ],
      [
        "ap",
        "s"
      ],
      [
        "Ġh",
        "ouse"
      ],
      [
        "Ġl",
        "a"
      ],
      [
        "Ġso",
        "ft"
      ],
      [
        "ut",
        "es"
      ],
      [
        "Ġse",
        "veral"
      ],
      [
        "Ġf",
        "ar"
      ],
      [
        "ĠW",
        "ith"
      ],
      [
        "F",
        "or"
      ],
      [
        "un",
        "e"
      ],
      [
        "at",
        "ures"
      ],
      [
        "ur",
        "s"
      ],
      [
        "Ġle",
        "ast"
      ],
      [
        "Ġimp",
        "ro"
      ],
      [
        "an",
        "ces"
      ],
      [
        "Ġwebs",
        "ite"
      ],
      [
        "en",
        "n"
      ],
      [
        "Ġh",
        "old"
      ],
      [
        "ĠA",
        "pp"
      ],
      [
        "and",
        "s"
      ],
      [
        "Ġchar",
        "act"
      ],
      [
        "Ġt",
        "reat"
      ],
      [
        "ĠS",
        "c"
      ],
      [
        "Ġbec",
        "ome"
      ],
      [
        "Ġf",
        "und"
      ],
      [
        "Ġst",
        "ep"
      ],
      [
        "er",
        "y"
      ],
      [
        "Ġdo",
        "ing"
      ],
      [
        "ĠJ",
        "ohn"
      ],
      [
        "Ġso",
        "cial"
      ],
      [
        "a",
        "pe"
      ],
      [
        "l",
        "ished"
      ],
      [
        "Ġin",
        "tern"
      ],
      [
        "Ġn",
        "on"
      ],
      [
        "Ġnew",
        "s"
      ],
      [
        "A",
        "T"
      ],
      [
        "g",
        "ing"
      ],
      [
        "Ġen",
        "joy"
      ],
      [
        "i",
        "ans"
      ],
      [
        "ĠM",
        "ar"
      ],
      [
        "Ġc",
        "amp"
      ],
      [
        "Ġrese",
        "arch"
      ],
      [
        "un",
        "ic"
      ],
      [
        "Ġsh",
        "ort"
      ],
      [
        "is",
        "k"
      ],
      [
        "Ġm",
        "ar"
      ],
      [
        "Ġl",
        "ive"
      ],
      [
        "f",
        "er"
      ],
      [
        "Ġm",
        "en"
      ],
      [
        "ĠM",
        "y"
      ],
      [
        "Ġde",
        "al"
      ],
      [
        "Ġdoes",
        "n"
      ],
      [
        "v",
        "iron"
      ],
      [
        "Ġc",
        "ertain"
      ],
      [
        "Ġ",
        "es"
      ],
      [
        "id",
        "d"
      ],
      [
        "Ġl",
        "ink"
      ],
      [
        "Ġc",
        "ame"
      ],
      [
        "our",
        "n"
      ],
      [
        "ne",
        "y"
      ],
      [
        "Ġget",
        "ting"
      ],
      [
        "f",
        "or"
      ],
      [
        "ens",
        "ive"
      ],
      [
        "Ġtoo",
        "k"
      ],
      [
        "fe",
        "rence"
      ],
      [
        "Ġw",
        "ent"
      ],
      [
        "Ġf",
        "ield"
      ],
      [
        "Ġt",
        "re"
      ],
      [
        "er",
        "n"
      ],
      [
        "Ġmem",
        "bers"
      ],
      [
        "A",
        "n"
      ],
      [
        "s",
        "ide"
      ],
      [
        "m",
        "ber"
      ],
      [
        "Ġ-",
        "-"
      ],
      [
        "ull",
        "y"
      ],
      [
        "en",
        "cy"
      ],
      [
        "os",
        "ed"
      ],
      [
        "Ġother",
        "s"
      ],
      [
        "u",
        "ro"
      ],
      [
        "Ġw",
        "ind"
      ],
      [
        "Ġcre",
        "ate"
      ],
      [
        "Ġbene",
        "f"
      ],
      [
        "a",
        "pp"
      ],
      [
        "ward",
        "s"
      ],
      [
        "Ġcount",
        "ry"
      ],
      [
        "o",
        "ice"
      ],
      [
        "ater",
        "ial"
      ],
      [
        "Ġind",
        "ivid"
      ],
      [
        "ĠC",
        "ar"
      ],
      [
        "..",
        ".."
      ],
      [
        "Ġc",
        "reat"
      ],
      [
        "Ġo",
        "cc"
      ],
      [
        "Ġm",
        "akes"
      ],
      [
        "Ġe",
        "y"
      ],
      [
        "Ġcall",
        "ed"
      ],
      [
        "Ġpur",
        "ch"
      ],
      [
        "ĠR",
        "o"
      ],
      [
        "a",
        "i"
      ],
      [
        "Ġo",
        "pport"
      ],
      [
        "ak",
        "en"
      ],
      [
        "Ġtr",
        "ad"
      ],
      [
        "Ġbel",
        "ow"
      ],
      [
        "!",
        "!"
      ],
      [
        "Ġre",
        "ason"
      ],
      [
        "Ġy",
        "et"
      ],
      [
        "Ġthough",
        "t"
      ],
      [
        "m",
        "ost"
      ],
      [
        "Ġqu",
        "ality"
      ],
      [
        "c",
        "rib"
      ],
      [
        "ĠSt",
        "ate"
      ],
      [
        "E",
        "S"
      ],
      [
        "Ġperson",
        "al"
      ],
      [
        "iqu",
        "e"
      ],
      [
        "Ġ",
        "X"
      ],
      [
        "Ġex",
        "ample"
      ],
      [
        "ĠR",
        "ep"
      ],
      [
        "ro",
        "om"
      ],
      [
        "Ġme",
        "an"
      ],
      [
        "âĢ",
        "ĵ"
      ],
      [
        "ent",
        "ial"
      ],
      [
        "Ġcl",
        "ose"
      ],
      [
        "Ġposs",
        "ible"
      ],
      [
        "og",
        "raph"
      ],
      [
        "p",
        "ro"
      ],
      [
        "ĠC",
        "al"
      ],
      [
        "Ġh",
        "ig"
      ],
      [
        "ir",
        "m"
      ],
      [
        "p",
        "ort"
      ],
      [
        "Ġpro",
        "ject"
      ],
      [
        "Ġor",
        "ig"
      ],
      [
        "Ġpr",
        "ice"
      ],
      [
        "Ġf",
        "ocus"
      ],
      [
        "Ġon",
        "ce"
      ],
      [
        "s",
        "on"
      ],
      [
        "Ġs",
        "ound"
      ],
      [
        "c",
        "he"
      ],
      [
        "Ġcon",
        "ne"
      ],
      [
        "Ġcont",
        "act"
      ],
      [
        "t",
        "ain"
      ],
      [
        "u",
        "ly"
      ],
      [
        "A",
        "R"
      ],
      [
        "g",
        "le"
      ],
      [
        "Ġqu",
        "ick"
      ],
      [
        "Ġact",
        "ually"
      ],
      [
        "il",
        "ities"
      ],
      [
        "Ġspec",
        "ific"
      ],
      [
        "Ġm",
        "om"
      ],
      [
        "Ġ",
        ":"
      ],
      [
        "Ġt",
        "em"
      ],
      [
        "on",
        "es"
      ],
      [
        "ĠIn",
        "tern"
      ],
      [
        "Ġhapp",
        "en"
      ],
      [
        "Ġp",
        "ie"
      ],
      [
        "oo",
        "se"
      ],
      [
        "The",
        "re"
      ],
      [
        "ut",
        "ure"
      ],
      [
        "Ġ19",
        "9"
      ],
      [
        "ĠS",
        "te"
      ],
      [
        "ver",
        "age"
      ],
      [
        "Ġneed",
        "s"
      ],
      [
        "Ġdevelop",
        "ment"
      ],
      [
        "Ġc",
        "ity"
      ],
      [
        "it",
        "or"
      ],
      [
        "Ġf",
        "ive"
      ],
      [
        "Ġbe",
        "aut"
      ],
      [
        "Wh",
        "at"
      ],
      [
        "Ġindivid",
        "ual"
      ],
      [
        "Ġe",
        "conom"
      ],
      [
        "viron",
        "ment"
      ],
      [
        "Ġm",
        "ult"
      ],
      [
        "pt",
        "ion"
      ],
      [
        "lo",
        "ad"
      ],
      [
        "Ġf",
        "ore"
      ],
      [
        "Ġm",
        "il"
      ],
      [
        "Ġc",
        "ut"
      ],
      [
        "ĠD",
        "o"
      ],
      [
        "Ġear",
        "ly"
      ],
      [
        "Ġpartic",
        "ular"
      ],
      [
        "b",
        "r"
      ],
      [
        "Ġm",
        "ind"
      ],
      [
        "Ġ1",
        "4"
      ],
      [
        "a",
        "ff"
      ],
      [
        "Ġ",
        "Â"
      ],
      [
        "Ġs",
        "it"
      ],
      [
        "Ġp",
        "ar"
      ],
      [
        "w",
        "h"
      ],
      [
        "1",
        "2"
      ],
      [
        "Ġp",
        "ick"
      ],
      [
        "Ġst",
        "ore"
      ],
      [
        "d",
        "e"
      ],
      [
        "Ġn",
        "et"
      ],
      [
        "ro",
        "ll"
      ],
      [
        "Ġp",
        "age"
      ],
      [
        "Ġcom",
        "es"
      ],
      [
        "our",
        "ce"
      ],
      [
        "Ġcl",
        "aim"
      ],
      [
        "Ġyou",
        "ng"
      ],
      [
        "Ġper",
        "fect"
      ],
      [
        "Ġh",
        "ours"
      ],
      [
        "id",
        "ay"
      ],
      [
        "ĠB",
        "r"
      ],
      [
        "un",
        "ch"
      ],
      [
        "B",
        "ut"
      ],
      [
        "ur",
        "ther"
      ],
      [
        "ĠO",
        "ne"
      ],
      [
        "Ġ201",
        "3"
      ],
      [
        "Ġinv",
        "ol"
      ],
      [
        "Ġcomput",
        "er"
      ],
      [
        "Ġto",
        "ld"
      ],
      [
        "ar",
        "r"
      ],
      [
        "ul",
        "ation"
      ],
      [
        "ci",
        "ally"
      ],
      [
        "Ġac",
        "ross"
      ],
      [
        "Ġcle",
        "ar"
      ],
      [
        "Ġ",
        "ident"
      ],
      [
        "Ġp",
        "ot"
      ],
      [
        "if",
        "t"
      ],
      [
        "Ġpro",
        "b"
      ],
      [
        "Ġgovern",
        "ment"
      ],
      [
        "at",
        "ic"
      ],
      [
        "Ġfr",
        "ont"
      ],
      [
        "Ġmus",
        "ic"
      ],
      [
        "al",
        "y"
      ],
      [
        "ate",
        "g"
      ],
      [
        "Ġsp",
        "ace"
      ],
      [
        "c",
        "hes"
      ],
      [
        "n",
        "ers"
      ],
      [
        "ĠC",
        "ont"
      ],
      [
        "ĠN",
        "ot"
      ],
      [
        "Ġ",
        "vers"
      ],
      [
        "id",
        "es"
      ],
      [
        "Ġto",
        "t"
      ],
      [
        "Ġstart",
        "ed"
      ],
      [
        "l",
        "f"
      ],
      [
        "ic",
        "y"
      ],
      [
        "Ġbr",
        "ing"
      ],
      [
        "Ġp",
        "ack"
      ],
      [
        "Ġm",
        "aterial"
      ],
      [
        "il",
        "ar"
      ],
      [
        "Ġde",
        "li"
      ],
      [
        "Ġ1",
        "7"
      ],
      [
        "Ġcont",
        "ent"
      ],
      [
        "ĠCom",
        "p"
      ],
      [
        "ill",
        "ed"
      ],
      [
        "Ġstr",
        "ong"
      ],
      [
        "1",
        "1"
      ],
      [
        "Ġc",
        "e"
      ],
      [
        "Ġpri",
        "v"
      ],
      [
        "er",
        "al"
      ],
      [
        "Ġde",
        "m"
      ],
      [
        "Ġty",
        "p"
      ],
      [
        "s",
        "w"
      ],
      [
        "Ġhum",
        "an"
      ],
      [
        "W",
        "hen"
      ],
      [
        "o",
        "or"
      ],
      [
        "Ġst",
        "ory"
      ],
      [
        "Ġcom",
        "b"
      ],
      [
        "ĠThe",
        "se"
      ],
      [
        "Ġdo",
        "g"
      ],
      [
        "Ġf",
        "uture"
      ],
      [
        "am",
        "s"
      ],
      [
        "er",
        "r"
      ],
      [
        "Ġwom",
        "en"
      ],
      [
        "ĠW",
        "or"
      ],
      [
        "Ġme",
        "as"
      ],
      [
        "Ġvar",
        "i"
      ],
      [
        "c",
        "le"
      ],
      [
        "os",
        "p"
      ],
      [
        "Ġch",
        "allen"
      ],
      [
        "S",
        "o"
      ],
      [
        "Ġbe",
        "gin"
      ],
      [
        "Ġh",
        "ot"
      ],
      [
        "Ġv",
        "ol"
      ],
      [
        "n",
        "ed"
      ],
      [
        "Ġh",
        "alf"
      ],
      [
        "Ġe",
        "ither"
      ],
      [
        "ro",
        "wn"
      ],
      [
        "Ġc",
        "ir"
      ],
      [
        "ro",
        "du"
      ],
      [
        "Ġ2",
        "5"
      ],
      [
        "ĠE",
        "n"
      ],
      [
        "Ġwhe",
        "ther"
      ],
      [
        "Ġam",
        "ong"
      ],
      [
        "I",
        "S"
      ],
      [
        "Ġw",
        "alk"
      ],
      [
        "Ġl",
        "ater"
      ],
      [
        "Ġr",
        "ad"
      ],
      [
        "ac",
        "y"
      ],
      [
        "Ġhe",
        "art"
      ],
      [
        "Ġapp",
        "ear"
      ],
      [
        "A",
        "nd"
      ],
      [
        "Ġs",
        "um"
      ],
      [
        "Ġs",
        "ix"
      ],
      [
        "her",
        "s"
      ],
      [
        "Ġquest",
        "ion"
      ],
      [
        "Ġare",
        "as"
      ],
      [
        "ĠN",
        "e"
      ],
      [
        "Ġpl",
        "ac"
      ],
      [
        "Ġam",
        "ount"
      ],
      [
        "Ġinst",
        "all"
      ],
      [
        "Ġf",
        "re"
      ],
      [
        "ĠAmeric",
        "an"
      ],
      [
        "Ġmonth",
        "s"
      ],
      [
        "Ġfriend",
        "s"
      ],
      [
        "O",
        "R"
      ],
      [
        "l",
        "er"
      ],
      [
        "le",
        "ment"
      ],
      [
        "ut",
        "ions"
      ],
      [
        "ight",
        "s"
      ],
      [
        "ip",
        "s"
      ],
      [
        "ĠY",
        "ork"
      ],
      [
        "f",
        "ic"
      ],
      [
        "i",
        "od"
      ],
      [
        "ct",
        "or"
      ],
      [
        "th",
        "ough"
      ],
      [
        "Ġab",
        "ove"
      ],
      [
        "Ġman",
        "ag"
      ],
      [
        "E",
        "D"
      ],
      [
        "Ġf",
        "ace"
      ],
      [
        "Ġf",
        "avor"
      ],
      [
        "ĠS",
        "u"
      ],
      [
        "Ġsu",
        "per"
      ],
      [
        "Ġth",
        "ird"
      ],
      [
        "Ġse",
        "em"
      ],
      [
        "Ġen",
        "s"
      ],
      [
        "Ġkn",
        "own"
      ],
      [
        "Ġse",
        "en"
      ],
      [
        "/",
        "/"
      ],
      [
        "n",
        "ow"
      ],
      [
        "Ġ2",
        "4"
      ],
      [
        "Ġrequ",
        "ire"
      ],
      [
        "Ġb",
        "ad"
      ],
      [
        "st",
        "er"
      ],
      [
        "Ġg",
        "ames"
      ],
      [
        "ĠG",
        "od"
      ],
      [
        "Ġm",
        "or"
      ],
      [
        "Ġ",
        "z"
      ],
      [
        "Ġany",
        "thing"
      ],
      [
        "p",
        "ar"
      ],
      [
        "Ġe",
        "t"
      ],
      [
        "je",
        "cts"
      ],
      [
        "o",
        "on"
      ],
      [
        "re",
        "et"
      ],
      [
        "is",
        "ter"
      ],
      [
        "ur",
        "al"
      ],
      [
        "Ġg",
        "iven"
      ],
      [
        "Ġg",
        "irl"
      ],
      [
        "il",
        "le"
      ],
      [
        "ĠF",
        "e"
      ],
      [
        "ĠIn",
        "st"
      ],
      [
        "Ġwho",
        "le"
      ],
      [
        "Ġfil",
        "m"
      ],
      [
        "t",
        "ime"
      ],
      [
        "u",
        "ed"
      ],
      [
        "Ġst",
        "ay"
      ],
      [
        "sel",
        "ves"
      ],
      [
        "O",
        "n"
      ],
      [
        "Ġc",
        "ult"
      ],
      [
        "Ġd",
        "ou"
      ],
      [
        "am",
        "er"
      ],
      [
        "Ġdis",
        "play"
      ],
      [
        ".",
        ")"
      ],
      [
        "ib",
        "ility"
      ],
      [
        "Ġp",
        "lease"
      ],
      [
        "Ġaut",
        "hor"
      ],
      [
        "Ġbelie",
        "ve"
      ],
      [
        "Ġindust",
        "ry"
      ],
      [
        "an",
        "ies"
      ],
      [
        "Ġre",
        "le"
      ],
      [
        "Ġresp",
        "ons"
      ],
      [
        "b",
        "ack"
      ],
      [
        "as",
        "ing"
      ],
      [
        "E",
        "N"
      ],
      [
        "v",
        "ent"
      ],
      [
        "ĠC",
        "ount"
      ],
      [
        "ĠE",
        "uro"
      ],
      [
        "Ġman",
        "agement"
      ],
      [
        "Ġstud",
        "y"
      ],
      [
        "d",
        "d"
      ],
      [
        "u",
        "se"
      ],
      [
        "Ġb",
        "ar"
      ],
      [
        "ĠN",
        "ational"
      ],
      [
        "ne",
        "w"
      ],
      [
        "Ġ5",
        "0"
      ],
      [
        ":",
        "//"
      ],
      [
        "og",
        "n"
      ],
      [
        "ric",
        "t"
      ],
      [
        "Ġevery",
        "thing"
      ],
      [
        "Ġcle",
        "an"
      ],
      [
        "f",
        "ully"
      ],
      [
        "Ġh",
        "ope"
      ],
      [
        "ĠW",
        "ill"
      ],
      [
        "res",
        "ent"
      ],
      [
        "Ġag",
        "o"
      ],
      [
        "b",
        "all"
      ],
      [
        "Ġa",
        "ff"
      ],
      [
        "Ġw",
        "atch"
      ],
      [
        "ce",
        "ll"
      ],
      [
        "ĠP",
        "r"
      ],
      [
        "Ġe",
        "ff"
      ],
      [
        "R",
        "e"
      ],
      [
        "ab",
        "or"
      ],
      [
        "Ġsh",
        "are"
      ],
      [
        "Ġen",
        "vironment"
      ],
      [
        "us",
        "ed"
      ],
      [
        "on",
        "y"
      ],
      [
        "Ġse",
        "ll"
      ],
      [
        "ĠY",
        "our"
      ],
      [
        "Ġsome",
        "one"
      ],
      [
        "Ġwork",
        "s"
      ],
      [
        "atur",
        "al"
      ],
      [
        "Ġt",
        "aken"
      ],
      [
        "o",
        "ver"
      ],
      [
        "2",
        "00"
      ],
      [
        "Ġc",
        "al"
      ],
      [
        "Ġre",
        "d"
      ],
      [
        "or",
        "g"
      ],
      [
        "ĠC",
        "ity"
      ],
      [
        "il",
        "t"
      ],
      [
        "Ġtra",
        "ck"
      ],
      [
        "H",
        "ow"
      ],
      [
        "id",
        "ed"
      ],
      [
        "Ġ1",
        "00"
      ],
      [
        "i",
        "ver"
      ],
      [
        "Ġh",
        "ost"
      ],
      [
        "itt",
        "ed"
      ],
      [
        "Ġtechn",
        "ology"
      ],
      [
        "Ġ1",
        "3"
      ],
      [
        "op",
        "y"
      ],
      [
        "Ġp",
        "ark"
      ],
      [
        "ur",
        "ch"
      ],
      [
        "ur",
        "ity"
      ],
      [
        "am",
        "ent"
      ],
      [
        "Ġan",
        "im"
      ],
      [
        "Ġr",
        "ange"
      ],
      [
        "Ġfe",
        "atures"
      ],
      [
        "Ġp",
        "ub"
      ],
      [
        "Ġd",
        "ue"
      ],
      [
        "Ġask",
        "ed"
      ],
      [
        "Ġval",
        "ue"
      ],
      [
        "at",
        "ors"
      ],
      [
        "Ġc",
        "ra"
      ],
      [
        "Ġe",
        "lect"
      ],
      [
        "ĠS",
        "erv"
      ],
      [
        "Ġan",
        "t"
      ],
      [
        "Ġen",
        "c"
      ],
      [
        "Ġpre",
        "t"
      ],
      [
        "ĠUn",
        "ited"
      ],
      [
        "h",
        "od"
      ],
      [
        "Ġj",
        "o"
      ],
      [
        "Ġw",
        "ait"
      ],
      [
        "Ġp",
        "ort"
      ],
      [
        "an",
        "ks"
      ],
      [
        "our",
        "ces"
      ],
      [
        "Ġrec",
        "omm"
      ],
      [
        "Ġph",
        "ys"
      ],
      [
        "led",
        "ge"
      ],
      [
        "Ġbre",
        "ak"
      ],
      [
        "Ġhist",
        "ory"
      ],
      [
        "Ġrecomm",
        "end"
      ],
      [
        "c",
        "ri"
      ],
      [
        "ĠS",
        "y"
      ],
      [
        "gg",
        "est"
      ],
      [
        "Ġide",
        "a"
      ],
      [
        "Ġa",
        "ge"
      ],
      [
        "Ġg",
        "ra"
      ],
      [
        "g",
        "th"
      ],
      [
        "Ġcan",
        "not"
      ],
      [
        "Ġsing",
        "le"
      ],
      [
        "ed",
        "s"
      ],
      [
        "id",
        "ence"
      ],
      [
        "ĠM",
        "e"
      ],
      [
        "Ġadd",
        "ress"
      ],
      [
        "g",
        "ress"
      ],
      [
        "p",
        "ly"
      ],
      [
        "Ġs",
        "ize"
      ],
      [
        "Ġre",
        "pl"
      ],
      [
        "Ġmin",
        "utes"
      ],
      [
        "Ġm",
        "ess"
      ],
      [
        "ific",
        "ation"
      ],
      [
        "c",
        "ome"
      ],
      [
        "ir",
        "t"
      ],
      [
        "Ġlike",
        "ly"
      ],
      [
        "Ġperform",
        "ance"
      ],
      [
        "m",
        "b"
      ],
      [
        "Ġb",
        "ra"
      ],
      [
        "ĠM",
        "c"
      ],
      [
        "1",
        "5"
      ],
      [
        "Ġb",
        "all"
      ],
      [
        "Ġdisc",
        "uss"
      ],
      [
        "I",
        "T"
      ],
      [
        "he",
        "ad"
      ],
      [
        "ic",
        "ro"
      ],
      [
        "ĠB",
        "o"
      ],
      [
        "Ġr",
        "ate"
      ],
      [
        "Ġper",
        "iod"
      ],
      [
        "a",
        "pt"
      ],
      [
        "Ġc",
        "red"
      ],
      [
        "ver",
        "t"
      ],
      [
        "Ġsim",
        "ple"
      ],
      [
        "is",
        "on"
      ],
      [
        "2",
        "5"
      ],
      [
        "ĠM",
        "in"
      ],
      [
        "Ġprob",
        "ably"
      ],
      [
        "g",
        "o"
      ],
      [
        "Ġoff",
        "ers"
      ],
      [
        "ious",
        "ly"
      ],
      [
        "C",
        "h"
      ],
      [
        "w",
        "here"
      ],
      [
        "in",
        "o"
      ],
      [
        "Ġm",
        "ot"
      ],
      [
        "Ġal",
        "most"
      ],
      [
        "Ġs",
        "ent"
      ],
      [
        "Ġse",
        "arch"
      ],
      [
        "Ġbl",
        "og"
      ],
      [
        "ĠHow",
        "ever"
      ],
      [
        "ĠP",
        "art"
      ],
      [
        "Ġpol",
        "it"
      ],
      [
        "Ġresult",
        "s"
      ],
      [
        "Ġel",
        "se"
      ],
      [
        "Ġex",
        "c"
      ],
      [
        "Ġser",
        "ies"
      ],
      [
        "Ġcharact",
        "er"
      ],
      [
        "Ġto",
        "ol"
      ],
      [
        "Ġr",
        "isk"
      ],
      [
        "Ġhow",
        "ever"
      ],
      [
        "Ġevery",
        "one"
      ],
      [
        "Ġf",
        "ail"
      ],
      [
        "ĠO",
        "ur"
      ],
      [
        "Ġqu",
        "ite"
      ],
      [
        "Ġspe",
        "nd"
      ],
      [
        "Ġpret",
        "ty"
      ],
      [
        "Ġ",
        "/"
      ],
      [
        "is",
        "c"
      ],
      [
        "Ġre",
        "nt"
      ],
      [
        "ĠA",
        "ust"
      ],
      [
        "pe",
        "cially"
      ],
      [
        "Ġa",
        "ud"
      ],
      [
        "Ġl",
        "iving"
      ],
      [
        "im",
        "ate"
      ],
      [
        "ch",
        "ie"
      ],
      [
        "I",
        "D"
      ],
      [
        "et",
        "er"
      ],
      [
        "Ġbeh",
        "ind"
      ],
      [
        "fic",
        "ult"
      ],
      [
        "Ġwe",
        "b"
      ],
      [
        "Ġse",
        "lf"
      ],
      [
        "Ġcons",
        "ider"
      ],
      [
        "Ġcustom",
        "ers"
      ],
      [
        "Ġiss",
        "ues"
      ],
      [
        "A",
        "L"
      ],
      [
        "Ġh",
        "on"
      ],
      [
        "ĠT",
        "w"
      ],
      [
        "Ġcon",
        "cer"
      ],
      [
        "um",
        "b"
      ],
      [
        "ĠG",
        "u"
      ],
      [
        "itt",
        "en"
      ],
      [
        "âĢ¢",
        "âĢ¢"
      ],
      [
        "Ġsa",
        "w"
      ],
      [
        "Ġcons",
        "um"
      ],
      [
        "I",
        "C"
      ],
      [
        "Ġst",
        "at"
      ],
      [
        "i",
        "ally"
      ],
      [
        "Ġr",
        "ather"
      ],
      [
        "Ġtra",
        "il"
      ],
      [
        "Ġpoint",
        "s"
      ],
      [
        "Ġf",
        "all"
      ],
      [
        "ĠA",
        "b"
      ],
      [
        "ĠG",
        "l"
      ],
      [
        "Ġab",
        "s"
      ],
      [
        "Ġpr",
        "int"
      ],
      [
        "Ġtry",
        "ing"
      ],
      [
        "a",
        "ction"
      ],
      [
        "ĠP",
        "ark"
      ],
      [
        "un",
        "g"
      ],
      [
        "ive",
        "ly"
      ],
      [
        "Ġen",
        "er"
      ],
      [
        "p",
        "ut"
      ],
      [
        "u",
        "ation"
      ],
      [
        "ĠP",
        "res"
      ],
      [
        "-",
        "-"
      ],
      [
        "O",
        "S"
      ],
      [
        "a",
        "f"
      ],
      [
        "Ġcom",
        "ing"
      ],
      [
        "Ġcomm",
        "on"
      ],
      [
        "re",
        "w"
      ],
      [
        "ri",
        "ed"
      ],
      [
        "Ġnot",
        "hing"
      ],
      [
        "Ġent",
        "ire"
      ],
      [
        "y",
        "ear"
      ],
      [
        "ĠI",
        "m"
      ],
      [
        "Ġde",
        "l"
      ],
      [
        "Ġsu",
        "ggest"
      ],
      [
        "Ġacc",
        "ording"
      ],
      [
        "Ġdif",
        "ficult"
      ],
      [
        "Ġbuild",
        "ing"
      ],
      [
        "Ġw",
        "ond"
      ],
      [
        "Ġf",
        "urther"
      ],
      [
        "ĠO",
        "ct"
      ],
      [
        "Ġrun",
        "ning"
      ],
      [
        "Ġeduc",
        "ation"
      ],
      [
        "m",
        "it"
      ],
      [
        "ain",
        "ed"
      ],
      [
        "pl",
        "es"
      ],
      [
        "Ġrequ",
        "ired"
      ],
      [
        "Ġcontin",
        "ue"
      ],
      [
        "Ġb",
        "rand"
      ],
      [
        "an",
        "cial"
      ],
      [
        "ĠT",
        "H"
      ],
      [
        "ci",
        "ence"
      ],
      [
        "Ġ201",
        "1"
      ],
      [
        "ĠP",
        "ar"
      ],
      [
        "oo",
        "gle"
      ],
      [
        "Ġv",
        "i"
      ],
      [
        "Ġfin",
        "al"
      ],
      [
        "Ġsim",
        "ilar"
      ],
      [
        "Ġprovid",
        "ed"
      ],
      [
        "ĠS",
        "chool"
      ],
      [
        "ĠC",
        "he"
      ],
      [
        "un",
        "ities"
      ],
      [
        "Ġoff",
        "ice"
      ],
      [
        "Ġpartic",
        "ip"
      ],
      [
        "Ã",
        "©"
      ],
      [
        "pe",
        "cted"
      ],
      [
        "ĠEuro",
        "pe"
      ],
      [
        "Ġt",
        "aking"
      ],
      [
        "Ġcomp",
        "anies"
      ],
      [
        "Ġwant",
        "ed"
      ],
      [
        "Ġn",
        "ice"
      ],
      [
        "n",
        "es"
      ],
      [
        "Ð",
        "¾"
      ],
      [
        "Ġm",
        "ag"
      ],
      [
        "ĠP",
        "er"
      ],
      [
        "ag",
        "ing"
      ],
      [
        "Ġac",
        "cept"
      ],
      [
        "u",
        "ge"
      ],
      [
        "ur",
        "ance"
      ],
      [
        "Ġhe",
        "ld"
      ],
      [
        "Ġph",
        "one"
      ],
      [
        "Ġmed",
        "ia"
      ],
      [
        "Ġquest",
        "ions"
      ],
      [
        "Ġw",
        "ar"
      ],
      [
        "Ġde",
        "ath"
      ],
      [
        "ag",
        "ue"
      ],
      [
        "Ġbl",
        "ood"
      ],
      [
        "Ġsign",
        "ific"
      ],
      [
        "Ġsoft",
        "ware"
      ],
      [
        "ĠT",
        "ra"
      ],
      [
        "if",
        "ul"
      ],
      [
        "b",
        "it"
      ],
      [
        "ĠJ",
        "an"
      ],
      [
        "Ġev",
        "ents"
      ],
      [
        "u",
        "f"
      ],
      [
        "Ġse",
        "ems"
      ],
      [
        "Ġplay",
        "ers"
      ],
      [
        "ĠSe",
        "c"
      ],
      [
        "Ġhig",
        "her"
      ],
      [
        "Ġmod",
        "el"
      ],
      [
        "Ġf",
        "oot"
      ],
      [
        "Ġst",
        "op"
      ],
      [
        "Ġse",
        "x"
      ],
      [
        "Ġc",
        "rit"
      ],
      [
        "Ġm",
        "iss"
      ],
      [
        "Ġl",
        "og"
      ],
      [
        "ear",
        "ch"
      ],
      [
        "Ġneed",
        "ed"
      ],
      [
        "P",
        "h"
      ],
      [
        "i",
        "res"
      ],
      [
        "Ġp",
        "ric"
      ],
      [
        "ĠC",
        "or"
      ],
      [
        "am",
        "a"
      ],
      [
        "Ġse",
        "le"
      ],
      [
        "h",
        "ib"
      ],
      [
        "Ġc",
        "ard"
      ],
      [
        "Ġadd",
        "ed"
      ],
      [
        "pr",
        "il"
      ],
      [
        "ĠCent",
        "er"
      ],
      [
        "Ġm",
        "atter"
      ],
      [
        "ĠH",
        "ar"
      ],
      [
        "ĠG",
        "r"
      ],
      [
        "ĠSt",
        "ates"
      ],
      [
        "Ġrel",
        "ations"
      ],
      [
        "Ġatt",
        "ack"
      ],
      [
        "1",
        "8"
      ],
      [
        "v",
        "al"
      ],
      [
        "Ġt",
        "ou"
      ],
      [
        "Ġr",
        "ound"
      ],
      [
        "Ġimp",
        "act"
      ],
      [
        "em",
        "pt"
      ],
      [
        "A",
        "S"
      ],
      [
        "Ġ",
        "ess"
      ],
      [
        "ĠS",
        "m"
      ],
      [
        "ĠF",
        "ace"
      ],
      [
        "ĠG",
        "o"
      ],
      [
        "Ġup",
        "on"
      ],
      [
        "Ġext",
        "ra"
      ],
      [
        "Ġd",
        "am"
      ],
      [
        "Ġl",
        "and"
      ],
      [
        "ĠM",
        "ark"
      ],
      [
        "Ġs",
        "le"
      ],
      [
        "Ġg",
        "round"
      ],
      [
        "Ġbl",
        "ack"
      ],
      [
        "Ġprovid",
        "es"
      ],
      [
        "Ġrece",
        "ive"
      ],
      [
        "ĠAmeric",
        "a"
      ],
      [
        "C",
        "T"
      ],
      [
        "r",
        "ight"
      ],
      [
        "ĠA",
        "fter"
      ],
      [
        "il",
        "i"
      ],
      [
        "Ġc",
        "ook"
      ],
      [
        "Ġex",
        "ist"
      ],
      [
        "um",
        "e"
      ],
      [
        "Ġdo",
        "cu"
      ],
      [
        "ob",
        "al"
      ],
      [
        "att",
        "le"
      ],
      [
        "Ġrece",
        "ived"
      ],
      [
        "Ġmet",
        "hod"
      ],
      [
        "a",
        "ur"
      ],
      [
        "re",
        "l"
      ],
      [
        "et",
        "h"
      ],
      [
        "Ð",
        "µ"
      ],
      [
        "Ġan",
        "sw"
      ],
      [
        "ab",
        "les"
      ],
      [
        "Ġvar",
        "ious"
      ],
      [
        "ĠWor",
        "ld"
      ],
      [
        "Ġc",
        "ell"
      ],
      [
        "ang",
        "u"
      ],
      [
        "Ġmem",
        "ber"
      ],
      [
        "s",
        "y"
      ],
      [
        "Ġ",
        "ut"
      ],
      [
        "Ġt",
        "it"
      ],
      [
        "ar",
        "get"
      ],
      [
        "ast",
        "ic"
      ],
      [
        "Ġup",
        "d"
      ],
      [
        "Ġrequ",
        "est"
      ],
      [
        "Ġiss",
        "ue"
      ],
      [
        "Ġproper",
        "ty"
      ],
      [
        "ĠK",
        "e"
      ],
      [
        "Ġimpro",
        "ve"
      ],
      [
        "le",
        "x"
      ],
      [
        "Ġcl",
        "ick"
      ],
      [
        "2",
        "2"
      ],
      [
        "Ġf",
        "ast"
      ],
      [
        "Ġs",
        "we"
      ],
      [
        "it",
        "ing"
      ],
      [
        "it",
        "ch"
      ],
      [
        "ĠD",
        "ep"
      ],
      [
        "ab",
        "y"
      ],
      [
        "1",
        "4"
      ],
      [
        "T",
        "o"
      ],
      [
        "om",
        "es"
      ],
      [
        "ĠE",
        "d"
      ],
      [
        "Ġgener",
        "al"
      ],
      [
        "Ġs",
        "qu"
      ],
      [
        "Ġo",
        "il"
      ],
      [
        "Ġin",
        "it"
      ],
      [
        "ĠH",
        "is"
      ],
      [
        "ord",
        "s"
      ],
      [
        "itt",
        "ing"
      ],
      [
        "A",
        "l"
      ],
      [
        "iv",
        "al"
      ],
      [
        "ib",
        "r"
      ],
      [
        "Ġpart",
        "y"
      ],
      [
        "ru",
        "g"
      ],
      [
        "ru",
        "ction"
      ],
      [
        "Ġtot",
        "al"
      ],
      [
        "Ġo",
        "pp"
      ],
      [
        "ĠD",
        "es"
      ],
      [
        "Ġde",
        "fe"
      ],
      [
        "Ġne",
        "cess"
      ],
      [
        "ĠG",
        "e"
      ],
      [
        "O",
        "U"
      ],
      [
        "i",
        "pping"
      ],
      [
        "n",
        "a"
      ],
      [
        "is",
        "es"
      ],
      [
        "ul",
        "es"
      ],
      [
        "ri",
        "e"
      ],
      [
        "Ġso",
        "on"
      ],
      [
        "ob",
        "ile"
      ],
      [
        "Ġcomm",
        "unic"
      ],
      [
        "Ġdet",
        "erm"
      ],
      [
        "Ġty",
        "pe"
      ],
      [
        "min",
        "ist"
      ],
      [
        "Ġet",
        "c"
      ],
      [
        "r",
        "ing"
      ],
      [
        "Ġse",
        "nd"
      ],
      [
        "Ġinclud",
        "es"
      ],
      [
        "re",
        "g"
      ],
      [
        "Ġst",
        "aff"
      ],
      [
        "Ġshow",
        "s"
      ],
      [
        "Ġsignific",
        "ant"
      ],
      [
        "g",
        "est"
      ],
      [
        "Ġbo",
        "x"
      ],
      [
        "Ġpos",
        "ition"
      ],
      [
        "Ġs",
        "ong"
      ],
      [
        "Ġf",
        "ire"
      ],
      [
        "Ġro",
        "ad"
      ],
      [
        "Ġword",
        "s"
      ],
      [
        "Ġ",
        "*"
      ],
      [
        "Ġf",
        "it"
      ],
      [
        "Ġl",
        "ic"
      ],
      [
        "ie",
        "f"
      ],
      [
        "Ġrec",
        "ogn"
      ],
      [
        "ĠQ",
        "u"
      ],
      [
        "Ġl",
        "oss"
      ],
      [
        "ĠS",
        "pe"
      ],
      [
        "Ġis",
        "n"
      ],
      [
        "Ġfor",
        "ward"
      ],
      [
        "Ġk",
        "ids"
      ],
      [
        "ĠAs",
        "soci"
      ],
      [
        "Ġterm",
        "s"
      ],
      [
        "uf",
        "act"
      ],
      [
        "res",
        "h"
      ],
      [
        "Ġag",
        "ree"
      ],
      [
        "Ġcurrent",
        "ly"
      ],
      [
        "8",
        "0"
      ],
      [
        "Ġass",
        "ist"
      ],
      [
        "Ġann",
        "oun"
      ],
      [
        "ent",
        "al"
      ],
      [
        "ad",
        "a"
      ],
      [
        "pp",
        "er"
      ],
      [
        "el",
        "t"
      ],
      [
        "Ġco",
        "ver"
      ],
      [
        "Ġsim",
        "ply"
      ],
      [
        "med",
        "i"
      ],
      [
        "Ġprofess",
        "ional"
      ],
      [
        "Ġes",
        "pecially"
      ],
      [
        "Ġener",
        "gy"
      ],
      [
        "Ġcom",
        "fort"
      ],
      [
        "ed",
        "eral"
      ],
      [
        "am",
        "ed"
      ],
      [
        "ĠB",
        "y"
      ],
      [
        "ĠN",
        "ow"
      ],
      [
        "Ġte",
        "xt"
      ],
      [
        "Ġoffic",
        "ial"
      ],
      [
        "'",
        "d"
      ],
      [
        "Ġst",
        "ri"
      ],
      [
        "ĠG",
        "oogle"
      ],
      [
        "ĠS",
        "outh"
      ],
      [
        "Ġit",
        "ems"
      ],
      [
        "ĠP",
        "e"
      ],
      [
        "ĠJ",
        "ust"
      ],
      [
        "ĠU",
        "s"
      ],
      [
        "ip",
        "ment"
      ],
      [
        "Ġtr",
        "ue"
      ],
      [
        "Ġhand",
        "s"
      ],
      [
        "Ġart",
        "icle"
      ],
      [
        "Ġdetail",
        "s"
      ],
      [
        "Ġwrit",
        "ing"
      ],
      [
        "if",
        "f"
      ],
      [
        "ĠD",
        "av"
      ],
      [
        "Ġwas",
        "n"
      ],
      [
        "ist",
        "ic"
      ],
      [
        "Ġprogram",
        "s"
      ],
      [
        "Ġgr",
        "ad"
      ],
      [
        "Ġsal",
        "es"
      ],
      [
        "Ġd",
        "ig"
      ],
      [
        "Ġde",
        "b"
      ],
      [
        "Ġun",
        "ique"
      ],
      [
        "ĠCal",
        "if"
      ],
      [
        "Ġorig",
        "inal"
      ],
      [
        "y",
        "n"
      ],
      [
        "ĠP",
        "ol"
      ],
      [
        "1",
        "7"
      ],
      [
        "Ġa",
        "chie"
      ],
      [
        "an",
        "ced"
      ],
      [
        "Ġind",
        "ic"
      ],
      [
        "Ġbo",
        "ard"
      ],
      [
        "l",
        "t"
      ],
      [
        "Ġst",
        "e"
      ],
      [
        "Ġest",
        "ab"
      ],
      [
        "ĠM",
        "ore"
      ],
      [
        "Ġwh",
        "ite"
      ],
      [
        "ci",
        "ety"
      ],
      [
        "Ġany",
        "one"
      ],
      [
        "Ġrec",
        "ent"
      ],
      [
        "Ġrec",
        "ently"
      ],
      [
        "Ġdes",
        "crib"
      ],
      [
        "Ġhapp",
        "y"
      ],
      [
        "m",
        "y"
      ],
      [
        "ci",
        "ent"
      ],
      [
        "Ġreg",
        "ard"
      ],
      [
        "Ġd",
        "ate"
      ],
      [
        "Ġcont",
        "ract"
      ],
      [
        "e",
        "es"
      ],
      [
        "ĠH",
        "igh"
      ],
      [
        "Ġchang",
        "es"
      ],
      [
        "1",
        "6"
      ],
      [
        "Ġf",
        "ig"
      ],
      [
        "Ġp",
        "arent"
      ],
      [
        "Ġh",
        "y"
      ],
      [
        "Ġsh",
        "o"
      ],
      [
        "Ġthrough",
        "out"
      ],
      [
        "Ġs",
        "us"
      ],
      [
        "Ġn",
        "orm"
      ],
      [
        "ad",
        "em"
      ],
      [
        "Ġex",
        "pect"
      ],
      [
        "Ġaddition",
        "al"
      ],
      [
        "Ġ",
        ","
      ],
      [
        "re",
        "me"
      ],
      [
        "Ġw",
        "ide"
      ],
      [
        "Ġw",
        "ays"
      ],
      [
        "as",
        "k"
      ],
      [
        "Ġv",
        "ict"
      ],
      [
        "Ġus",
        "ually"
      ],
      [
        "Ġtra",
        "vel"
      ],
      [
        "Ġsk",
        "in"
      ],
      [
        "Ġnet",
        "work"
      ],
      [
        "Ġch",
        "oose"
      ],
      [
        "Ġn",
        "atural"
      ],
      [
        "ĠS",
        "er"
      ],
      [
        "ĠJ",
        "une"
      ],
      [
        "Ġpop",
        "ular"
      ],
      [
        "Ġpa",
        "per"
      ],
      [
        "Ġrelations",
        "hip"
      ],
      [
        "ĠFace",
        "book"
      ],
      [
        "b",
        "ased"
      ],
      [
        "Ġ",
        "ill"
      ],
      [
        "ou",
        "d"
      ],
      [
        "Ġb",
        "al"
      ],
      [
        "Ġin",
        "j"
      ],
      [
        "Ġst",
        "ra"
      ],
      [
        "Ġbeaut",
        "iful"
      ],
      [
        "ar",
        "ter"
      ],
      [
        "Ġexper",
        "ien"
      ],
      [
        "Ġdef",
        "in"
      ],
      [
        "Ġeng",
        "ine"
      ],
      [
        "Ġfavor",
        "ite"
      ],
      [
        "Ġ",
        "#"
      ],
      [
        "an",
        "c"
      ],
      [
        "Ġtra",
        "ining"
      ],
      [
        "Ġrep",
        "resent"
      ],
      [
        "Ġwee",
        "ks"
      ],
      [
        "Ġcou",
        "ple"
      ],
      [
        "o",
        "le"
      ],
      [
        "Ġt",
        "akes"
      ],
      [
        "Ġo",
        "bs"
      ],
      [
        "ĠA",
        "pril"
      ],
      [
        "Ġcl",
        "os"
      ],
      [
        "ĠIn",
        "c"
      ],
      [
        "ĠEng",
        "lish"
      ],
      [
        "o",
        "ber"
      ],
      [
        "Ġex",
        "cept"
      ],
      [
        "ition",
        "al"
      ],
      [
        "Ġt",
        "able"
      ],
      [
        "Ġproblem",
        "s"
      ],
      [
        "Ġopport",
        "unity"
      ],
      [
        "Ġvers",
        "ion"
      ],
      [
        "or",
        "ing"
      ],
      [
        "ud",
        "e"
      ],
      [
        "ĠCount",
        "y"
      ],
      [
        "O",
        "T"
      ],
      [
        "ĠH",
        "ouse"
      ],
      [
        "iz",
        "ing"
      ],
      [
        "av",
        "ing"
      ],
      [
        ")",
        "||"
      ],
      [
        "Ġs",
        "ens"
      ],
      [
        "Ġn",
        "ational"
      ],
      [
        "Ġ4",
        "0"
      ],
      [
        "Ġpress",
        "ure"
      ],
      [
        "Ġp",
        "ict"
      ],
      [
        "ĠD",
        "on"
      ],
      [
        "ĠE",
        "m"
      ],
      [
        "Ġfe",
        "ature"
      ],
      [
        "ĠWe",
        "b"
      ],
      [
        "o",
        "id"
      ],
      [
        "Ġs",
        "at"
      ],
      [
        "Ġd",
        "om"
      ],
      [
        "ĠW",
        "ar"
      ],
      [
        "Ġ2",
        "1"
      ],
      [
        "Ġex",
        "am"
      ],
      [
        "ĠCol",
        "le"
      ],
      [
        "Ġb",
        "ase"
      ],
      [
        "Ġas",
        "soci"
      ],
      [
        "ĠE",
        "l"
      ],
      [
        "Ġ201",
        "7"
      ],
      [
        "atur",
        "day"
      ],
      [
        "Ġens",
        "ure"
      ],
      [
        "at",
        "est"
      ],
      [
        "Ġp",
        "le"
      ],
      [
        "Ġl",
        "ost"
      ],
      [
        "Ġwor",
        "th"
      ],
      [
        "Ġlead",
        "ers"
      ],
      [
        "Ġinf",
        "l"
      ],
      [
        "ĠPres",
        "ident"
      ],
      [
        "g",
        "ree"
      ],
      [
        "ĠS",
        "ome"
      ],
      [
        "ĠD",
        "r"
      ],
      [
        "op",
        "s"
      ],
      [
        "Ġpre",
        "p"
      ],
      [
        "ĠRe",
        "g"
      ],
      [
        "Th",
        "at"
      ],
      [
        "Ġplay",
        "er"
      ],
      [
        "orn",
        "ia"
      ],
      [
        "Ġincre",
        "ase"
      ],
      [
        "Ġmor",
        "ning"
      ],
      [
        "Ġd",
        "ire"
      ],
      [
        "Ġh",
        "tt"
      ],
      [
        "Ġl",
        "ate"
      ],
      [
        "ĠB",
        "ar"
      ],
      [
        "Ġch",
        "ance"
      ],
      [
        "Ġem",
        "b"
      ],
      [
        "Ġmom",
        "ent"
      ],
      [
        "4",
        "0"
      ],
      [
        "Ġs",
        "ense"
      ],
      [
        "ou",
        "ra"
      ],
      [
        "ĠN",
        "orth"
      ],
      [
        "cl",
        "us"
      ],
      [
        "Ġthem",
        "selves"
      ],
      [
        "IN",
        "G"
      ],
      [
        "Ġb",
        "ed"
      ],
      [
        "Ġl",
        "it"
      ],
      [
        "ĠA",
        "ct"
      ],
      [
        "ĠP",
        "at"
      ],
      [
        "art",
        "ment"
      ],
      [
        "Ġlong",
        "er"
      ],
      [
        "bo",
        "ard"
      ],
      [
        "h",
        "ood"
      ],
      [
        "ur",
        "g"
      ],
      [
        "Ġ201",
        "0"
      ],
      [
        "Ġind",
        "e"
      ],
      [
        "Ġcol",
        "or"
      ],
      [
        "Ġdec",
        "ision"
      ],
      [
        "Ġcour",
        "t"
      ],
      [
        "i",
        "et"
      ],
      [
        "Ġf",
        "air"
      ],
      [
        "Ġh",
        "it"
      ],
      [
        "Ġyour",
        "self"
      ],
      [
        "Ġro",
        "ll"
      ],
      [
        "a",
        "ign"
      ],
      [
        "a",
        "ily"
      ],
      [
        "Ġw",
        "all"
      ],
      [
        "Ġin",
        "n"
      ],
      [
        "Ġg",
        "old"
      ],
      [
        "Ġle",
        "ave"
      ],
      [
        "Ġpriv",
        "ate"
      ],
      [
        "Ġreg",
        "ular"
      ],
      [
        "Ġstand",
        "ard"
      ],
      [
        "at",
        "ory"
      ],
      [
        "ain",
        "ing"
      ],
      [
        "Ġdesign",
        "ed"
      ],
      [
        "Ġopt",
        "ions"
      ],
      [
        "g",
        "round"
      ],
      [
        "Ġl",
        "ay"
      ],
      [
        "ĠA",
        "f"
      ],
      [
        "ĠF",
        "in"
      ],
      [
        "Ġpol",
        "icy"
      ],
      [
        "A",
        "M"
      ],
      [
        "h",
        "aps"
      ],
      [
        "Ġa",
        "ction"
      ],
      [
        "Ġf",
        "a"
      ],
      [
        "ĠM",
        "arch"
      ],
      [
        "Ġpro",
        "pos"
      ],
      [
        "ĠN",
        "et"
      ],
      [
        "Ġspe",
        "ak"
      ],
      [
        "Ġsc",
        "reen"
      ],
      [
        "Ġ",
        "x"
      ],
      [
        "ĠD",
        "ay"
      ],
      [
        "Ġlevel",
        "s"
      ],
      [
        "1",
        "3"
      ],
      [
        "ad",
        "es"
      ],
      [
        "ir",
        "it"
      ],
      [
        "Ġne",
        "g"
      ],
      [
        "Ġcre",
        "ated"
      ],
      [
        "ec",
        "ut"
      ],
      [
        "Ġsa",
        "fe"
      ],
      [
        "Ġplay",
        "ing"
      ],
      [
        "Ġquick",
        "ly"
      ],
      [
        "ach",
        "ing"
      ],
      [
        "az",
        "ing"
      ],
      [
        "ĠCalif",
        "ornia"
      ],
      [
        "O",
        "M"
      ],
      [
        "es",
        "e"
      ],
      [
        "Ġat",
        "tend"
      ],
      [
        "Ġsa",
        "f"
      ],
      [
        "Ġo",
        "p"
      ],
      [
        "Ġc",
        "ases"
      ],
      [
        "Ġsec",
        "urity"
      ],
      [
        "Ġread",
        "y"
      ],
      [
        "v",
        "ille"
      ],
      [
        "Ġp",
        "red"
      ],
      [
        "ĠI",
        "nt"
      ],
      [
        "Ġle",
        "ar"
      ],
      [
        "Ġout",
        "side"
      ],
      [
        "ĠAust",
        "ral"
      ],
      [
        "W",
        "ith"
      ],
      [
        "in",
        "ary"
      ],
      [
        "Ġf",
        "irm"
      ],
      [
        "ĠO",
        "ff"
      ],
      [
        "Ġve",
        "h"
      ],
      [
        "z",
        "e"
      ],
      [
        "al",
        "ys"
      ],
      [
        "ess",
        "ion"
      ],
      [
        "Ġco",
        "ll"
      ],
      [
        "idd",
        "le"
      ],
      [
        "A",
        "C"
      ],
      [
        "us",
        "iness"
      ],
      [
        "ĠSt",
        "ud"
      ],
      [
        "Ġwork",
        "ed"
      ],
      [
        "Ġprodu",
        "ction"
      ],
      [
        "Ġrel",
        "ated"
      ],
      [
        "Ġins",
        "ide"
      ],
      [
        "Ġt",
        "arget"
      ],
      [
        "Ġactiv",
        "ities"
      ],
      [
        "9",
        "9"
      ],
      [
        "u",
        "ary"
      ],
      [
        "Ġa",
        "w"
      ],
      [
        "Ġb",
        "ott"
      ],
      [
        "ough",
        "t"
      ],
      [
        "Ġlook",
        "s"
      ],
      [
        "ĠSe",
        "pt"
      ],
      [
        "Ġgrow",
        "th"
      ],
      [
        "er",
        "ve"
      ],
      [
        "du",
        "ct"
      ],
      [
        "Ġco",
        "ol"
      ],
      [
        "Ġcost",
        "s"
      ],
      [
        "Ġapplic",
        "ation"
      ],
      [
        "Ġvi",
[...]
