{
  "version": "1.0",
  "truncation": null,
  "padding": null,
  "added_tokens": [
    {
      "id": 0,
      "content": "<|endoftext|>",
      "single_word": false,
      "lstrip": false,
      "rstrip": false,
      "normalized": false,
      "special": true
    }
  ],
  "normalizer": null,
  "pre_tokenizer": {
    "type": "ByteLevel",
    "add_prefix_space": false,
    "trim_offsets": true,
    "use_regex": true
  },
  "post_processor": null,
  "decoder": {
    "type": "ByteLevel",
    "add_prefix_space": true,
    "trim_offsets": true,
    "use_regex": true
  },
  "model": {
    "type": "BPE",
    "dropout": null,
    "unk_token": null,
    "continuing_subword_prefix": null,
    "end_of_word_suffix": null,
    "fuse_unk": false,
    "byte_fallback": false,
    "ignore_merges": false,
    "vocab": {
      "<|endoftext|>": 0,
      "!": 1,
      "\"": 2,
      "#": 3,
      "$": 4,
      "%": 5,
      "&": 6,
      "'": 7,
      "(": 8,
      ")": 9,
      "*": 10,
      "+": 11,
      ",": 12,
      "-": 13,
      ".": 14,
      "/": 15,
      "0": 16,
      "1": 17,
      "2": 18,
      "3": 19,
      "4": 20,
      "5": 21,
      "6": 22,
      "7": 23,
      "8": 24,
      "9": 25,
      ":": 26,
      ";": 27,
      "<": 28,
      "=": 29,
      ">": 30,
      "?": 31,
      "@": 32,
      "A": 33,
      "B": 34,
      "C": 35,
      "D": 36,
      "E": 37,
      "F": 38,
      "G": 39,
      "H": 40,
      "I": 41,
      "J": 42,
      "K": 43,
      "L": 44,
      "M": 45,
      "N": 46,
      "O": 47,
      "P": 48,
      "Q": 49,
      "R": 50,
      "S": 51,
      "T": 52,
      "U": 53,
      "V": 54,
      "W": 55,
      "X": 56,
      "Y": 57,
      "Z": 58,
      "[": 59,
      "\\": 60,
      "]": 61,
      "^": 62,
      "_": 63,
      "`": 64,
      "a": 65,
      "b": 66,
      "c": 67,
      "d": 68,
      "e": 69,
      "f": 70,
      "g": 71,
      "h": 72,
      "i": 73,
      "j": 74,
      "k": 75,
      "l": 76,
      "m": 77,
      "n": 78,
      "o": 79,
      "p": 80,
      "q": 81,
      "r": 82,
      "s": 83,
      "t": 84,
      "u": 85,
      "v": 86,
      "w": 87,
      "x": 88,
      "y": 89,
      "z": 90,
      "|": 91,
      "}": 92,
      "~": 93,
      "¡": 94,
      "¢": 95,
      "£": 96,
      "¤": 97,
      "¥": 98,
      "¦": 99,
      "§": 100,
      "¨": 101,
      "©": 102,
      "ª": 103,
      "«": 104,
      "¬": 105,
      "®": 106,
      "¯": 107,
      "°": 108,
      "±": 109,
      "²": 110,
      "³": 111,
      "´": 112,
      "µ": 113,
      "¶": 114,
      "·": 115,
      "¸": 116,
      "¹": 117,
      "º": 118,
      "»": 119,
      "¼": 120,
      "½": 121,
      "¾": 122,
      "¿": 123,
      "Â": 124,
      "Ã": 125,
      "Ä": 126,
      "Å": 127,
      "Æ": 128,
      "Ç": 129,
      "È": 130,
      "É": 131,
      "Ê": 132,
      "Ë": 133,
      "Ì": 134,
      "Î": 135,
      "Ï": 136,
      "Ð": 137,
      "Ñ": 138,
      "Ò": 139,
      "Ô": 140,
      "Ö": 141,
      "×": 142,
      "Ø": 143,
      "Ù": 144,
      "Ú": 145,
      "Û": 146,
      "à": 147,
      "á": 148,
      "â": 149,
      "ã": 150,
      "ä": 151,
      "å": 152,
      "æ": 153,
      "ç": 154,
      "è": 155,
      "é": 156,
      "ê": 157,
      "ë": 158,
      "ì": 159,
      "í": 160,
      "ï": 161,
      "ð": 162,
      "Ċ": 163,
      "Ġ": 164,
      "Ģ": 165,
      "ģ": 166,
      "Ĥ": 167,
      "ĥ": 168,
      "Ħ": 169,
      "ħ": 170,
      "Ĩ": 171,
      "ĩ": 172,
      "Ī": 173,
      "ī": 174,
      "Ĭ": 175,
      "ĭ": 176,
      "Į": 177,
      "į": 178,
      "İ": 179,
      "ı": 180,
      "Ĳ": 181,
      "ĳ": 182,
      "Ĵ": 183,
      "ĵ": 184,
      "Ķ": 185,
      "ķ": 186,
      "ĸ": 187,
      "Ĺ": 188,
      "ĺ": 189,
      "Ļ": 190,
      "ļ": 191,
      "Ľ": 192,
      "ľ": 193,
      "Ŀ": 194,
      "ŀ": 195,
      "Ł": 196,
      "ł": 197,
      "Ń": 198,
      "Ġt": 199,
      "Ġa": 200,
      "in": 201,
      "he": 202,
      "re": 203,
      "on": 204,
      "Ġthe": 205,
      "er": 206,
      "Ġs": 207,
      "Ġw": 208,
      "at": 209,
      "Ġo": 210,
      "nd": 211,
      "Ġc": 212,
      "it": 213,
      "or": 214,
      "es": 215,
      "is": 216,
      "en": 217,
      "ou": 218,
      "Ġf": 219,
      "Ġb": 220,
      "ing": 221,
      "Ġp": 222,
      "ed": 223,
      "an": 224,
      "al": 225,
      "Ġto": 226,
      "Ġm": 227,
      "ar": 228,
      "Ġand": 229,
      "Ġof": 230,
      "Ġin": 231,
      "Ġd": 232,
      "ic": 233,
      "le": 234,
      "Ġh": 235,
      "as": 236,
      "om": 237,
      "ion": 238,
      "Ġth": 239,
      "âĢ": 240,
      "ll": 241,
      "ent": 242,
      "Ġl": 243,
      "ve": 244,
      "Ġe": 245,
      "st": 246,
      "Ġre": 247,
      "Ġn": 248,
      "ro": 249,
      "Ġy": 250,
      "Ġg": 251,
      "ly": 252,
      "ĠI": 253,
      "ct": 254,
      "Ġbe": 255,
      "ĠT": 256,
      "ut": 257,
      "et": 258,
      "Ġis": 259,
      "ĠS": 260,
      "ot": 261,
      "Ġyou": 262,
      "id": 263,
      "ay": 264,
      "Ġfor": 265,
      "Ġon": 266,
      "ow": 267,
      "ĠA": 268,
      "ur": 269,
      "ĠC": 270,
      "se": 271,
      "im": 272,
      "ce": 273,
      "ig": 274,
      "ad": 275,
      "am": 276,
      "ver": 277,
      "Ġthat": 278,
      "Ġu": 279,
      "ch": 280,
      "il": 281,
      "ation": 282,
      "ith": 283,
      "Ġst": 284,
      "ol": 285,
      "ir": 286,
      "Ġwith": 287,
      "âĢĻ": 288,
      "ĠM": 289,
      "Ġhe": 290,
      "Ġit": 291,
      "ra": 292,
      "Ġwe": 293,
      "ĠB": 294,
      "ĠP": 295,
      "Ġwh": 296,
      "Ġas": 297,
      "Ġan": 298,
      "ers": 299,
      "ill": 300,
      "if": 301,
      "ke": 302,
      "Ġpro": 303,
      "Ġare": 304,
      "ter": 305,
      "Ġha": 306,
      "ĠW": 307,
      "ge": 308,
      "Ġcon": 309,
      "ld": 310,
      "oo": 311,
      "ate": 312,
      "Ġor": 313,
      "her": 314,
      "ĠH": 315,
      "ul": 316,
      "ess": 317,
      "ck": 318,
      "ĠD": 319,
      "pp": 320,
      "Ġat": 321,
      "Ġcom": 322,
      "Ġse": 323,
      "ore": 324,
      "ment": 325,
      "est": 326,
      "ĠF": 327,
      "ĠThe": 328,
      "Ġde": 329,
      "ri": 330,
      "ĠR": 331,
      "Ġ1": 332,
      "us": 333,
      "th": 334,
      "Ġ(": 335,
      "igh": 336,
      "ab": 337,
      "Ġ2": 338,
      "ist": 339,
      "Ġwas": 340,
      "rom": 341,
      "Ġne": 342,
      "pe": 343,
      "un": 344,
      "Ġex": 345,
      "res": 346,
      "ity": 347,
      "ĠL": 348,
      "ive": 349,
      "Ġsu": 350,
      "qu": 351,
      "ant": 352,
      "ĠâĢ": 353,
      "Ġv": 354,
      "op": 355,
      "Ġr": 356,
      "Ġhave": 357,
      "ĠN": 358,
      "em": 359,
      "ĠG": 360,
      "ort": 361,
      "art": 362,
      "ĠE": 363,
      "Ġyour": 364,
      "ain": 365,
      "Ġthis": 366,
      "Ġnot": 367,
      "nt": 368,
      "ust": 369,
      "Ġfrom": 370,
      "Ġsh": 371,
      "um": 372,
      "os": 373,
      "Ġby": 374,
      "ies": 375,
      "el": 376,
      "and": 377,
      "ight": 378,
      "Ġal": 379,
      "Ġch": 380,
      "Ġcan": 381,
      "all": 382,
      "ome": 383,
      "Ġle": 384,
      "ĠO": 385,
      "ie": 386,
      "out": 387,
      "ard": 388,
      "Ġwill": 389,
      "ould": 390,
      "Ġdo": 391,
      "Ġab": 392,
      "our": 393,
      "red": 394,
      "ud": 395,
      "ost": 396,
      "te": 397,
      "ally": 398,
      "iv": 399,
      "00": 400,
      "Ġwor": 401,
      "gh": 402,
      "'s": 403,
      "Ġpl": 404,
      "od": 405,
      "ast": 406,
      "Ġall": 407,
      "ear": 408,
      "rou": 409,
      "ĠJ": 410,
      "ci": 411,
      "Ġj": 412,
      "ide": 413,
      "ak": 414,
      "The": 415,
      "ure": 416,
      "ine": 417,
      "ag": 418,
      "Ġk": 419,
      "fe": 420,
      "Ġhas": 421,
      "pt": 422,
      "Ġso": 423,
      "per": 424,
      "ice": 425,
      "Ġme": 426,
      "âĢĿ": 427,
      "ack": 428,
      "Ġwhe": 429,
      "Ġbut": 430,
      "Ġus": 431,
      "ction": 432,
      "age": 433,
      "Ġcomp": 434,
      "ther": 435,
      "Ġad": 436,
      "ac": 437,
      "Ġout": 438,
      "ich": 439,
      "ook": 440,
      "Ġup": 441,
      "ĠU": 442,
      "ake": 443,
      "Ġthey": 444,
      "one": 445,
      "Ġmore": 446,
      "ind": 447,
      "are": 448,
      "so": 449,
      "Ġen": 450,
      "og": 451,
      "Ġtheir": 452,
      "ry": 453,
      "pl": 454,
      "ong": 455,
      "ated": 456,
      "ime": 457,
      "very": 458,
      "able": 459,
      "Ġte": 460,
      "Ġmy": 461,
      "ood": 462,
      "cc": 463,
      "ous": 464,
      "ans": 465,
      "Ġhis": 466,
      "ite": 467,
      "Ġcl": 468,
      "iz": 469,
      "Ġone": 470,
      "Ġsa": 471,
      "ame": 472,
      "ike": 473,
      "ĠâĢľ": 474,
      "Ġabout": 475,
      "orm": 476,
      "ip": 477,
      "Ġwho": 478,
      "ĠTh": 479,
      "ib": 480,
      "Ġim": 481,
      "ĠIn": 482,
      "Ġcont": 483,
      "Ġour": 484,
      "ions": 485,
      "du": 486,
      "Ġgo": 487,
      "Ġman": 488,
      "ru": 489,
      "Ġinc": 490,
      "Ġ20": 491,
      "ance": 492,
      "ne": 493,
      "Ġwhich": 494,
      "Ġfe": 495,
      "ĠK": 496,
      "oc": 497,
      "ase": 498,
      "ber": 499,
      "ire": 500,
      "ia": 501,
      "act": 502,
      "ĠY": 503,
      "to": 504,
      "Ġres": 505,
      "ff": 506,
      "Ġwork": 507,
      "ays": 508,
      "ail": 509,
      "ree": 510,
      "reat": 511,
      "Ġper": 512,
      "ace": 513,
      "ign": 514,
      "ary": 515,
      "Ġother": 516,
      "ap": 517,
      "ations": 518,
      "Ġapp": 519,
      "ach": 520,
      "ult": 521,
      "ep": 522,
      "ven": 523,
      "ick": 524,
      "..": 525,
      "ass": 526,
      "Ġyear": 527,
      "ub": 528,
      "Ġoff": 529,
      "ue": 530,
      "ĠSt": 531,
      "Ġtime": 532,
      "au": 533,
      "ical": 534,
      "Ġsome": 535,
      "ile": 536,
      "Ġqu": 537,
      "Ġlike": 538,
      "Ġdis": 539,
      "Ġany": 540,
      "Ġalso": 541,
      "now": 542,
      "ount": 543,
      "Ġget": 544,
      "vel": 545,
      "ark": 546,
      "ress": 547,
      "Ġun": 548,
      "ord": 549,
      "Ġnew": 550,
      "ence": 551,
      "form": 552,
      "ĠIt": 553,
      "erv": 554,
      "ings": 555,
      "ĠV": 556,
      "Ġbeen": 557,
      "Ġthem": 558,
      "Ġsp": 559,
      "Ġpart": 560,
      "Ġ\"": 561,
      "Ġ-": 562,
      "Ġthere": 563,
      "Ġpe": 564,
      "Ġhad": 565,
      "Ġ3": 566,
      "Ġwere": 567,
      "ove": 568,
      "Ġag": 569,
      "ose": 570,
      "Ġwhen": 571,
      "ĠCh": 572,
      "ond": 573,
      "ough": 574,
      "ition": 575,
      "Ġover": 576,
      "Ġwhat": 577,
      "Ġher": 578,
      "Ġif": 579,
      "Ġwould": 580,
      "av": 581,
      "Ġar": 582,
      "ial": 583,
      "ink": 584,
      "ens": 585,
      "ors": 586,
      "ents": 587,
      "Ġthan": 588,
      "Ġ201": 589,
      "Ġtr": 590,
      "Ġjust": 591,
      "ound": 592,
      "Ġro": 593,
      "ob": 594,
      "Ġbec": 595,
      "int": 596,
      "Ġspe": 597,
      "ish": 598,
      "mer": 599,
      "Ġrec": 600,
      "Ġknow": 601,
      "irst": 602,
      "ople": 603,
      "ild": 604,
      "port": 605,
      "Ġpre": 606,
      "ĠWe": 607,
      "Ġinto": 608,
      "wn": 609,
      "Ġsaid": 610,
      "ren": 611,
      "Ġneed": 612,
      "nder": 613,
      "oy": 614,
      "ory": 615,
      "Ġhow": 616,
      "ĠHe": 617,
      "own": 618,
      "Ġam": 619,
      "fter": 620,
      "ov": 621,
      "ater": 622,
      "Ġacc": 623,
      "lic": 624,
      "ade": 625,
      "Ġpeople": 626,
      "rough": 627,
      "vers": 628,
      "itt": 629,
      "Ġtw": 630,
      "Ġsc": 631,
      "old": 632,
      "Ġno": 633,
      "Ġco": 634,
      "Ġits": 635,
      "ang": 636,
      "ning": 637,
      "Ġdes": 638,
      "Ġbl": 639,
      "Ġmay": 640,
      "lud": 641,
      "we": 642,
      "ons": 643,
      "Ġfirst": 644,
      "ĠâĢĵ": 645,
      "Ġshe": 646,
      "ual": 647,
      "amp": 648,
      "'t": 649,
      "ces": 650,
      "ause": 651,
      "cial": 652,
      "Ġcomm": 653,
      "hed": 654,
      "ian": 655,
      "ates": 656,
      "lp": 657,
      "ft": 658,
      "Ġadd": 659,
      "Ġonly": 660,
      "ric": 661,
      "les": 662,
      "Ġmake": 663,
      "ull": 664,
      "Ġtra": 665,
      "Ġ4": 666,
      "Ġbet": 667,
      "Ġmost": 668,
      "day": 669,
      "rent": 670,
      "Ġem": 671,
      "ments": 672,
      "Ġhelp": 673,
      "Ġlook": 674,
      "Ġpo": 675,
      "ĠThis": 676,
      "Ġback": 677,
      "tern": 678,
      "gr": 679,
      "ĠRe": 680,
      "Ġind": 681,
      "Ġ5": 682,
      "Ġinclud": 683,
      "end": 684,
      "Ġ19": 685,
      "Ġwant": 686,
      "Ġevery": 687,
      "Ġprov": 688,
      "Ġfl": 689,
      "round": 690,
      "Ġuse": 691,
      "Ġthrough": 692,
      "ily": 693,
      "Ġtwo": 694,
      "Ġprodu": 695,
      "Ġsee": 696,
      "ating": 697,
      ").": 698,
      "cts": 699,
      "iew": 700,
      "Ġcons": 701,
      "hing": 702,
      "ious": 703,
      "ise": 704,
      "Ġwell": 705,
      "ks": 706,
      "Ġbu": 707,
      "ew": 708,
      "Ġthese": 709,
      "iss": 710,
      "Ġunder": 711,
      "Ġafter": 712,
      "xt": 713,
      "ities": 714,
      "oll": 715,
      "Ġph": 716,
      "je": 717,
      "aw": 718,
      "Ġact": 719,
      "Ġserv": 720,
      "ph": 721,
      "sel": 722,
      "ife": 723,
      "Ġdif": 724,
      "fore": 725,
      "ced": 726,
      "Ġcould": 727,
      "Th": 728,
      "Ġrel": 729,
      "ert": 730,
      "Ġsupp": 731,
      "urn": 732,
      "Ġplay": 733,
      "row": 734,
      "ific": 735,
      "Ġyears": 736,
      "hen": 737,
      "Ġsy": 738,
      "uch": 739,
      "ting": 740,
      "als": 741,
      "Ġvery": 742,
      "erson": 743,
      "Ġinv": 744,
      "Ġeven": 745,
      "Ġra": 746,
      "rit": 747,
      "Ġnow": 748,
      "Ġhim": 749,
      "Ġway": 750,
      "Ġgood": 751,
      "Ġpr": 752,
      "ont": 753,
      "Ġreg": 754,
      "ange": 755,
      "Ġmany": 756,
      "iness": 757,
      "lect": 758,
      "ock": 759,
      "Ġev": 760,
      "||": 761,
      "Ġthen": 762,
      "Ġimp": 763,
      "Ġsm": 764,
      "ational": 765,
      "Ġshould": 766,
      "cess": 767,
      "Ġcol": 768,
      "oss": 769,
      "Ġdec": 770,
      "Ġstud": 771,
      "Ġ200": 772,
      "Ġrem": 773,
      "ility": 774,
      "Ġke": 775,
      "ased": 776,
      "ĠYou": 777,
      "olog": 778,
      "com": 779,
      "Ġwhere": 780,
      "aking": 781,
      "oth": 782,
      "ool": 783,
      "ffe": 784,
      "ful": 785,
      "Ġbecause": 786,
      "Ġright": 787,
      "ible": 788,
      ".âĢĿ": 789,
      "any": 790,
      "ident": 791,
      "bs": 792,
      "ures": 793,
      "Ġdid": 794,
      "ward": 795,
      "erm": 796,
      "ĠUn": 797,
      "ular": 798,
      "Ġsec": 799,
      "Ġdon": 800,
      "Ġgu": 801,
      "Ġstart": 802,
      "Ġgreat": 803,
      "get": 804,
      "ĠWh": 805,
      "ts": 806,
      "ble": 807,
      "Ġbus": 808,
      "Ġown": 809,
      "ower": 810,
      "),": 811,
      "Ġsuch": 812,
      "ĠSe": 813,
      "ath": 814,
      "Ġfin": 815,
      "Ġac": 816,
      "ĠAs": 817,
      "Ġthink": 818,
      "Ġexper": 819,
      "ative": 820,
      "Ġdown": 821,
      "formation": 822,
      "ices": 823,
      "Ġ$": 824,
      "uring": 825,
      "ork": 826,
      "Ġmuch": 827,
      "li": 828,
      "its": 829,
      "hip": 830,
      "Ġatt": 831,
      "Ġtoo": 832,
      "ys": 833,
      "hes": 834,
      "Ġent": 835,
      "Ġ6": 836,
      "ics": 837,
      "ty": 838,
      "gan": 839,
      "stem": 840,
      "other": 841,
      "arch": 842,
      "alth": 843,
      "up": 844,
      "ited": 845,
      "Ġinte": 846,
      "In": 847,
      "ĠCom": 848,
      "Ġday": 849,
      "velop": 850,
      "ĠAnd": 851,
      "Ġlong": 852,
      "pect": 853,
      "ict": 854,
      "Ġset": 855,
      "und": 856,
      "Ġwee": 857,
      "Ġhigh": 858,
      "Ġinst": 859,
      "air": 860,
      "rib": 861,
      "ason": 862,
      "Ġbel": 863,
      "ener": 864,
      "omet": 865,
      "Ġagain": 866,
      "Ġpres": 867,
      "Ġbeing": 868,
      "ell": 869,
      "Ġdoes": 870,
      "Ġtake": 871,
      "Ġmon": 872,
      "Ġfind": 873,
      "Ġhere": 874,
      "ract": 875,
      "Ġend": 876,
      "Ġdiffe": 877,
      "Ġread": 878,
      "ner": 879,
      "Ġthose": 880,
      "Ġbefore": 881,
      "Ġ&": 882,
      "Ġcall": 883,
      "rest": 884,
      "ĠPro": 885,
      "Ġshow": 886,
      "ĠDe": 887,
      "Ġbest": 888,
      "Ġmade": 889,
      "ied": 890,
      "Ġrequ": 891,
      "ĠAn": 892,
      "Ġsim": 893,
      "alk": 894,
      "ax": 895,
      "ues": 896,
      "Ġperson": 897,
      "âĢľ": 898,
      "ollow": 899,
      "gram": 900,
      "Ġhome": 901,
      "Ġworld": 902,
      "cy": 903,
      "Ġlast": 904,
      "Ġsur": 905,
      "Ġass": 906,
      "ually": 907,
      "ĠIf": 908,
      "chool": 909,
      "Ġins": 910,
      "ĠNew": 911,
      "20": 912,
      "way": 913,
      "io": 914,
      "line": 915,
      "Ġcar": 916,
      "ix": 917,
      "Ġinformation": 918,
      "Ġbusiness": 919,
      "Ġche": 920,
      "Ġmin": 921,
      "Ġloc": 922,
      "ank": 923,
      "ng": 924,
      "led": 925,
      "ject": 926,
      "Ġbr": 927,
      "Ġav": 928,
      "Ġear": 929,
      "ublic": 930,
      "Ġfam": 931,
      "Ġ10": 932,
      "Ġdisc": 933,
      "Ġmark": 934,
      "Ġhand": 935,
      "Ġ7": 936,
      "...": 937,
      "Ġmed": 938,
      "Ġpol": 939,
      "pen": 940,
      "ving": 941,
      "Ġtrans": 942,
      "We": 943,
      "Ġlead": 944,
      "Ġwhile": 945,
      "Ġdevelop": 946,
      "Ġlife": 947,
      "Ġused": 948,
      "ĠBut": 949,
      "chn": 950,
      "atch": 951,
      "Ġsystem": 952,
      "Ġinter": 953,
      "self": 954,
      "ave": 955,
      "ins": 956,
      "Ġcre": 957,
      "Ġmem": 958,
      "ness": 959,
      "ple": 960,
      "Ġmod": 961,
      "Ġcount": 962,
      "ince": 963,
      "ouse": 964,
      "pr": 965,
      "ros": 966,
      "cept": 967,
      "Ġnum": 968,
      "Ġreally": 969,
      ",âĢĿ": 970,
      "Ġeach": 971,
      "Ġret": 972,
      "arm": 973,
      "Ġform": 974,
      "Ġgoing": 975,
      "ives": 976,
      "Ġ8": 977,
      "ather": 978,
      "az": 979,
      "Ġthough": 980,
      "Ġdet": 981,
      "Ġart": 982,
      "Ġsub": 983,
      "ene": 984,
      "Ġaround": 985,
      "ĠAl": 986,
      "Ġbook": 987,
      "ĠSh": 988,
      "Ġsupport": 989,
      "view": 990,
      "imes": 991,
      "ps": 992,
      "ween": 993,
      "ience": 994,
      "land": 995,
      "Ġsomet": 996,
      ".\"": 997,
      "Ġfollow": 998,
      "Ġvis": 999,
      "ines": 1000,
      "akes": 1001,
      "gg": 1002,
      "meric": 1003,
      "Ġcomple": 1004,
      "Ġed": 1005,
      "Ġdesign": 1006,
      "ever": 1007,
      "ional": 1008,
      "Ġstill": 1009,
      "Ġser": 1010,
      "read": 1011,
      "lease": 1012,
      "Ġgr": 1013,
      "ets": 1014,
      "Ġteam": 1015,
      "ah": 1016,
      "ĠSo": 1017,
      "Ġcur": 1018,
      "Ġreal": 1019,
      "Ġdifferent": 1020,
      "ize": 1021,
      "Ġsay": 1022,
      "ale": 1023,
      "irect": 1024,
      "ata": 1025,
      "ash": 1026,
      "ivers": 1027,
      "Ġcour": 1028,
      "ctions": 1029,
      "Ġsl": 1030,
      "der": 1031,
      "riend": 1032,
      "Ġbetween": 1033,
      "Ġrun": 1034,
      "Ġcare": 1035,
      "oun": 1036,
      "Ġprogram": 1037,
      "ĠFor": 1038,
      "This": 1039,
      "Ġsame": 1040,
      "Ġstr": 1041,
      "Ġpoint": 1042,
      "Ġadv": 1043,
      "ved": 1044,
      "ages": 1045,
      "ex": 1046,
      "Ġprovid": 1047,
      "Ġchar": 1048,
      "Ġfeel": 1049,
      "Ġboth": 1050,
      "man": 1051,
      "ute": 1052,
      "Ġsign": 1053,
      "Ġ9": 1054,
      "ĠThey": 1055,
      "ustom": 1056,
      "It": 1057,
      "ĠAr": 1058,
      "Ġaut": 1059,
      "Wh": 1060,
      "Ġcommun": 1061,
      "Ġplace": 1062,
      "Ġsk": 1063,
      "ittle": 1064,
      "Ġchild": 1065,
      "Ġbo": 1066,
      "Ġpost": 1067,
      "Ġthree": 1068,
      "Ġstate": 1069,
      "ways": 1070,
      "000": 1071,
      "ĠCl": 1072,
      "Ġlot": 1073,
      "Ġhapp": 1074,
      "Ġgl": 1075,
      "Ġexp": 1076,
      "ĠBe": 1077,
      "ars": 1078,
      "Ġfound": 1079,
      "the": 1080,
      "Ġfree": 1081,
      "ety": 1082,
      "Ġeas": 1083,
      "Ġcle": 1084,
      "Ġpur": 1085,
      "ĠAmeric": 1086,
      "Ġfew": 1087,
      "ten": 1088,
      "ital": 1089,
      "Ġrep": 1090,
      "Ġlist": 1091,
      "Ġlove": 1092,
      "ized": 1093,
      "Ġmet": 1094,
      "ton": 1095,
      "less": 1096,
      "Ġhealth": 1097,
      "uc": 1098,
      "oh": 1099,
      "Ġthings": 1100,
      "ired": 1101,
      "ution": 1102,
      "ody": 1103,
      "ames": 1104,
      "ĠAd": 1105,
      "Ġprof": 1106,
      "ffect": 1107,
      "Ġmonth": 1108,
      "Ġprocess": 1109,
      "Ġref": 1110,
      "Ġgener": 1111,
      "Ġext": 1112,
      "ves": 1113,
      "ĠLe": 1114,
      "Ġfull": 1115,
      "ient": 1116,
      "ature": 1117,
      "Ġimport": 1118,
      "be": 1119,
      "Ġlar": 1120,
      "Ġcor": 1121,
      "cent": 1122,
      "Ġfun": 1123,
      "bers": 1124,
      "Ġtechn": 1125,
      "thing": 1126,
      "Ġinterest": 1127,
      "Ġtop": 1128,
      "Ġreport": 1129,
      "tt": 1130,
      "Ġlittle": 1131,
      "ology": 1132,
      "cl": 1133,
      "Ġplan": 1134,
      "Ġcome": 1135,
      "ailable": 1136,
      "Ġfr": 1137,
      "con": 1138,
      "ĠBl": 1139,
      "ished": 1140,
      "10": 1141,
      "ically": 1142,
      "ism": 1143,
      "Ġob": 1144,
      "Ġkeep": 1145,
      "vern": 1146,
      "ering": 1147,
      "ield": 1148,
      "Ġusing": 1149,
      "cer": 1150,
      "arn": 1151,
      "Ġdef": 1152,
      "ists": 1153,
      "ross": 1154,
      "ants": 1155,
      "Ġduring": 1156,
      "iving": 1157,
      "Ġrest": 1158,
      "rand": 1159,
      "Ġcustom": 1160,
      "Ġopen": 1161,
      "ality": 1162,
      "ug": 1163,
      "Ġpartic": 1164,
      "Ġresp": 1165,
      "Ġsomething": 1166,
      "Ġcontin": 1167,
      "Ġcompany": 1168,
      "Ġiss": 1169,
      "Ġappro": 1170,
      "Ġgot": 1171,
      "gy": 1172,
      "ploy": 1173,
      "att": 1174,
      "Ġcent": 1175,
      "Ġposs": 1176,
      "Ġschool": 1177,
      "Ġfact": 1178,
      "ural": 1179,
      "Ġnext": 1180,
      "Ġint": 1181,
      "oad": 1182,
      "Ġanother": 1183,
      "ĠThere": 1184,
      "Ġsmall": 1185,
      "Ġallow": 1186,
      "ention": 1187,
      "Ġmust": 1188,
      ",\"": 1189,
      "Ġbetter": 1190,
      "Ġput": 1191,
      "Ġfil": 1192,
      "Ġgame": 1193,
      "Ġwithout": 1194,
      "Ġsol": 1195,
      "ining": 1196,
      "ared": 1197,
      "Ġincluding": 1198,
      "Ġbig": 1199,
      "Ġconf": 1200,
      "Ġpri": 1201,
      "ined": 1202,
      "Ġgrou": 1203,
      "Ġorgan": 1204,
      "Ġweek": 1205,
      "Ġquest": 1206,
      "Ġalways": 1207,
      "Ġmight": 1208,
      "Ġresult": 1209,
      "ware": 1210,
      "ĠHow": 1211,
      "Ġvar": 1212,
      "Ġty": 1213,
      "Ġdist": 1214,
      "Ġstand": 1215,
      "orn": 1216,
      "Ġavailable": 1217,
      "Ġfriend": 1218,
      "Ġval": 1219,
      "ĠâĢĺ": 1220,
      "Ġide": 1221,
      "reen": 1222,
      "iqu": 1223,
      "Ġdata": 1224,
      "Ġmain": 1225,
      "ger": 1226,
      "blem": 1227,
      "Ġmarket": 1228,
      "ample": 1229,
      "Ġhead": 1230,
      "uss": 1231,
      "ik": 1232,
      "oot": 1233,
      "Ġpass": 1234,
      "Ġtry": 1235,
      "Ġhard": 1236,
      "Ġnumber": 1237,
      "Ġopt": 1238,
      "Ġpat": 1239,
      "Ġwr": 1240,
      "Ġsecond": 1241,
      "Ġincre": 1242,
      "Ġsince": 1243,
      "ĠShe": 1244,
      "Ġbuild": 1245,
      "Ġlaw": 1246,
      "Ġrece": 1247,
      "Ġopp": 1248,
      "Ġpay": 1249,
      "âĢ¦": 1250,
      "illion": 1251,
      "stand": 1252,
      "Ġmus": 1253,
      "ertain": 1254,
      "Ġdri": 1255,
      "ĠâĢĶ": 1256,
      "Ġtri": 1257,
      "Ġnever": 1258,
      "rence": 1259,
      "Ġfamily": 1260,
      "Ġpublic": 1261,
      "ense": 1262,
      "Ġask": 1263,
      "work": 1264,
      "Ġcost": 1265,
      "âĢĶ": 1266,
      "Ġclass": 1267,
      "Ġservice": 1268,
      "Ġwom": 1269,
      "Ġproblem": 1270,
      "ier": 1271,
      "ĠFr": 1272,
      "Ġdays": 1273,
      "ccess": 1274,
      "ately": 1275,
      "Ġlevel": 1276,
      "ĠOn": 1277,
      "Ġdirect": 1278,
      "ĠPl": 1279,
      "Ġpower": 1280,
      "ĠIs": 1281,
      "ĠAll": 1282,
      "iversity": 1283,
      "19": 1284,
      "Ġimportant": 1285,
      "Ġold": 1286,
      "ision": 1287,
      "Ġwater": 1288,
      "rol": 1289,
      "Ġexperience": 1290,
      "If": 1291,
      "ior": 1292,
      "aj": 1293,
      "rist": 1294,
      "Ġinvest": 1295,
      "Ġinf": 1296,
      "Ġmov": 1297,
      "els": 1298,
      "ird": 1299,
      "Ġsure": 1300,
      "Ġel": 1301,
      "ling": 1302,
      "Ġperform": 1303,
      "Ġbro": 1304,
      "Ġcr": 1305,
      "me": 1306,
      "ĠQ": 1307,
      "Ġca": 1308,
      "uck": 1309,
      "Ġspec": 1310,
      "oney": 1311,
      "Ġhum": 1312,
      "ted": 1313,
      "pend": 1314,
      "Ġgive": 1315,
      "ope": 1316,
      "ote": 1317,
      "Ġwin": 1318,
      "Ġbelie": 1319,
      "Ġable": 1320,
      "gin": 1321,
      "ral": 1322,
      "ours": 1323,
      "Ġagainst": 1324,
      "ĠEx": 1325,
      "Ġpos": 1326,
      "Ġ18": 1327,
      "ww": 1328,
      "Ġless": 1329,
      "Ġlet": 1330,
      "ĠCon": 1331,
      "ĠInd": 1332,
      "Ġseem": 1333,
      "ats": 1334,
      "Ġexpl": 1335,
      "Ġ12": 1336,
      "Ġbre": 1337,
      "Ġ'": 1338,
      "ases": 1339,
      "ER": 1340,
      "Ġgrow": 1341,
      "Ġwithin": 1342,
      "Ġfour": 1343,
      "ered": 1344,
      "Ġlight": 1345,
      "here": 1346,
      "Ġve": 1347,
      "ĠTe": 1348,
      "Ġunt": 1349,
      "ortun": 1350,
      "ok": 1351,
      "Ġi": 1352,
      "ards": 1353,
      "Ġcurrent": 1354,
      "inal": 1355,
      "co": 1356,
      "Ġrese": 1357,
      "ably": 1358,
      "Ġleg": 1359,
      "ĠCol": 1360,
      "pping": 1361,
      "Ġprovide": 1362,
      "Ġsays": 1363,
      "Ġonline": 1364,
      "Ġorder": 1365,
      "ruct": 1366,
      "ĠThat": 1367,
      "raph": 1368,
      "Ġ0": 1369,
      "med": 1370,
      "cing": 1371,
      "ĠPh": 1372,
      "Ġtest": 1373,
      "pos": 1374,
      "50": 1375,
      "Ġjob": 1376,
      "ency": 1377,
      "Ġpop": 1378,
      ".,": 1379,
      "Ġdi": 1380,
      "ffic": 1381,
      "ury": 1382,
      "Ġsit": 1383,
      "ration": 1384,
      "Ġtoday": 1385,
      "ivid": 1386,
      "Ġmeet": 1387,
      "Ġaccess": 1388,
      "Ġest": 1389,
      "outh": 1390,
      "Ġgovern": 1391,
      "Ġpresent": 1392,
      "Ġprote": 1393,
      "He": 1394,
      "aut": 1395,
      "ĠZ": 1396,
      "ission": 1397,
      "ains": 1398,
      "ec": 1399,
      "Ġeng": 1400,
      "Ġann": 1401,
      "ron": 1402,
      "Ġproper": 1403,
      "ott": 1404,
      "Ġseason": 1405,
      "Ġturn": 1406,
      "Ġdem": 1407,
      "ients": 1408,
      "Ġworking": 1409,
      "ĠUS": 1410,
      "ret": 1411,
      "ording": 1412,
      "cu": 1413,
      "Ġoper": 1414,
      "Ġaway": 1415,
      "pped": 1416,
      "Ġhist": 1417,
      "Ġview": 1418,
      "Ġarea": 1419,
      "ley": 1420,
      "ently": 1421,
      "aring": 1422,
      "eng": 1423,
      "Ġbeh": 1424,
      "Ġphot": 1425,
      "Ġservices": 1426,
      "ories": 1427,
      "You": 1428,
      "As": 1429,
      "hor": 1430,
      "Ġaddition": 1431,
      "ĠRes": 1432,
      "ember": 1433,
      "ider": 1434,
      "'re": 1435,
      "oint": 1436,
      "ĠSp": 1437,
      "iron": 1438,
      "tend": 1439,
      "Ġchange": 1440,
      "ability": 1441,
      "ised": 1442,
      "ann": 1443,
      "Ġfood": 1444,
      "Ġterm": 1445,
      "Ġuntil": 1446,
      "Ġequ": 1447,
      "por": 1448,
      "ney": 1449,
      "ĠTo": 1450,
      "ĠOr": 1451,
      "Ġchang": 1452,
      "orth": 1453,
      "Ġcourse": 1454,
      "Ġsing": 1455,
      "Ġemploy": 1456,
      "ids": 1457,
      "Ġprom": 1458,
      "Ġnight": 1459,
      "Ġcap": 1460,
      "Ġthing": 1461,
      "ĠComm": 1462,
      "lish": 1463,
      "Ġmaking": 1464,
      "Ġpract": 1465,
      "30": 1466,
      "Ġtru": 1467,
      "ator": 1468,
      "Ġprofess": 1469,
      "Ġstudents": 1470,
      "ium": 1471,
      "lection": 1472,
      "ify": 1473,
      "conom": 1474,
      "Ġsal": 1475,
      "let": 1476,
      "ead": 1477,
      "Ġspecial": 1478,
      "Ġ15": 1479,
      "Ġpast": 1480,
      "Ġlocal": 1481,
      "Ġprev": 1482,
      "ina": 1483,
      "ream": 1484,
      "Ġroom": 1485,
      "atter": 1486,
      "Ġtalk": 1487,
      "bo": 1488,
      "sh": 1489,
      "Ġlooking": 1490,
      "Ġeffect": 1491,
      "ization": 1492,
      "ured": 1493,
      "ĠTr": 1494,
      "by": 1495,
      "irl": 1496,
      "Ġwebs": 1497,
      "Ġwrit": 1498,
      "Ġevent": 1499,
      "ified": 1500,
      "agement": 1501,
      "Ġcase": 1502,
      "Ġwhy": 1503,
      "IN": 1504,
      "ising": 1505,
      "Ġsuccess": 1506,
      "of": 1507,
      "ged": 1508,
      "Ġbas": 1509,
      "Ġintern": 1510,
      "soci": 1511,
      "ĠNo": 1512,
      "Ġlarge": 1513,
      "Ġkind": 1514,
      "Ġdev": 1515,
      "joy": 1516,
      "min": 1517,
      "Ġword": 1518,
      "Ġleft": 1519,
      "ohn": 1520,
      "Ġfac": 1521,
      "ries": 1522,
      "omm": 1523,
      "iting": 1524,
      "Ġchildren": 1525,
      "Ġmoney": 1526,
      "Ġproduct": 1527,
      "Ġenough": 1528,
      "Ġcomplete": 1529,
      "Ġoften": 1530,
      "Ġunderstand": 1531,
      "Ġcheck": 1532,
      "ĠMan": 1533,
      "Ġmove": 1534,
      "Ġvide": 1535,
      "Ġ.": 1536,
      "ump": 1537,
      "Ġgroup": 1538,
      "Ġsite": 1539,
      "ĠSc": 1540,
      "11": 1541,
      "aterial": 1542,
      "enn": 1543,
      "fect": 1544,
      "Ġname": 1545,
      "ocus": 1546,
      "ination": 1547,
      "Ġhaving": 1548,
      "Ġactiv": 1549,
      "icle": 1550,
      "Ġconst": 1551,
      "Ġimpro": 1552,
      "part": 1553,
      "Ġever": 1554,
      "Ġtoget": 1555,
      "Ġtogether": 1556,
      "Ġtimes": 1557,
      "Ġtell": 1558,
      "itions": 1559,
      "Ġindust": 1560,
      "Ġ|": 1561,
      "Ġtreat": 1562,
      "ĠCent": 1563,
      "ajor": 1564,
      "'m": 1565,
      "ush": 1566,
      "aster": 1567,
      "ĠEng": 1568,
      "aim": 1569,
      "Ġproducts": 1570,
      "Ġmen": 1571,
      "augh": 1572,
      "ĠWhen": 1573,
      "ived": 1574,
      "Ġapplic": 1575,
      "Ġinclude": 1576,
      "veral": 1577,
      "ills": 1578,
      "Ġdidn": 1579,
      "enef": 1580,
      "ĠCan": 1581,
      "Ġrecord": 1582,
      "Ġdra": 1583,
      "ĠWhat": 1584,
      "Ġcreat": 1585,
      "Ġdr": 1586,
      "Ġsw": 1587,
      "Ġcountry": 1588,
      "ready": 1589,
      "ĠChrist": 1590,
      "arent": 1591,
      "ee": 1592,
      "Ġlearn": 1593,
      "Ġalong": 1594,
      "itive": 1595,
      "Ġdone": 1596,
      "Ġ[": 1597,
      "Ġnear": 1598,
      "ential": 1599,
      "12": 1600,
      "iven": 1601,
      "Ġcommunity": 1602,
      "Ġbit": 1603,
      "Ġbecome": 1604,
      "Ġhouse": 1605,
      "Ġcond": 1606,
      "Ġoffer": 1607,
      "ĠUniversity": 1608,
      "Ġes": 1609,
      "ĠMay": 1610,
      "Ġexpect": 1611,
      "Ġbuy": 1612,
      "ĠFl": 1613,
      "Ġshort": 1614,
      "ern": 1615,
      "What": 1616,
      "ĠWith": 1617,
      "Ġfollowing": 1618,
      "urs": 1619,
      "ĠCo": 1620,
      "Ġside": 1621,
      "viron": 1622,
      "alf": 1623,
      "ode": 1624,
      "Ġtrad": 1625,
      "ĠAt": 1626,
      "Ġaccount": 1627,
      "Ġ30": 1628,
      "ĠMar": 1629,
      "Ġmembers": 1630,
      "Ġair": 1631,
      "Ġline": 1632,
      "ery": 1633,
      "Ġreturn": 1634,
      "For": 1635,
      "Ġsocial": 1636,
      "Ġeduc": 1637,
      "son": 1638,
      "Ġcalled": 1639,
      "ored": 1640,
      "ividual": 1641,
      "Ġfar": 1642,
      "utes": 1643,
      "ON": 1644,
      "St": 1645,
      "fer": 1646,
      "ots": 1647,
      "Ġnews": 1648,
      "Ġconne": 1649,
      "Ġmeans": 1650,
      "Ġpa": 1651,
      "Ġpercent": 1652,
      "Ġbody": 1653,
      "Ġstory": 1654,
      "une": 1655,
      "Ġenjoy": 1656,
      "Ġalready": 1657,
      "ane": 1658,
      "ĠCar": 1659,
      "Ġpain": 1660,
      "Ġleast": 1661,
      "ows": 1662,
      "br": 1663,
      "uff": 1664,
      "Ġgetting": 1665,
      "Ġcontrol": 1666,
      "Ġoffic": 1667,
      "Ġfeat": 1668,
      "Ġbased": 1669,
      "Ġla": 1670,
      "side": 1671,
      "ither": 1672,
      "Ġ199": 1673,
      "Ġdetail": 1674,
      "uro": 1675,
      "Ġseveral": 1676,
      "Ġresearch": 1677,
      "Ġcou": 1678,
      "Ġcertain": 1679,
      "Ġneeds": 1680,
      "ands": 1681,
      "Ġ11": 1682,
      "Ġfocus": 1683,
      "Ġmakes": 1684,
      "Ġmar": 1685,
      "ĠGod": 1686,
      "Ġnet": 1687,
      "Ġpersonal": 1688,
      "tain": 1689,
      "uture": 1690,
      "'ve": 1691,
      "Ġothers": 1692,
      "Ġpossible": 1693,
      "Ġlive": 1694,
      "ances": 1695,
      "Ġreview": 1696,
      "Ġdoing": 1697,
      "ES": 1698,
      "Ġdoesn": 1699,
      "Ġmillion": 1700,
      "ĠJohn": 1701,
      "oice": 1702,
      "mber": 1703,
      "Ġcame": 1704,
      "Ġmean": 1705,
      "Ġeasy": 1706,
      "Ġwebsite": 1707,
      "Ġtax": 1708,
      "Ġgovernment": 1709,
      "ĠMy": 1710,
      "ĠAmerican": 1711,
      "Ġwon": 1712,
      "Ġeconom": 1713,
      "Ġwent": 1714,
      "Ġmajor": 1715,
      "Ġbenef": 1716,
      "Ġmil": 1717,
      "ien": 1718,
      "atic": 1719,
      "Ġlim": 1720,
      "Ġhold": 1721,
      "Ġcreate": 1722,
      "eral": 1723,
      "crib": 1724,
      "Ġindividual": 1725,
      "rap": 1726,
      "AN": 1727,
      "ique": 1728,
      "ption": 1729,
      "Ġocc": 1730,
      "Ġfore": 1731,
      "idd": 1732,
      "app": 1733,
      "osed": 1734,
      "Ġfav": 1735,
      "vironment": 1736,
      "Ġfund": 1737,
      "Ġlow": 1738,
      "Ġtre": 1739,
      "cially": 1740,
      "Ġemail": 1741,
      "Ġquality": 1742,
      "Ġmusic": 1743,
      "ama": 1744,
      "ĠAm": 1745,
      "orts": 1746,
      "Ġproject": 1747,
      "AT": 1748,
      "Ġwomen": 1749,
      "ians": 1750,
      "Ġcomes": 1751,
      "Ġcamp": 1752,
      "wards": 1753,
      "Ġmaterial": 1754,
      "Ġelect": 1755,
      "Ġhappen": 1756,
      "Ġthought": 1757,
      "book": 1758,
      "ides": 1759,
      "Ġactually": 1760,
      "ches": 1761,
      "Ġmind": 1762,
      "//": 1763,
      "rop": 1764,
      "most": 1765,
      "Ġmom": 1766,
      "ĠÂ": 1767,
      "Ġparticular": 1768,
      "lement": 1769,
      "Ġdeal": 1770,
      "Ġopportun": 1771,
      "rodu": 1772,
      "Ġnon": 1773,
      "Ġyoung": 1774,
      "Ġvisit": 1775,
      "There": 1776,
      "Ġpot": 1777,
      "wh": 1778,
      "ully": 1779,
      "err": 1780,
      "ference": 1781,
      "AR": 1782,
      "ched": 1783,
      "Ġclear": 1784,
      "Ġexample": 1785,
      "Ġorig": 1786,
      "over": 1787,
      "Ġtook": 1788,
      "aff": 1789,
      "not": 1790,
      "Ġyet": 1791,
      "Ġhuman": 1792,
      "Ġdevelopment": 1793,
      "yle": 1794,
      "ĠRep": 1795,
      "Ġce": 1796,
      "ift": 1797,
      "aps": 1798,
      "oor": 1799,
      "irm": 1800,
      "Ġacross": 1801,
      "Ġsoft": 1802,
      "ĠBr": 1803,
      "ony": 1804,
      "ĠSte": 1805,
      "ai": 1806,
      "load": 1807,
      "Ġhours": 1808,
      "Ġlink": 1809,
      "room": 1810,
      "ateg": 1811,
      "play": 1812,
      "Ġtold": 1813,
      "Ġ16": 1814,
      "Ġquick": 1815,
      "urther": 1816,
      "Ġonce": 1817,
      "Ġearly": 1818,
      "Ġident": 1819,
      "Ġcharact": 1820,
      "for": 1821,
      "aken": 1822,
      "lished": 1823,
      "Ġhot": 1824,
      "ensive": 1825,
      "Ġfuture": 1826,
      "ulation": 1827,
      "Ġcontact": 1828,
      "lf": 1829,
      "che": 1830,
      "Ġreason": 1831,
      "Ġspecific": 1832,
      "OR": 1833,
      "Ġbeaut": 1834,
      "16": 1835,
      "isk": 1836,
      "ctor": 1837,
      "Ġstarted": 1838,
      "An": 1839,
      "Ġredu": 1840,
      "ĠApp": 1841,
      "Ġlater": 1842,
      "cle": 1843,
      "ners": 1844,
      "Ġcut": 1845,
      "Ġmult": 1846,
      "Ġinvol": 1847,
      "ĠState": 1848,
      "ĠSu": 1849,
      "Ġkey": 1850,
      "eb": 1851,
      "Ġfriends": 1852,
      "Ġpar": 1853,
      "Ġbelow": 1854,
      "Ġrequire": 1855,
      "Ġvers": 1856,
      "Ġfive": 1857,
      "Ġpress": 1858,
      "Ġcomput": 1859,
      "Ġstrong": 1860,
      "verage": 1861,
      "ones": 1862,
      "ĠMed": 1863,
      "Ġstep": 1864,
      "ges": 1865,
      "itor": 1866,
      "Ġcity": 1867,
      "Ġmonths": 1868,
      "Ġey": 1869,
      "Ġpolit": 1870,
      "://": 1871,
      "urity": 1872,
      "Ġbring": 1873,
      "'ll": 1874,
      "And": 1875,
      "Ġvideo": 1876,
      "Ġpack": 1877,
      "arr": 1878,
      "ape": 1879,
      "ĠUnited": 1880,
      "Ġanal": 1881,
      "ĠIntern": 1882,
      "ights": 1883,
      "Ġitem": 1884,
      "icy": 1885,
      "Ġhig": 1886,
      "Ġprob": 1887,
      "ource": 1888,
      "Ġtyp": 1889,
      "ourn": 1890,
      "Ġwa": 1891,
      "ĠOne": 1892,
      "oon": 1893,
      "Ġtem": 1894,
      "Ġclose": 1895,
      "lling": 1896,
      "Ġfield": 1897,
      "iday": 1898,
      "ĠThese": 1899,
      "iod": 1900,
      "utions": 1901,
      "Ġheart": 1902,
      "Ġ--": 1903,
      "Ġspace": 1904,
      "Ġpriv": 1905,
      "resent": 1906,
      "Ġpurch": 1907,
      "Ġcult": 1908,
      "Ġbegin": 1909,
      "Ġaddress": 1910,
      "But": 1911,
      "How": 1912,
      "ips": 1913,
      "Ġ2012": 1914,
      "Ġpage": 1915,
      "use": 1916,
      "ĠX": 1917,
      "Ġknown": 1918,
      "Ġ#": 1919,
      "Ġshare": 1920,
      "Ġperfect": 1921,
      "âĢĵ": 1922,
      "jects": 1923,
      "Ġens": 1924,
      "Ġsum": 1925,
      "anies": 1926,
      "ister": 1927,
      "Ġ14": 1928,
      "Ġchall": 1929,
      "ograph": 1930,
      "Ġstudy": 1931,
      "Ġdiscuss": 1932,
      "Ġet": 1933,
      "illed": 1934,
      "yl": 1935,
      "Ġcomb": 1936,
      "unch": 1937,
      "ĠWor": 1938,
      "oose": 1939,
      "Ġcompet": 1940,
      "Ġauthor": 1941,
      "go": 1942,
      "Ġfilm": 1943,
      "ources": 1944,
      "de": 1945,
      "Ġappear": 1946,
      "ster": 1947,
      "Ġener": 1948,
      "Ġrele": 1949,
      "ĠCal": 1950,
      "18": 1951,
      "acy": 1952,
      "ledge": 1953,
      "Ġtot": 1954,
      "Ġseen": 1955,
      "par": 1956,
      "lege": 1957,
      "rain": 1958,
      "sw": 1959,
      "When": 1960,
      "Ġsound": 1961,
      "ĠYork": 1962,
      "!!": 1963,
      "15": 1964,
      "ibility": 1965,
      "Ġcontent": 1966,
      "ober": 1967,
      "Ġhistory": 1968,
      "Ġamong": 1969,
      "Ġquestion": 1970,
      "af": 1971,
      "Ġgames": 1972,
      "org": 1973,
      "Ġsomeone": 1974,
      "Ġwalk": 1975,
      "ĠCont": 1976,
      "ĠEn": 1977,
      "Ġrespons": 1978,
      "ĠDo": 1979,
      "ĠNe": 1980,
      "ging": 1981,
      "atur": 1982,
      "Ġface": 1983,
      "Ġpick": 1984,
      "Ġclaim": 1985,
      "Ġago": 1986,
      "ĠHowever": 1987,
      "Ġvari": 1988,
      "ino": 1989,
      "Ġhope": 1990,
      "Ġ100": 1991,
      "Ġstay": 1992,
      "ĠNot": 1993,
      "ned": 1994,
      "So": 1995,
      "Ġmanag": 1996,
      "reet": 1997,
      "Ġpie": 1998,
      "fic": 1999,
      "Ġindustry": 2000,
      "Ġwind": 2001,
      "ison": 2002,
      "ung": 2003,
      "though": 2004,
      "Ġbelieve": 2005,
      "atural": 2006,
      "Ġprice": 2007,
      "ED": 2008,
      "cted": 2009,
      "aces": 2010,
      "Ġrelations": 2011,
      "Ġwhether": 2012,
      "new": 2013,
      "Ġanything": 2014,
      "Ġeverything": 2015,
      "Ġ:": 2016,
      "pecially": 2017,
      "Ġenvironment": 2018,
      "ilar": 2019,
      "ilities": 2020,
      "hers": 2021,
      "Ġhalf": 2022,
      "Ġexc": 2023,
      "Ġess": 2024,
      "ĠInst": 2025,
      "mb": 2026,
      "Ġwhole": 2027,
      "osp": 2028,
      "ĠPr": 2029,
      "On": 2030,
      "Ġmedia": 2031,
      "ĠMc": 2032,
      "Ġ17": 2033,
      "Ġmor": 2034,
      "ued": 2035,
      "Ġfre": 2036,
      "Ġdeli": 2037,
      "back": 2038,
      "Ġsci": 2039,
      "rown": 2040,
      "Ġgirl": 2041,
      "Ġdel": 2042,
      "Ġpub": 2043,
      "Ġant": 2044,
      "Ġenc": 2045,
      "Ġsingle": 2046,
      "ply": 2047,
      "urch": 2048,
      "hod": 2049,
      "abor": 2050,
      "ĠEuro": 2051,
      "rew": 2052,
      "Ġgiven": 2053,
      "Ġstore": 2054,
      "Ġbreak": 2055,
      "ille": 2056,
      "Ġcir": 2057,
      "Ġjo": 2058,
      "uation": 2059,
      "Ġste": 2060,
      "ided": 2061,
      "Ġport": 2062,
      "Ġeff": 2063,
      "Ġsuper": 2064,
      "Ġamount": 2065,
      "Ġabove": 2066,
      "Ġfront": 2067,
      "Ġtaking": 2068,
      "Ġthird": 2069,
      "Ġmeas": 2070,
      "Ġ2013": 2071,
      "asing": 2072,
      "imate": 2073,
      "selves": 2074,
      "fully": 2075,
      "Ġissues": 2076,
      "EN": 2077,
      "ĠMe": 2078,
      "Ġcommon": 2079,
      "pro": 2080,
      "rict": 2081,
      "Ġage": 2082,
      "ental": 2083,
      "13": 2084,
      "ĠServ": 2085,
      "Ġsearch": 2086,
      "Ġplease": 2087,
      "Ġdue": 2088,
      "ĠCity": 2089,
      "ggest": 2090,
      "come": 2091,
      "ĠCount": 2092,
      "Ch": 2093,
      "Ġcompanies": 2094,
      "ams": 2095,
      "Ġquestions": 2096,
      "ogn": 2097,
      "ators": 2098,
      "ĠSy": 2099,
      "ilt": 2100,
      "Ġperiod": 2101,
      "ler": 2102,
      "Ġmess": 2103,
      "ĠPres": 2104,
      "Ġblog": 2105,
      "Ġphys": 2106,
      "Ġfall": 2107,
      "ĠGu": 2108,
      "iver": 2109,
      "Ġbad": 2110,
      "Ġblack": 2111,
      "Ġeither": 2112,
      "ball": 2113,
      "irt": 2114,
      "âĢ¢": 2115,
      "200": 2116,
      "Ġidea": 2117,
      "Ġ13": 2118,
      "cri": 2119,
      "Ġtool": 2120,
      "Ġ25": 2121,
      "put": 2122,
      "Ġsix": 2123,
      "Ġtechnology": 2124,
      "Ġ/": 2125,
      "dd": 2126,
      "ained": 2127,
      "Ġenergy": 2128,
      "Ġconsider": 2129,
      "Ġbuilding": 2130,
      "Ġrecomm": 2131,
      "14": 2132,
      "idence": 2133,
      "Re": 2134,
      "ĠYour": 2135,
      "Ġwatch": 2136,
      "Ġrecommend": 2137,
      "Ġareas": 2138,
      "ĠChe": 2139,
      "ĠJan": 2140,
      "Ġresults": 2141,
      "vent": 2142,
      "Ġvol": 2143,
      "Ġsimple": 2144,
      "Ġmanagement": 2145,
      "Ġworks": 2146,
      "Ġrange": 2147,
      "Ġnecess": 2148,
      "Ġminutes": 2149,
      "Ġsent": 2150,
      "used": 2151,
      "Ġalmost": 2152,
      "Ġlikely": 2153,
      "Ġ50": 2154,
      "ficult": 2155,
      "Ġcra": 2156,
      "Ġbrand": 2157,
      "gress": 2158,
      "time": 2159,
      "IS": 2160,
      "Ġ24": 2161,
      "Ġfurther": 2162,
      "Ġaud": 2163,
      "my": 2164,
      "Ġclean": 2165,
      "ĠOur": 2166,
      "Ġcred": 2167,
      "Ġsuggest": 2168,
      "Ġsex": 2169,
      "Ġaff": 2170,
      "Ġeveryone": 2171,
      "Ġbar": 2172,
      "Ġvalue": 2173,
      "Ġmot": 2174,
      "Ġtaken": 2175,
      "Ġinstall": 2176,
      "obal": 2177,
      "cell": 2178,
      ".)": 2179,
      "Ġhost": 2180,
      "ĠMin": 2181,
      "ancial": 2182,
      "Ġself": 2183,
      "Ġfavor": 2184,
      "Ġseries": 2185,
      "vert": 2186,
      "Ġconcer": 2187,
      "Ġhtt": 2188,
      "Ġcrit": 2189,
      "gle": 2190,
      "ĠWill": 2191,
      "iously": 2192,
      "year": 2193,
      "Ġdou": 2194,
      "gest": 2195,
      "itted": 2196,
      "Ġwond": 2197,
      "Ġdeb": 2198,
      "Ġtrack": 2199,
      "ĠEurope": 2200,
      "AL": 2201,
      "ially": 2202,
      "Ġentire": 2203,
      "Ġtraining": 2204,
      "Ġfeatures": 2205,
      "Ġpoints": 2206,
      "ĠNational": 2207,
      "oid": 2208,
      "Ġabs": 2209,
      "ried": 2210,
      "ples": 2211,
      "IC": 2212,
      "ees": 2213,
      "Ġmiss": 2214,
      "chie": 2215,
      "ively": 2216,
      "Ġz": 2217,
      "Ġcustomers": 2218,
      "fort": 2219,
      "Ġcal": 2220,
      "Ġespecially": 2221,
      "ires": 2222,
      "opy": 2223,
      "Ġoffice": 2224,
      "Ġpret": 2225,
      "iful": 2226,
      "Ġtrying": 2227,
      "AS": 2228,
      "Ġposition": 2229,
      "itch": 2230,
      "ites": 2231,
      "Ġdig": 2232,
      "rie": 2233,
      "ĠStates": 2234,
      "Ġhowever": 2235,
      "ĠBo": 2236,
      "25": 2237,
      "Ġdocu": 2238,
      "place": 2239,
      "omes": 2240,
      "Ġaccording": 2241,
      "Ġdifficult": 2242,
      "ication": 2243,
      "Ġcoming": 2244,
      "ĠNorth": 2245,
      "Ġtravel": 2246,
      "ĠGo": 2247,
      "Ġvarious": 2248,
      "ĠDep": 2249,
      "rug": 2250,
      "Ã©": 2251,
      "Ġswe": 2252,
      "Ġliving": 2253,
      "Ġstop": 2254,
      "Ġwanted": 2255,
      "Ġrequired": 2256,
      "icro": 2257,
      "Ġred": 2258,
      "Ġprobably": 2259,
      "Ġasked": 2260,
      "anks": 2261,
      "Ġrelationship": 2262,
      "To": 2263,
      "roll": 2264,
      "Ġrather": 2265,
      "ĠTw": 2266,
      "ume": 2267,
      "Ġneeded": 2268,
      "Ġcontinue": 2269,
      "ĠSec": 2270,
      "Ġweb": 2271,
      "itting": 2272,
      "Ġadded": 2273,
      "Ġelse": 2274,
      "ĠBar": 2275,
      "ĠPart": 2276,
      "Ġtype": 2277,
      "Ġpretty": 2278,
      "ili": 2279,
      "Ġbehind": 2280,
      "Ġprofessional": 2281,
      "ĠWorld": 2282,
      "arning": 2283,
      "ask": 2284,
      "elt": 2285,
      "Ġ2011": 2286,
      "nding": 2287,
      "Ġfail": 2288,
      "Ġquite": 2289,
      "Ġisn": 2290,
      "Ġways": 2291,
      "Ġoffers": 2292,
      "IT": 2293,
      "ibr": 2294,
      "Ġparticip": 2295,
      "minist": 2296,
      "Ġimprove": 2297,
      "nes": 2298,
      "ification": 2299,
      "Ġdog": 2300,
      "Ġevents": 2301,
      "Ġtext": 2302,
      "Ġmag": 2303,
      "resh": 2304,
      "Ġland": 2305,
      "Ġcomputer": 2306,
      "Ġperformance": 2307,
      "Ġfire": 2308,
      "Ġwhite": 2309,
      "Ġissue": 2310,
      "ĠSchool": 2311,
      "ĠGe": 2312,
      "itten": 2313,
      "Ġtou": 2314,
      "ĠPe": 2315,
      "umb": 2316,
      "Ġupd": 2317,
      "Ġpict": 2318,
      "head": 2319,
      "Ġexist": 2320,
      "ables": 2321,
      "Ġrisk": 2322,
      "Ġknowledge": 2323,
      "where": 2324,
      "itional": 2325,
      "apt": 2326,
      "val": 2327,
      "ĠGl": 2328,
      "Ġmatter": 2329,
      "Ġeducation": 2330,
      "Ġsize": 2331,
      "Ġsignific": 2332,
      "oved": 2333,
      "ĠAfter": 2334,
      "Ġsimply": 2335,
      "reme": 2336,
      "lt": 2337,
      "ruction": 2338,
      "Ġaccept": 2339,
      "yn": 2340,
      "Ġrepresent": 2341,
      "iol": 2342,
      "Ġmethod": 2343,
      "Ġele": 2344,
      "ief": 2345,
      "aur": 2346,
      "Ġassist": 2347,
      "Ġwriting": 2348,
      "eth": 2349,
      "ĠAf": 2350,
      "angu": 2351,
      "Ġdam": 2352,
      "Ġincludes": 2353,
      "Ġprovides": 2354,
      "ring": 2355,
      "ĠEd": 2356,
      "Ġexperien": 2357,
      "Ġcharacter": 2358,
      "amer": 2359,
      "ĠHis": 2360,
      "Ġrad": 2361,
      "Ġhon": 2362,
      "Ġinit": 2363,
      "ĠInc": 2364,
      "Ġansw": 2365,
      "ĠDes": 2366,
      "Ġweeks": 2367,
      "Ġproblems": 2368,
      "Ġnothing": 2369,
      "uge": 2370,
      "Ġoil": 2371,
      "ĠSouth": 2372,
      "Ġnetwork": 2373,
      "eds": 2374,
      "ĠAust": 2375,
      "uary": 2376,
      "Ġstat": 2377,
      "Ġselect": 2378,
      "ĠAmerica": 2379,
      "Ġinfl": 2380,
      "Ġwords": 2381,
      "ises": 2382,
      "lex": 2383,
      "ĠPark": 2384,
      "Ġdeterm": 2385,
      "Ġpopular": 2386,
      "obile": 2387,
      "Ġsimilar": 2388,
      "--": 2389,
      "ĠSm": 2390,
      "Ġupon": 2391,
      "ĠQu": 2392,
      "Ġrequest": 2393,
      "Ġmodel": 2394,
      "17": 2395,
      "Ġsoon": 2396,
      "pril": 2397,
      "anc": 2398,
      "ĠAb": 2399,
      "Ġprint": 2400,
      "Ġinn": 2401,
      "ID": 2402,
      "Ġstaff": 2403,
      "ules": 2404,
      "aily": 2405,
      "Ġimpact": 2406,
      "Ġextra": 2407,
      "Ġdeath": 2408,
      "ĠTH": 2409,
      "Ġengine": 2410,
      "Ġproperty": 2411,
      "Ġprovided": 2412,
      "uf": 2413,
      "Al": 2414,
      "ague": 2415,
      "aching": 2416,
      "Ġgra": 2417,
      "Ġdom": 2418,
      "ĠOb": 2419,
      "Ġanim": 2420,
      "ole": 2421,
      "Ġrate": 2422,
      "Ġseems": 2423,
      "Ġtakes": 2424,
      "Ġprep": 2425,
      "Ġconsum": 2426,
      "ĠOct": 2427,
      "Ġincrease": 2428,
      "urance": 2429,
      "istic": 2430,
      "ĠIm": 2431,
      "Ġfinal": 2432,
      "Ġlog": 2433,
      "Ġparent": 2434,
      "Ġfoot": 2435,
      "Ġground": 2436,
      "Ġcook": 2437,
      "Ġforward": 2438,
      "Ġball": 2439,
      "Ġnatural": 2440,
      "Ġparty": 2441,
      "uly": 2442,
      "Ġinj": 2443,
      "ĠKe": 2444,
      "Ġaction": 2445,
      "ĠGr": 2446,
      "Ġarticle": 2447,
      "Ġbooks": 2448,
      "Ġgeneral": 2449,
      "Ġlay": 2450,
      "Ġrecogn": 2451,
      "Ġmember": 2452,
      "Ġrole": 2453,
      "medi": 2454,
      "arget": 2455,
      "Ġchanges": 2456,
      "ĠPresident": 2457,
      "RE": 2458,
      "Ġtrue": 2459,
      "Ġannoun": 2460,
      "Ġlo": 2461,
      "ciety": 2462,
      "Ġrecent": 2463,
      "Ġattack": 2464,
      "ĠCenter": 2465,
      "Ġunique": 2466,
      "ze": 2467,
      "80": 2468,
      "Ġcannot": 2469,
      "Ġheld": 2470,
      "ĠPol": 2471,
      "Ġyourself": 2472,
      "Ġsong": 2473,
      "22": 2474,
      "US": 2475,
      "ĠJust": 2476,
      "Ġphone": 2477,
      "oe": 2478,
      "mit": 2479,
      "ĠPer": 2480,
      "Ġsaw": 2481,
      "Ġwide": 2482,
      "iter": 2483,
      "Ġfig": 2484,
      "Ġhy": 2485,
      "ression": 2486,
      "ĠCor": 2487,
      "Ġdate": 2488,
      "Ġestab": 2489,
      "Ġsens": 2490,
      "eter": 2491,
      "Ġcard": 2492,
      "astic": 2493,
      "Ġkids": 2494,
      "Ġroad": 2495,
      "Ġsignificant": 2496,
      "Ġcell": 2497,
      "pper": 2498,
      "Ġ2010": 2499,
      "reg": 2500,
      "Ġdescrib": 2501,
      "Ġfit": 2502,
      "40": 2503,
      "face": 2504,
      "oph": 2505,
      "Ġsecurity": 2506,
      "Ġtable": 2507,
      "ĠMarch": 2508,
      "empt": 2509,
      "ĠEm": 2510,
      "Ġrunning": 2511,
      "Ġensure": 2512,
      "ĠAct": 2513,
      "Ġachie": 2514,
      "Ġsense": 2515,
      "ĠJune": 2516,
      "ederal": 2517,
      "Ġcreated": 2518,
      "ada": 2519,
      "Ġcover": 2520,
      "hib": 2521,
      "ĠDis": 2522,
      "Ġplayers": 2523,
      "ological": 2524,
      "ades": 2525,
      "aging": 2526,
      "ĠMark": 2527,
      "Ġinde": 2528,
      "ĠAg": 2529,
      "Ġoriginal": 2530,
      "arter": 2531,
      "Ġoutside": 2532,
      "ĠComp": 2533,
      "Ġbeautiful": 2534,
      "aving": 2535,
      "based": 2536,
      "Ġloss": 2537,
      "AC": 2538,
      "Ġshows": 2539,
      "Ġsoftware": 2540,
      "Ġemb": 2541,
      "ĠMr": 2542,
      "Ġtotal": 2543,
      "ĠAug": 2544,
      "ops": 2545,
      "Ġlonger": 2546,
      "Ġmoment": 2547,
      "Ġassoci": 2548,
      "Ġhit": 2549,
      "earch": 2550,
      "Ġagree": 2551,
      "Ġcoll": 2552,
      "oring": 2553,
      "Ġnice": 2554,
      "Ġnational": 2555,
      "ĠSome": 2556,
      "Ġtit": 2557,
      "Ġbase": 2558,
      "60": 2559,
      "overed": 2560,
      "erc": 2561,
      "Ġleave": 2562,
      "Ġreceive": 2563,
      "Ġhigher": 2564,
      "Ġspeak": 2565,
      "Ġstruct": 2566,
      "Ġlate": 2567,
      "Ġsafe": 2568,
      "Ġill": 2569,
      "Ġthroughout": 2570,
      "aign": 2571,
      "Ġusers": 2572,
      "Ġdesigned": 2573,
      "Ġpark": 2574,
      "olution": 2575,
      "Ġregard": 2576,
      "Ġnorm": 2577,
      "Ġetc": 2578,
      "Ġregular": 2579,
      "Ġop": 2580,
      "izing": 2581,
      "Ġblood": 2582,
      "Ġbox": 2583,
      "Ġtreatment": 2584,
      "Ġworth": 2585,
      "Ġsystems": 2586,
      "Ġofficial": 2587,
      "ival": 2588,
      "ĠCounty": 2589,
      "idge": 2590,
      "Ġmedical": 2591,
      "ĠTra": 2592,
      "ament": 2593,
      "ĠBy": 2594,
      "Ġrights": 2595,
      "Ġfa": 2596,
      "Ġcouple": 2597,
      "Ġready": 2598,
      "Ġleaders": 2599,
      "Ġdisplay": 2600,
      "Ġreading": 2601,
      "Ġprograms": 2602,
      "Ġopportunity": 2603,
      "Ġpractice": 2604,
      "na": 2605,
      "Ġlat": 2606,
      "ĠDay": 2607,
      "ĠNow": 2608,
      "Ġdetails": 2609,
      "Ġwar": 2610,
      "Ġrecently": 2611,
      "Ġfinancial": 2612,
      "cast": 2613,
      "iet": 2614,
      "Ġexam": 2615,
      "rem": 2616,
      "Ġcontrib": 2617,
      "Ġsle": 2618,
      "Ġsales": 2619,
      "anced": 2620,
      "ox": 2621,
      "irit": 2622,
      "ĠSept": 2623,
      "Ġ2014": 2624,
      "Ġcurrently": 2625,
      "Ġusually": 2626,
      "iddle": 2627,
      "Ġversion": 2628,
      "ude": 2629,
      "Ġdefin": 2630,
      "Ġterms": 2631,
      "oes": 2632,
      "uth": 2633,
      "ĠDav": 2634,
      "ĠPar": 2635,
      "Ġfast": 2636,
      "amed": 2637,
      "aced": 2638,
      "Ġreceived": 2639,
      "Ġprivate": 2640,
      "Ġpaper": 2641,
      "right": 2642,
      "ĠHouse": 2643,
      "Ġfunction": 2644,
      "aturday": 2645,
      "Ġbed": 2646,
      "Ġsqu": 2647,
      "Ġpers": 2648,
      "Ġstri": 2649,
      "Ġgen": 2650,
      "Ġdeep": 2651,
      "Ġhappy": 2652,
      "Ġchoose": 2653,
      "Ġpolicy": 2654,
      "__": 2655,
      "oogle": 2656,
      "Ġteac": 2657,
      "Ġblock": 2658,
      "ffects": 2659,
      "Ġremain": 2660,
      "Ġ...": 2661,
      "Ġanyone": 2662,
      "Ġmorning": 2663,
      "oura": 2664,
      "ĠDr": 2665,
      "Ġskin": 2666,
      "Ġpric": 2667,
      "ĠHar": 2668,
      "Ġadditional": 2669,
      "Ġoptions": 2670,
      "Ġgrowth": 2671,
      "gu": 2672,
      "Ġitems": 2673,
      "Ġut": 2674,
      "Ġcomfort": 2675,
      "ese": 2676,
      "ĠUs": 2677,
      "ufact": 2678,
      "Ġcolor": 2679,
      "Ġintrodu": 2680,
      "Ġwall": 2681,
      "Ġcollect": 2682,
      "Ġapplication": 2683,
      "ĠMore": 2684,
      "artment": 2685,
      "rect": 2686,
      "ĠSan": 2687,
      "Ġthemselves": 2688,
      "Ġbal": 2689,
      "Ġinside": 2690,
      "Ġcondu": 2691,
      "ĠHigh": 2692,
      "Ġ21": 2693,
      "Ġformer": 2694,
      "Ġattend": 2695,
      "Ġexact": 2696,
      "oud": 2697,
      "Ġcause": 2698,
      "ournal": 2699,
      "Ġdepend": 2700,
      "attle": 2701,
      "ĠApril": 2702,
      "Ġprior": 2703,
      "Ġcoun": 2704,
      "Ġpotential": 2705,
      "sc": 2706,
      "Ġbott": 2707,
      "Ġbegan": 2708,
      "action": 2709,
      "like": 2710,
      "Ġx": 2711,
      "Ġ40": 2712,
      "Ġlost": 2713,
      "Ġboard": 2714,
      "icles": 2715,
      "iff": 2716,
      "lier": 2717,
      "Ġpresident": 2718,
      "Ġstra": 2719,
      "Ġclick": 2720,
      "Ph": 2721,
      "Ġvict": 2722,
      "ha": 2723,
      "Ġhands": 2724,
      "Ġsat": 2725,
      "Ġpolitical": 2726,
      "OU": 2727,
      "ville": 2728,
      "Ġneg": 2729,
      "OS": 2730,
      "Ġobs": 2731,
      "nds": 2732,
      "ĠAssoci": 2733,
      "Ġcountries": 2734,
      "ett": 2735,
      "ĠSpe": 2736,
      "ĠStud": 2737,
      "With": 2738,
      "ĠSer": 2739,
      "Ġdest": 2740,
      "Ġdeg": 2741,
      "ĠReg": 2742,
      "Ġstock": 2743,
      "Ġvia": 2744,
      "Ġuser": 2745,
      "atory": 2746,
      "Ġrespect": 2747,
      "cil": 2748,
      "Ġviol": 2749,
      "ĠPat": 2750,
      "Ġround": 2751,
      "ma": 2752,
      "onse": 2753,
      "www": 2754,
      "ĠDon": 2755,
      "My": 2756,
      "Our": 2757,
      "Ġpan": 2758,
      "ales": 2759,
      "Ġmeeting": 2760,
      "Ġcourt": 2761,
      "bit": 2762,
      "ĠWest": 2763,
      "Ġfirm": 2764,
      "AM": 2765,
      "sy": 2766,
      "Ġdecision": 2767,
      "Ġwasn": 2768,
      "onday": 2769,
      "Ġcareer": 2770,
      "Ġ,": 2771,
      "Ġdep": 2772,
      "ĠOff": 2773,
      "oke": 2774,
      "Ġnecessary": 2775,
      "ming": 2776,
      "Ġtarget": 2777,
      "Ġfight": 2778,
      "Ġrelease": 2779,
      "Ġfile": 2780,
      "Ġlives": 2781,
      "Ġitself": 2782,
      "ĠPa": 2783,
      "ĠFeb": 2784,
      "All": 2785,
      "ĠEl": 2786,
      "Ġwoman": 2787,
      "Ġple": 2788,
      "Ġdrug": 2789,
      "Ġgoes": 2790,
      "....": 2791,
      "ĠFace": 2792,
      "azing": 2793,
      "Ġchance": 2794,
      "Ġlearning": 2795,
      "24": 2796,
      "ached": 2797,
      "Ġlegal": 2798,
      "rel": 2799,
      "Ġgoal": 2800,
      "Ġhair": 2801,
      "Ġsaf": 2802,
      "Ġappe": 2803,
      "Ġsil": 2804,
      "Ġprim": 2805,
      "Ġcele": 2806,
      "Ġur": 2807,
      "inary": 2808,
      "ashing": 2809,
      "ĠMich": 2810,
      "Ġcool": 2811,
      "Ġquickly": 2812,
      "mon": 2813,
      "edd": 2814,
      "iforn": 2815,
      "Ġability": 2816,
      "ground": 2817,
      "Ġcases": 2818,
      "Ġdrive": 2819,
      "Ġcosts": 2820,
      "adem": 2821,
      "Ġclos": 2822,
      "ecut": 2823,
      "Ġproduction": 2824,
      "Ġinsp": 2825,
      "ux": 2826,
      "Ġsus": 2827,
      "Ġmix": 2828,
      "ĠWar": 2829,
      "Ġworked": 2830,
      "Ġcampaign": 2831,
      "ana": 2832,
      "ING": 2833,
      "ĠAfric": 2834,
      "Ġmatch": 2835,
      "ĠJuly": 2836,
      "Ġstudent": 2837,
      "Ġsubject": 2838,
      "Ġlevels": 2839,
      "Ġwonder": 2840,
      "Ġmass": 2841,
      "Ġchalleng": 2842,
      "Ġpred": 2843,
      "ĠEnglish": 2844,
      "ĠArt": 2845,
      "off": 2846,
      "ĠJanuary": 2847,
      "21": 2848,
      "haps": 2849,
      "Ġ23": 2850,
      "Ġarri": 2851,
      "Ġcustomer": 2852,
      "Ġdefe": 2853,
      "At": 2854,
      "Ġinvolved": 2855,
      "Ġdise": 2856,
      "ĠWhile": 2857,
      "Ġsett": 2858,
      "Ġplaying": 2859,
      "unday": 2860,
      "Ġtouch": 2861,
      "ĠMus": 2862,
      "Ġimmedi": 2863,
      "ek": 2864,
      "That": 2865,
      "Ġinternational": 2866,
      "Ġsummer": 2867,
      "imum": 2868,
      "Ġrelated": 2869,
      "fl": 2870,
      "Ġlangu": 2871,
      "wood": 2872,
      "Ġri": 2873,
      "Ġdownload": 2874,
      "oom": 2875,
      "Ġbecame": 2876,
      "'d": 2877,
      "erve": 2878,
      "Ġfavorite": 2879,
      "Ġjud": 2880,
      "Ġwritten": 2881,
      "35": 2882,
      "iam": 2883,
      "Ġaverage": 2884,
      "Ġpropos": 2885,
      "ĠDepartment": 2886,
      "ham": 2887,
      "Ġactivities": 2888,
      "Ġconc": 2889,
      "ĠChar": 2890,
      "bor": 2891,
      "Ġtown": 2892,
      "Ġlooks": 2893,
      "iction": 2894,
      "Ġideas": 2895,
      "Ġemer": 2896,
      "hood": 2897,
      "Ġincluded": 2898,
      "Ġlower": 2899,
      "Ġmyself": 2900,
      "Ġeffective": 2901,
      "reng": 2902,
      "Ġinstead": 2903,
      "Ġapproach": 2904,
      "Ġsurpr": 2905,
      "ifornia": 2906,
      "atives": 2907,
      "Ġgrad": 2908,
      "uk": 2909,
      "asons": 2910,
      "Ġcontract": 2911,
      "aby": 2912,
      "Ġgroups": 2913,
      "cip": 2914,
      "Ġprojects": 2915,
      "ĠHere": 2916,
      "Ġstru": 2917,
      "ought": 2918,
      "ĠNews": 2919,
      "irth": 2920,
      "hel": 2921,
      "Ġfair": 2922,
      "ĠSw": 2923,
      "ĠHealth": 2924,
      "Ġlatest": 2925,
      "Ġdiv": 2926,
      "ĠMon": 2927,
      "Ġveh": 2928,
      "Ġbur": 2929,
      "Ġautom": 2930,
      "ray": 2931,
      "ests": 2932,
      "clus": 2933,
      "ĠDem": 2934,
      "Sh": 2935,
      "ester": 2936,
      "ession": 2937,
      "ressed": 2938,
      "ysis": 2939,
      "Ġreported": 2940,
      "OT": 2941,
      "ovember": 2942,
      "Ġ2015": 2943,
      "uses": 2944,
      "Ġplat": 2945,
      "99": 2946,
      "ĠTV": 2947,
      "Ġchoice": 2948,
      "Ġ22": 2949,
      "Ġnature": 2950,
      "rought": 2951,
      "Ġdecided": 2952,
      "Ġeasily": 2953,
      "unt": 2954,
      "ĠBlack": 2955,
      "Ġep": 2956,
      "just": 2957,
      "Ġresources": 2958,
      "ipment": 2959,
      "ĠWeb": 2960,
      "lim": 2961,
      "Ġsepar": 2962,
      "Ġmid": 2963,
      "key": 2964,
      "Ġintegr": 2965,
      "ishing": 2966,
      "Ġsaying": 2967,
      "icated": 2968,
      "str": 2969,
      "Ġplayer": 2970,
      "Ġskills": 2971,
      "Ġled": 2972,
      "Ġinvestig": 2973,
      "Ġstyle": 2974,
      "pose": 2975,
      "Ġ+": 2976,
      "ocr": 2977,
      "itary": 2978,
      "Ġdraw": 2979,
      "Ġsafety": 2980,
      "Ġmach": 2981,
      "usiness": 2982,
      "aves": 2983,
      "Ġcredit": 2984,
      "ences": 2985,
      "ĠSci": 2986,
      "Ġscreen": 2987,
      "Ġcand": 2988,
      "Ġhuge": 2989,
      "Ġstandard": 2990,
      "light": 2991,
      "su": 2992,
      "ĠSen": 2993,
      "Ġpatients": 2994,
      "Ġexcept": 2995,
      "Ġbuilt": 2996,
      "Ġglobal": 2997,
      "Ġbenefits": 2998,
      "pri": 2999,
      "airs": 3000,
      "Ġleading": 3001,
      "ĠFriday": 3002,
      "cember": 3003,
      "Ġhear": 3004,
      "Ġapply": 3005,
      "ĠFin": 3006,
      "itc": 3007,
      "Ġattempt": 3008,
      "Be": 3009,
      "Ġbi": 3010,
      "Ġinteresting": 3011,
      "Ġallows": 3012,
      "erous": 3013,
      "ĠBro": 3014,
      "Ġaw": 3015,
      "aly": 3016,
      "ĠOf": 3017,
      "raft": 3018,
      "Ġgets": 3019,
      "Ġconditions": 3020,
      "ĠLa": 3021,
      "Ġremember": 3022,
      "aught": 3023,
      "ening": 3024,
      "Ġplans": 3025,
      "Ġimage": 3026,
      "Ġwrong": 3027,
      "fficient": 3028,
      "Ġtal": 3029,
      "ms": 3030,
      "Ġgave": 3031,
      "hern": 3032,
      "ĠAustral": 3033,
      "Ġpolice": 3034,
      "ications": 3035,
      "Ġord": 3036,
      "Ġcommit": 3037,
      "Ġpull": 3038,
      "ĠHer": 3039,
      "ĠVal": 3040,
      "Ġaffect": 3041,
      "Ġwrite": 3042,
      "ĠInt": 3043,
      "idered": 3044,
      "itter": 3045,
      "Ġimm": 3046,
      "Ġ2017": 3047,
      "Ġ2009": 3048,
      "ns": 3049,
      "Ġfresh": 3050,
      "Ġadminist": 3051,
      "hold": 3052,
      "Ġshall": 3053,
      "Ġclients": 3054,
      "ĠAugust": 3055,
      "Ġcy": 3056,
      "Ġpath": 3057,
      "ĠGoogle": 3058,
      "Ġtrust": 3059,
      "Ġmodern": 3060,
      "ĠSaturday": 3061,
      "Ġattention": 3062,
      "Ġdead": 3063,
      "Ġmention": 3064,
      "Ġfelt": 3065,
      "ĠAdd": 3066,
      "board": 3067,
      "Ġsun": 3068,
      "illing": 3069,
      "kend": 3070,
      "Ġpurchase": 3071,
      "Ġstates": 3072,
      "Ġsubs": 3073,
      "Ġmanufact": 3074,
      "cription": 3075,
      "Ġboy": 3076,
      "ald": 3077,
      "One": 3078,
      "ĠAcc": 3079,
      "avy": 3080,
      "ension": 3081,
      "ĠFacebook": 3082,
      "Ġtour": 3083,
      "oul": 3084,
      "ĠCour": 3085,
      "ivity": 3086,
      "Ġcompletely": 3087,
      "aste": 3088,
      "Ġlab": 3089,
      "ĠGerm": 3090,
      "ĠRepublic": 3091,
      "ulated": 3092,
      "Ġnote": 3093,
      "Ġthinking": 3094,
      "ny": 3095,
      "ĠCalifornia": 3096,
      "iring": 3097,
      "Ġ2008": 3098,
      "Ġmother": 3099,
      "verse": 3100,
      "Ġsave": 3101,
      "Ġsn": 3102,
      "enge": 3103,
      "Ġlif": 3104,
      "Ġones": 3105,
      "Ġvariety": 3106,
      "OM": 3107,
      "enty": 3108,
      "Ġeyes": 3109,
      "Ġnation": 3110,
      "LE": 3111,
      "Ġcomment": 3112,
      "Ġqual": 3113,
      "Ġstarting": 3114,
      "Ġmaintain": 3115,
      "inc": 3116,
      "Ġknew": 3117,
      "Ġprotect": 3118,
      "Ġdocument": 3119,
      "itation": 3120,
      "king": 3121,
      "orge": 3122,
      "Ġdevice": 3123,
      "23": 3124,
      "Ġdaily": 3125,
      "vey": 3126,
      "Ġheard": 3127,
      "Ġcapt": 3128,
      "isc": 3129,
      "Ġdigital": 3130,
      "ipping": 3131,
      "Ġaware": 3132,
      "ĠThen": 3133,
      "rote": 3134,
      "Ġstuff": 3135,
      "ĠFrom": 3136,
      "uesday": 3137,
      "Ġencoura": 3138,
      "ram": 3139,
      "pite": 3140,
      "Ġsold": 3141,
      "Ġvot": 3142,
      "Ġprogress": 3143,
      "Ġtele": 3144,
      "Ġparts": 3145,
      "):": 3146,
      "Ġvac": 3147,
      "iple": 3148,
      "Ġprin": 3149,
      "wor": 3150,
      "Ġgives": 3151,
      "ceed": 3152,
      "Ġgreen": 3153,
      "Ġ198": 3154,
      "Ġhimself": 3155,
      "ule": 3156,
      "Ġemployees": 3157,
      "ĠInternational": 3158,
      "Ġhttp": 3159,
      "gar": 3160,
      "Ġdrink": 3161,
      "bl": 3162,
      "ĠNet": 3163,
      "Ġplayed": 3164,
      "Ġexpected": 3165,
      "BC": 3166,
      "vis": 3167,
      "Ġoption": 3168,
      "uel": 3169,
      "Ġhol": 3170,
      "ĠSim": 3171,
      "ĠSunday": 3172,
      "Ġresponse": 3173,
      "Ġmarketing": 3174,
      "ida": 3175,
      "Ġ2016": 3176,
      "roup": 3177,
      "Ġinterview": 3178,
      "Ġorganization": 3179,
      "ospital": 3180,
      "Ġhor": 3181,
      "70": 3182,
      "Cl": 3183,
      "Ġpartners": 3184,
      "Ġsell": 3185,
      "apan": 3186,
      "Ġwood": 3187,
      "Ġcross": 3188,
      "Ġpublished": 3189,
      "ruary": 3190,
      "ĠObama": 3191,
      "ĠBu": 3192,
      "Ġreleased": 3193,
      "Ġconsidered": 3194,
      "ffee": 3195,
      "Ġcat": 3196,
      "Ġbud": 3197,
      "Ġoffe": 3198,
      "Ġpiece": 3199,
      "cies": 3200,
      "Ġdro": 3201,
      "Ġconcept": 3202,
      "Ġrout": 3203,
      "Ġeconomic": 3204,
      "Ġexcell": 3205,
      "Ġcenter": 3206,
      "ĠSeptember": 3207,
      "After": 3208,
      "sp": 3209,
      "Ġmaterials": 3210,
      "Ġanswer": 3211,
      "Ġplatform": 3212,
      "aged": 3213,
      "Ġamazing": 3214,
      "ĠPlease": 3215,
      "Ġslow": 3216,
      "Ġdirectly": 3217,
      "Ġsituation": 3218,
      "Ġweight": 3219,
      "Ġ60": 3220,
      "ĠBrit": 3221,
      "Ġsend": 3222,
      "Ġdepart": 3223,
      "ĠUp": 3224,
      "Ġenter": 3225,
      "Ġpositive": 3226,
      "Ġtypes": 3227,
      "Ġstreng": 3228,
      "ĠNovember": 3229,
      "Ġ*": 3230,
      "Ġsource": 3231,
      "ĠRed": 3232,
      "Ġhighly": 3233,
      "ĠOctober": 3234,
      "field": 3235,
      "Ġeffects": 3236,
      "ĠWind": 3237,
      "ael": 3238,
      "bur": 3239,
      "name": 3240,
      "ris": 3241,
      "Ġlack": 3242,
      "They": 3243,
      "Ġcollection": 3244,
      "Ġge": 3245,
      "ĠAir": 3246,
      "Ġkn": 3247,
      "ĠPM": 3248,
      "Ġsometimes": 3249,
      "Ġgiving": 3250,
      "iding": 3251,
      "Ġtowards": 3252,
      "Ġfeature": 3253,
      "No": 3254,
      "Ġphotos": 3255,
      "Ġparents": 3256,
      "EO": 3257,
      "sec": 3258,
      "alt": 3259,
      "Ġsche": 3260,
      "ivil": 3261,
      "Ġimplement": 3262,
      "ĠMonday": 3263,
      "Ġbroad": 3264,
      "Ġ=": 3265,
      "Ġdark": 3266,
      "ĠAc": 3267,
      "ords": 3268,
      "Ġlooked": 3269,
      "olf": 3270,
      "cks": 3271,
      "Ġflow": 3272,
      "Ġextreme": 3273,
      "Ġmovie": 3274,
      "ĠCommun": 3275,
      "PS": 3276,
      "Ġfell": 3277,
      "mercial": 3278,
      "Ġlocated": 3279,
      "Ġavoid": 3280,
      "Ġarch": 3281,
      "Ġregist": 3282,
      "\".": 3283,
      "cious": 3284,
      "omen": 3285,
      "Ġhelps": 3286,
      "ĠDecember": 3287,
      "ĠDirect": 3288,
      "Ġ28": 3289,
      "ĠAut": 3290,
      "Ġrent": 3291,
      "Ġinsurance": 3292,
      "ength": 3293,
      "Ġmat": 3294,
      "ara": 3295,
      "ondon": 3296,
      "Ġcamer": 3297,
      "Ġcontain": 3298,
      "Ġconsist": 3299,
      "Ġprevent": 3300,
      "inger": 3301,
      "Ġlimited": 3302,
      "opping": 3303,
      "yond": 3304,
      "Ġmobile": 3305,
      "idents": 3306,
      "ky": 3307,
      "Ġproviding": 3308,
      "ednes": 3309,
      "zy": 3310,
      "aries": 3311,
      "ĠWell": 3312,
      "Ġorganiz": 3313,
      "Ġbrought": 3314,
      "Ġbank": 3315,
      "erved": 3316,
      "Ġeffort": 3317,
      "Ġmount": 3318,
      "aker": 3319,
      "ibly": 3320,
      "Ġ26": 3321,
      "rs": 3322,
      "Ġfine": 3323,
      "Ġfarm": 3324,
      "ĠJe": 3325,
      "wise": 3326,
      "Ġsection": 3327,
      "tee": 3328,
      "mission": 3329,
      "isf": 3330,
      "Ġcollege": 3331,
      "Ġsen": 3332,
      "ened": 3333,
      "Ġplaces": 3334,
      "âĢĿ.": 3335,
      "ĠCons": 3336,
      "ruit": 3337,
      "Ġinnov": 3338,
      "Ġcopy": 3339,
      "Ġadvant": 3340,
      "Ġbra": 3341,
      "iles": 3342,
      "rences": 3343,
      "Ġdifference": 3344,
      "Ġpen": 3345,
      "Ġult": 3346,
      "Ġclub": 3347,
      "Ġcirc": 3348,
      "Ġsmart": 3349,
      "Ġrace": 3350,
      "Ġfeed": 3351,
      "ursday": 3352,
      "Ġcelebr": 3353,
      "ĠRead": 3354,
      "arily": 3355,
      "Ġreve": 3356,
      "band": 3357,
      "uate": 3358,
      "Ġtur": 3359,
      "Ġwarm": 3360,
      "oday": 3361,
      "Ġculture": 3362,
      "Ġhous": 3363,
      "ĠEar": 3364,
      "Ġcode": 3365,
      "add": 3366,
      "Ġlocation": 3367,
      "more": 3368,
      "Ġgold": 3369,
      "Ġexerc": 3370,
      "Ġdoor": 3371,
      "ounds": 3372,
      "Ġdemand": 3373,
      "Ġinflu": 3374,
      "Ġpressure": 3375,
      "ashington": 3376,
      "EC": 3377,
      "Ġded": 3378,
      "Ġcomplex": 3379,
      "itiz": 3380,
      "olute": 3381,
      "Ġplant": 3382,
      "aches": 3383,
      "Ġcas": 3384,
      "Ġreach": 3385,
      "Ġhour": 3386,
      "Ġspent": 3387,
      "Ġtried": 3388,
      "Ġnearly": 3389,
      "ilies": 3390,
      "itute": 3391,
      "estern": 3392,
      "ĠSch": 3393,
      "Ġconvers": 3394,
      "ĠGener": 3395,
      "ography": 3396,
      "chan": 3397,
      "Ġlic": 3398,
      "uted": 3399,
      "agn": 3400,
      "ĠAre": 3401,
      "Ġrelig": 3402,
      "Ġconv": 3403,
      "Ġphysical": 3404,
      "ares": 3405,
      "Ġdream": 3406,
      "Ġstories": 3407,
      "rows": 3408,
      "ednesday": 3409,
      "Ġtrip": 3410,
      "Ġcup": 3411,
      "Ġfan": 3412,
      "Ġadult": 3413,
      "itely": 3414,
      "arant": 3415,
      "Ġshot": 3416,
      "pre": 3417,
      "Ġspot": 3418,
      "imately": 3419,
      "Ġfeeling": 3420,
      "Ġgrowing": 3421,
      "Ġbehav": 3422,
      "Ġparticularly": 3423,
      "Ġexactly": 3424,
      "vest": 3425,
      "Ġwrote": 3426,
      "ĠPost": 3427,
      "ĠÂ£": 3428,
      "ĠLaw": 3429,
      "ĠProgram": 3430,
      "Ġobject": 3431,
      "Ġequipment": 3432,
      "ĠMost": 3433,
      "Ġincome": 3434,
      "Ġcondition": 3435,
      "Ġindepend": 3436,
      "IL": 3437,
      "Ġ27": 3438,
      "Ġspirit": 3439,
      "Ġinterested": 3440,
      "Ġdisease": 3441,
      "Ġsites": 3442,
      "Ġtalking": 3443,
      "Ġson": 3444,
      "ĠStreet": 3445,
      "Ġweekend": 3446,
      "ibrary": 3447,
      "Ġeat": 3448,
      "ĠFirst": 3449,
      "Ġdistrib": 3450,
      "isions": 3451,
      "rench": 3452,
      "rast": 3453,
      "Ġdeveloped": 3454,
      "ET": 3455,
      "mas": 3456,
      "Ġfinally": 3457,
      "ulations": 3458,
      "?âĢĿ": 3459,
      "Ġwish": 3460,
      "Ġindividuals": 3461,
      "Ġlanguage": 3462,
      "Ġhistor": 3463,
      "oming": 3464,
      "Ġwait": 3465,
      "ĠPre": 3466,
      "Ġmultiple": 3467,
      "Ġaltern": 3468,
      "Ġimages": 3469,
      "iling": 3470,
      "ĠPal": 3471,
      "Ġfloor": 3472,
      "Ġfather": 3473,
      "ĠAM": 3474,
      "pects": 3475,
      "Ġnumbers": 3476,
      "ĠAssociation": 3477,
      "Ġdire": 3478,
      "ĠâĢ¦": 3479,
      "Ġsolution": 3480,
      "Ġver": 3481,
      "ĠService": 3482,
      "Ġmessage": 3483,
      "ĠWhite": 3484,
      "Ġrespond": 3485,
      "Ġcertainly": 3486,
      "down": 3487,
      "Ġcateg": 3488,
      "Ġmis": 3489,
      "ĠUK": 3490,
      "ica": 3491,
      "Ġshoot": 3492,
      "Ġimag": 3493,
      "Ġachieve": 3494,
      "bon": 3495,
      "izes": 3496,
      "Ġtraditional": 3497,
      "Ġter": 3498,
      "Ġactivity": 3499,
      "Ġfix": 3500,
      "ĠRom": 3501,
      "Ġprem": 3502,
      "Ġserious": 3503,
      "Ġsolutions": 3504,
      "ĠEvery": 3505,
      "Ġsuccessful": 3506,
      "wide": 3507,
      "ĠEast": 3508,
      "ĠTechn": 3509,
      "ĠJapan": 3510,
      "Ġwife": 3511,
      "Ġaccom": 3512,
      "Ġfully": 3513,
      "arden": 3514,
      "Ġtools": 3515,
      "ĠFree": 3516,
      "Ġcarry": 3517,
      "ĠMor": 3518,
      "ĠChina": 3519,
      "Ġwants": 3520,
      "ĠCollege": 3521,
      "Ġalone": 3522,
      "Ġtick": 3523,
      "Ġband": 3524,
      "ores": 3525,
      "Ġbusinesses": 3526,
      "example": 3527,
      "Ex": 3528,
      "ION": 3529,
      "het": 3530,
      "Ġuses": 3531,
      "Ġglass": 3532,
      "Ġpromot": 3533,
      "antly": 3534,
      "Ġcorpor": 3535,
      "Ġprices": 3536,
      "mark": 3537,
      "ĠHall": 3538,
      "Ġanalysis": 3539,
      "Ġbeginning": 3540,
      "ban": 3541,
      "Ġrev": 3542,
      "Ġchurch": 3543,
      "mp": 3544,
      "zz": 3545,
      "Ġbillion": 3546,
      "Ġmaybe": 3547,
      "Ġreports": 3548,
      "Ġturned": 3549,
      "Ġtitle": 3550,
      "ĠDavid": 3551,
      "unk": 3552,
      "venue": 3553,
      "ĠIndian": 3554,
      "ND": 3555,
      "itable": 3556,
      "ils": 3557,
      "ĠProf": 3558,
      "Ġincreasing": 3559,
      "ĠTHE": 3560,
      "body": 3561,
      "Ġthous": 3562,
      "ĠBusiness": 3563,
      "ĠLondon": 3564,
      "ĠOut": 3565,
      "Ġdirector": 3566,
      "ari": 3567,
      "ĠWashington": 3568,
      "ĠEven": 3569,
      "ĠKing": 3570,
      "Ġcapital": 3571,
      "ĠInternet": 3572,
      "Ġinform": 3573,
      "ĠCoun": 3574,
      "Ġgoals": 3575,
      "Ġoverall": 3576,
      "itchen": 3577,
      "Ġstage": 3578,
      "Ġfear": 3579,
      "duc": 3580,
      "Ġmoving": 3581,
      "Ġchanged": 3582,
      "reed": 3583,
      "Ġneigh": 3584,
      "ago": 3585,
      "Ġannounced": 3586,
      "AP": 3587,
      "IG": 3588,
      "sequ": 3589,
      "Ġproced": 3590,
      "Ġdemon": 3591,
      "hest": 3592,
      "Ġspend": 3593,
      "Ġearlier": 3594,
      "anch": 3595,
      "Ġspeed": 3596,
      "Ġregion": 3597,
      "27": 3598,
      "Ġten": 3599,
      "Ġwild": 3600,
      "Ġextend": 3601,
      "Ġrestaur": 3602,
      "Ġserve": 3603,
      "EL": 3604,
      "Ġsort": 3605,
      "Ġtrade": 3606,
      "Ġstatement": 3607,
      "Ġstrugg": 3608,
      "Ġsubst": 3609,
      "Ġsleep": 3610,
      "45": 3611,
      "Ġfederal": 3612,
      "Ġeval": 3613,
      "Ġcreating": 3614,
      "ault": 3615,
      "Ġpaid": 3616,
      "ĠTuesday": 3617,
      "Ġoccur": 3618,
      "Ġrepl": 3619,
      "Ġheat": 3620,
      "error": 3621,
      "Ġer": 3622,
      "Ġforce": 3623,
      "ashion": 3624,
      "Com": 3625,
      "oms": 3626,
      "Ġthreat": 3627,
      "ĠFlor": 3628,
      "Ġopportunities": 3629,
      "New": 3630,
      "lin": 3631,
      "Ġmeasure": 3632,
      "Ġprefer": 3633,
      "Ġinvestment": 3634,
      "ocol": 3635,
      "Ġinstit": 3636,
      "Ġcorrect": 3637,
      "Ġdevices": 3638,
      "Ġplanning": 3639,
      "Ġdoub": 3640,
      "house": 3641,
      "Ġprevious": 3642,
      "Ġ2007": 3643,
      "Ġrequirements": 3644,
      "mitted": 3645,
      "Ġsust": 3646,
      "Ġindic": 3647,
      "ĠLet": 3648,
      "ĠGroup": 3649,
      "Ġhealthy": 3650,
      "Ġscience": 3651,
      "28": 3652,
      "ancing": 3653,
      "soft": 3654,
      "inner": 3655,
      "Ġteams": 3656,
      "90": 3657,
      "Ġbag": 3658,
      "atever": 3659,
      "ĠDel": 3660,
      "Ġcoffee": 3661,
      "Ġemot": 3662,
      "Ġassess": 3663,
      "Ġexcellent": 3664,
      "Ġrates": 3665,
      "iber": 3666,
      "Ġdry": 3667,
      "Ġeconomy": 3668,
      "ĠFebruary": 3669,
      "olic": 3670,
      "Ġpurpose": 3671,
      "Ġschools": 3672,
      "Ġunderstanding": 3673,
      "Ġcert": 3674,
      "Ġowners": 3675,
      "ech": 3676,
      "Ġfans": 3677,
      "Ġacqu": 3678,
      "Ġobtain": 3679,
      "Ġincreased": 3680,
      "ST": 3681,
      "Ġhop": 3682,
      "lying": 3683,
      "Ġgirls": 3684,
      "Ġshown": 3685,
      "Ġsociety": 3686,
      "Ġreduce": 3687,
      "Ġfrequ": 3688,
      "By": 3689,
      "OP": 3690,
      "vant": 3691,
      "AD": 3692,
      "Ġeight": 3693,
      "Ġannual": 3694,
      "Ġnormal": 3695,
      "Ġbirth": 3696,
      "Ġund": 3697,
      "set": 3698,
      "aint": 3699,
      "ford": 3700,
      "Ġfem": 3701,
      "Ġbill": 3702,
      "Ġbrain": 3703,
      "Ġcomments": 3704,
      "Ġpattern": 3705,
      "aled": 3706,
      "Ġrock": 3707,
      "undred": 3708,
      "Ġoffered": 3709,
      "De": 3710,
      "Ġwhose": 3711,
      "order": 3712,
      "Ġconsult": 3713,
      "Ġdeliver": 3714,
      "Ġquarter": 3715,
      "Ġfamilies": 3716,
      "ĠCanada": 3717,
      "Ġaim": 3718,
      "urt": 3719,
      "Ġrules": 3720,
      "ĠAlso": 3721,
      "Ġappropri": 3722,
      "Ġgrand": 3723,
      "Here": 3724,
      "orage": 3725,
      "well": 3726,
      "Ġguy": 3727,
      "Ġanaly": 3728,
      "Ġbeg": 3729,
      "ĠTex": 3730,
      "ĠGreat": 3731,
      "Ġeye": 3732,
      "Ġtemper": 3733,
      "amm": 3734,
      "Ġexpert": 3735,
      "ategy": 3736,
      "ĠII": 3737,
      "Ġapart": 3738,
      "Ġbaby": 3739,
      "Ġcharge": 3740,
      "nded": 3741,
      "Ġliter": 3742,
      "ĠMicro": 3743,
      "Ġseven": 3744,
      "Ġproduce": 3745,
      "ani": 3746,
      "change": 3747,
      "Ġadvert": 3748,
      "Ġdegree": 3749,
      "la": 3750,
      "Ġcouldn": 3751,
      "aughter": 3752,
      "rief": 3753,
      "26": 3754,
      "Ġmiddle": 3755,
      "que": 3756,
      "Ġstraight": 3757,
      "bed": 3758,
      "Ġaward": 3759,
      "Ġcold": 3760,
      "Ġjobs": 3761,
      "Ġgas": 3762,
      "Un": 3763,
      "term": 3764,
      "Ġvoice": 3765,
      "cause": 3766,
      "reci": 3767,
      "Ġbeyond": 3768,
      "Ġfeet": 3769,
      "see": 3770,
      "ager": 3771,
      "arc": 3772,
      "amb": 3773,
      "Ġfinished": 3774,
      "Ġimmediately": 3775,
      "Ġslight": 3776,
      "oly": 3777,
      "Ġlik": 3778,
      "Ġhappened": 3779,
      "Ġpet": 3780,
      "Ġdoctor": 3781,
      "ronic": 3782,
      "ĠCourt": 3783,
      "She": 3784,
      "Now": 3785,
      "Ġenh": 3786,
      "Ġdelivery": 3787,
      "Ġing": 3788,
      "Ġgreater": 3789,
      "Ġstrateg": 3790,
      "Ġbasic": 3791,
      "Ġprot": 3792,
      "ĠYear": 3793,
      "Ġgone": 3794,
      "Ġhelped": 3795,
      "Ġallowed": 3796,
      "Ġapplications": 3797,
      "inated": 3798,
      "ico": 3799,
      "Ġmiles": 3800,
      "Ġabsolute": 3801,
      "ĠIN": 3802,
      "Ġwel": 3803,
      "ĠOther": 3804,
      "Ġfat": 3805,
      "ĠBra": 3806,
      "Ġ2020": 3807,
      "Ġchem": 3808,
      "Is": 3809,
      "dom": 3810,
      "ĠJes": 3811,
      "Ġprofession": 3812,
      "Ġconnect": 3813,
      "Ġbenefit": 3814,
      "asc": 3815,
      "Ġalthough": 3816,
      "Ġmilitary": 3817,
      "ĠFe": 3818,
      "ĠGreen": 3819,
      "Ġroll": 3820,
      "Ġopin": 3821,
      "ĠHome": 3822,
      "ying": 3823,
      "mm": 3824,
      "ously": 3825,
      "Ġefforts": 3826,
      "ĠGold": 3827,
      "Ġevidence": 3828,
      "Ġmoved": 3829,
      "Ġwww": 3830,
      "Ġfinish": 3831,
      "Ġinstru": 3832,
      "Ġresponsible": 3833,
      "Ġ29": 3834,
      "ĠTrans": 3835,
      "Ġmovement": 3836,
      "Ġscient": 3837,
      "Ġsatisf": 3838,
      "Ġdoll": 3839,
      "Ġpicture": 3840,
      "Ġactive": 3841,
      "Ġpopulation": 3842,
      "rig": 3843,
      "ĠSpr": 3844,
      "Ġsurface": 3845,
      "Ġlargest": 3846,
      "sych": 3847,
      "ecutive": 3848,
      "Ġmeaning": 3849,
      "Ġcandid": 3850,
      "Ġreasons": 3851,
      "Ġhotel": 3852,
      "ĠSystem": 3853,
      "Ġdefinitely": 3854,
      "ulate": 3855,
      "Ġ2018": 3856,
      "works": 3857,
      "ston": 3858,
      "ĠCle": 3859,
      "Ġcancer": 3860,
      "Ġtruth": 3861,
      "Ġpoor": 3862,
      "ĠBook": 3863,
      "Ġcommercial": 3864,
      "ĠRec": 3865,
      "itude": 3866,
      "oos": 3867,
      "Ġguys": 3868,
      "Ġgain": 3869,
      "Ġchallenge": 3870,
      "ĠJack": 3871,
      "Se": 3872,
      "ĠServices": 3873,
      "aling": 3874,
      "ĠMet": 3875,
      "ĠChristian": 3876,
      "iant": 3877,
      "ĠAnt": 3878,
      "Ġblue": 3879,
      "Ġjoin": 3880,
      "Ġstructure": 3881,
      "Ġmer": 3882,
      "ĠPort": 3883,
      "OL": 3884,
      "istry": 3885,
      "Ġperhaps": 3886,
      "Ġ2019": 3887,
      "Ġ197": 3888,
      "ĠPaul": 3889,
      "itar": 3890,
      "Ġ2006": 3891,
      "Ġbasis": 3892,
      "pm": 3893,
      "orrow": 3894,
      "istics": 3895,
      "Ġcitiz": 3896,
      "ĠBel": 3897,
      "ĠDevelop": 3898,
      "ĠEuropean": 3899,
      "Ġdang": 3900,
      "Ġstick": 3901,
      "Ġdecl": 3902,
      "coming": 3903,
      "atively": 3904,
      "Ġbudget": 3905,
      "ums": 3906,
      "Ġleader": 3907,
      "vision": 3908,
      "Ġahead": 3909,
      "ĠMod": 3910,
      "Pro": 3911,
      "ĠThursday": 3912,
      "apter": 3913,
      "isl": 3914,
      "ologies": 3915,
      "ĠPlay": 3916,
      "care": 3917,
      "iment": 3918,
      "rael": 3919,
      "unte": 3920,
      "ĠAnge": 3921,
      "Ġmechan": 3922,
      "Ġloved": 3923,
      "Ġcolle": 3924,
      "Ġlots": 3925,
      "100": 3926,
      "Ġfra": 3927,
      "asy": 3928,
      "Ġsurv": 3929,
      "While": 3930,
      "ken": 3931,
      "Ġtrou": 3932,
      "Ġload": 3933,
      "Ġcompared": 3934,
      "Ġnotice": 3935,
      "Ġdamage": 3936,
      "ĠGet": 3937,
      "ado": 3938,
      "rial": 3939,
      "Ġframe": 3940,
      "mat": 3941,
      "Ġnamed": 3942,
      "Ġstudies": 3943,
      "Ġhundred": 3944,
      "ĠInter": 3945,
      "Ġphoto": 3946,
      "Ġwine": 3947,
      "Ġpow": 3948,
      "Ġcry": 3949,
      "ĠOver": 3950,
      "ĠAss": 3951,
      "Ġmonitor": 3952,
      "Ġfollowed": 3953,
      "Ġexisting": 3954,
      "Ġassociated": 3955,
      "ooth": 3956,
      "Ġhelping": 3957,
      "ĠReview": 3958,
      "29": 3959,
      "inate": 3960,
      "Ġadvice": 3961,
      "rian": 3962,
      "Ġgenerally": 3963,
      "Ġletter": 3964,
      "ĠAv": 3965,
      "amic": 3966,
      "ube": 3967,
      "ĠSur": 3968,
      "ĠRoad": 3969,
      "ero": 3970,
      "ĠDist": 3971,
      "ĠThom": 3972,
      "Ġpowerful": 3973,
      "TH": 3974,
      "iable": 3975,
      "Ġ@": 3976,
      "Ġmax": 3977,
      "Ġhaven": 3978,
      "ervation": 3979,
      "Ġarr": 3980,
      "Ġconduct": 3981,
      "ĠOF": 3982,
      "Ġdisapp": 3983,
      "Ġsurround": 3984,
      "ĠIndia": 3985,
      "AA": 3986,
      "CC": 3987,
      "Ġdress": 3988,
      "ĠMac": 3989,
      "ĠPri": 3990,
      "osing": 3991,
      "azine": 3992,
      "ĠDesign": 3993,
      "ĠOffice": 3994,
      "ĠTexas": 3995,
      "Ġcash": 3996,
      "ĠFound": 3997,
      "ĠRich": 3998,
      "ĠRuss": 3999,
      "ĠFlorida": 4000,
      "inally": 4001,
      "ĠMart": 4002,
      "akers": 4003,
      "Ġadvantage": 4004,
      "using": 4005,
      "Ġshop": 4006,
      "ampions": 4007,
      "Ġiniti": 4008,
      "Ġden": 4009,
      "Ġopening": 4010,
      "Ġconstruction": 4011,
      "Ġfigure": 4012,
      "icip": 4013,
      "ĠBoard": 4014,
      "ĠCouncil": 4015,
      "ĠChristmas": 4016,
      "force": 4017,
      "ĠEv": 4018,
      "ĠAny": 4019,
      "Ġprotection": 4020,
      "Ġâ": 4021,
      "Ġresist": 4022,
      "Ġtrain": 4023,
      "Ġreplace": 4024,
      "ĠEduc": 4025,
      "odes": 4026,
      "ĠResearch": 4027,
      "ifying": 4028,
      "Ġble": 4029,
      "Ġaren": 4030,
      "ĠWednesday": 4031,
      "Ġguide": 4032,
      "Ġtransfer": 4033,
      "Ġpatient": 4034,
      "Ġpages": 4035,
      "Ġclin": 4036,
      "anging": 4037,
      "ĠSuper": 4038,
      "encies": 4039,
      "Ġtoward": 4040,
      "ĠFrench": 4041,
      "Ġpartner": 4042,
      "Please": 4043,
      "Ġsale": 4044,
      "Ġlines": 4045,
      "ĠSl": 4046,
      "ĠBrown": 4047,
      "Ġtrail": 4048,
      "ĠMichael": 4049,
      "Ġwat": 4050,
      "ĠCong": 4051,
      "ports": 4052,
      "Ġappreci": 4053,
      "Ġexpand": 4054,
      "Ġessential": 4055,
      "Ġeasier": 4056,
      "ls": 4057,
      "Ġadjust": 4058,
      "Ġoffering": 4059,
      "Ġbreat": 4060,
      "ĠMany": 4061,
      "lied": 4062,
      "ĠGovern": 4063,
      "Ġcamera": 4064,
      "ustr": 4065,
      "ĠIsland": 4066,
      "Ġtruly": 4067,
      "ym": 4068,
      "oving": 4069,
      "Ġobv": 4070,
      "Ġwouldn": 4071,
      "eria": 4072,
      "text": 4073,
      "Ġserved": 4074,
      "Ġsetting": 4075,
      "Ġsteps": 4076,
      "Ġmaster": 4077,
      "ooper": 4078,
      "ĠOpen": 4079,
      "Ġclient": 4080,
      "Ġcontinued": 4081,
      "Some": 4082,
      "Ġnut": 4083,
      "ĠIS": 4084,
      "ĠBank": 4085,
      "DA": 4086,
      "itors": 4087,
      "iced": 4088,
      "Ġgift": 4089,
      "Ġ2005": 4090,
      "Ġspread": 4091,
      "Ġpeace": 4092,
      "know": 4093,
      "ĠHot": 4094,
      "Ġhus": 4095
    },
    "merges": [
      [
        "Ġ",
        "t"
      ],
      [
        "Ġ",
        "a"
      ],
      [
        "i",
        "n"
      ],
      [
        "h",
        "e"
      ],
      [
        "r",
        "e"
      ],
      [
        "o",
        "n"
      ],
      [
        "Ġt",
        "he"
      ],
      [
        "e",
        "r"
      ],
      [
        "Ġ",
        "s"
      ],
      [
        "Ġ",
        "w"
      ],
      [
        "a",
        "t"
      ],
      [
        "Ġ",
        "o"
      ],
      [
        "n",
        "d"
      ],
      [
        "Ġ",
        "c"
      ],
      [
        "i",
        "t"
      ],
      [
        "o",
        "r"
      ],
      [
        "e",
        "s"
      ],
      [
        "i",
        "s"
      ],
      [
        "e",
        "n"
      ],
      [
        "o",
        "u"
      ],
      [
        "Ġ",
        "f"
      ],
      [
        "Ġ",
        "b"
      ],
      [
        "in",
        "g"
      ],
      [
        "Ġ",
        "p"
      ],
      [
        "e",
        "d"
      ],
      [
        "a",
        "n"
      ],
      [
        "a",
        "l"
      ],
      [
        "Ġt",
        "o"
      ],
      [
        "Ġ",
        "m"
      ],
      [
        "a",
        "r"
      ],
      [
        "Ġa",
        "nd"
      ],
      [
        "Ġo",
        "f"
      ],
      [
        "Ġ",
        "in"
      ],
      [
        "Ġ",
        "d"
      ],
      [
        "i",
        "c"
      ],
      [
        "l",
        "e"
      ],
      [
        "Ġ",
        "h"
      ],
      [
        "a",
        "s"
      ],
      [
        "o",
        "m"
      ],
      [
        "i",
        "on"
      ],
      [
        "Ġt",
        "h"
      ],
      [
        "â",
        "Ģ"
      ],
      [
        "l",
        "l"
      ],
      [
        "en",
        "t"
      ],
      [
        "Ġ",
        "l"
      ],
      [
        "v",
        "e"
      ],
      [
        "Ġ",
        "e"
      ],
      [
        "s",
        "t"
      ],
      [
        "Ġ",
        "re"
      ],
      [
        "Ġ",
        "n"
      ],
      [
        "r",
        "o"
      ],
      [
        "Ġ",
        "y"
      ],
      [
        "Ġ",
        "g"
      ],
      [
        "l",
        "y"
      ],
      [
        "Ġ",
        "I"
      ],
      [
        "c",
        "t"
      ],
      [
        "Ġb",
        "e"
      ],
      [
        "Ġ",
        "T"
      ],
      [
        "u",
        "t"
      ],
      [
        "e",
        "t"
      ],
      [
        "Ġ",
        "is"
      ],
      [
        "Ġ",
        "S"
      ],
      [
        "o",
        "t"
      ],
      [
        "Ġy",
        "ou"
      ],
      [
        "i",
        "d"
      ],
      [
        "a",
        "y"
      ],
      [
        "Ġf",
        "or"
      ],
      [
        "Ġ",
        "on"
      ],
      [
        "o",
        "w"
      ],
      [
        "Ġ",
        "A"
      ],
      [
        "u",
        "r"
      ],
      [
        "Ġ",
        "C"
      ],
      [
        "s",
        "e"
      ],
      [
        "i",
        "m"
      ],
      [
        "c",
        "e"
      ],
      [
        "i",
        "g"
      ],
      [
        "a",
        "d"
      ],
      [
        "a",
        "m"
      ],
      [
        "v",
        "er"
      ],
      [
        "Ġth",
        "at"
      ],
      [
        "Ġ",
        "u"
      ],
      [
        "c",
        "h"
      ],
      [
        "i",
        "l"
      ],
      [
        "at",
        "ion"
      ],
      [
        "it",
        "h"
      ],
      [
        "Ġs",
        "t"
      ],
      [
        "o",
        "l"
      ],
      [
        "i",
        "r"
      ],
      [
        "Ġw",
        "ith"
      ],
      [
        "âĢ",
        "Ļ"
      ],
      [
        "Ġ",
        "M"
      ],
      [
        "Ġ",
        "he"
      ],
      [
        "Ġ",
        "it"
      ],
      [
        "r",
        "a"
      ],
      [
        "Ġw",
        "e"
      ],
      [
        "Ġ",
        "B"
      ],
      [
        "Ġ",
        "P"
      ],
      [
        "Ġw",
        "h"
      ],
      [
        "Ġa",
        "s"
      ],
      [
        "Ġa",
        "n"
      ],
      [
        "er",
        "s"
      ],
      [
        "i",
        "ll"
      ],
      [
        "i",
        "f"
      ],
      [
        "k",
        "e"
      ],
      [
        "Ġp",
        "ro"
      ],
      [
        "Ġa",
        "re"
      ],
      [
        "t",
        "er"
      ],
      [
        "Ġh",
        "a"
      ],
      [
        "Ġ",
        "W"
      ],
      [
        "g",
        "e"
      ],
      [
        "Ġc",
        "on"
      ],
      [
        "l",
        "d"
      ],
      [
        "o",
        "o"
      ],
      [
        "at",
        "e"
      ],
      [
        "Ġo",
        "r"
      ],
      [
        "he",
        "r"
      ],
      [
        "Ġ",
        "H"
      ],
      [
        "u",
        "l"
      ],
      [
        "es",
        "s"
      ],
      [
        "c",
        "k"
      ],
      [
        "Ġ",
        "D"
      ],
      [
        "p",
        "p"
      ],
      [
        "Ġa",
        "t"
      ],
      [
        "Ġc",
        "om"
      ],
      [
        "Ġs",
        "e"
      ],
      [
        "o",
        "re"
      ],
      [
        "m",
        "ent"
      ],
      [
        "es",
        "t"
      ],
      [
        "Ġ",
        "F"
      ],
      [
        "ĠT",
        "he"
      ],
      [
        "Ġd",
        "e"
      ],
      [
        "r",
        "i"
      ],
      [
        "Ġ",
        "R"
      ],
      [
        "Ġ",
        "1"
      ],
      [
        "u",
        "s"
      ],
      [
        "t",
        "h"
      ],
      [
        "Ġ",
        "("
      ],
      [
        "ig",
        "h"
      ],
      [
        "a",
        "b"
      ],
      [
        "Ġ",
        "2"
      ],
      [
        "is",
        "t"
      ],
      [
        "Ġw",
        "as"
      ],
      [
        "r",
        "om"
      ],
      [
        "Ġn",
        "e"
      ],
      [
        "p",
        "e"
      ],
      [
        "u",
        "n"
      ],
      [
        "Ġe",
        "x"
      ],
      [
        "re",
        "s"
      ],
      [
        "it",
        "y"
      ],
      [
        "Ġ",
        "L"
      ],
      [
        "i",
        "ve"
      ],
      [
        "Ġs",
        "u"
      ],
      [
        "q",
        "u"
      ],
      [
        "an",
        "t"
      ],
      [
        "Ġ",
        "âĢ"
      ],
      [
        "Ġ",
        "v"
      ],
      [
        "o",
        "p"
      ],
      [
        "Ġ",
        "r"
      ],
      [
        "Ġha",
        "ve"
      ],
      [
        "Ġ",
        "N"
      ],
      [
        "e",
        "m"
      ],
      [
        "Ġ",
        "G"
      ],
      [
        "or",
        "t"
      ],
      [
        "ar",
        "t"
      ],
      [
        "Ġ",
        "E"
      ],
      [
        "Ġyou",
        "r"
      ],
      [
        "a",
        "in"
      ],
      [
        "Ġth",
        "is"
      ],
      [
        "Ġn",
        "ot"
      ],
      [
        "n",
        "t"
      ],
      [
        "u",
        "st"
      ],
      [
        "Ġf",
        "rom"
      ],
      [
        "Ġs",
        "h"
      ],
      [
        "u",
        "m"
      ],
      [
        "o",
        "s"
      ],
      [
        "Ġb",
        "y"
      ],
      [
        "i",
        "es"
      ],
      [
        "e",
        "l"
      ],
      [
        "a",
        "nd"
      ],
      [
        "igh",
        "t"
      ],
      [
        "Ġa",
        "l"
      ],
      [
        "Ġc",
        "h"
      ],
      [
        "Ġc",
        "an"
      ],
      [
        "al",
        "l"
      ],
      [
        "om",
        "e"
      ],
      [
        "Ġ",
        "le"
      ],
      [
        "Ġ",
        "O"
      ],
      [
        "i",
        "e"
      ],
      [
        "ou",
        "t"
      ],
      [
        "ar",
        "d"
      ],
      [
        "Ġw",
        "ill"
      ],
      [
        "ou",
        "ld"
      ],
      [
        "Ġd",
        "o"
      ],
      [
        "Ġa",
        "b"
      ],
      [
        "ou",
        "r"
      ],
      [
        "re",
        "d"
      ],
      [
        "u",
        "d"
      ],
      [
        "o",
        "st"
      ],
      [
        "t",
        "e"
      ],
      [
        "al",
        "ly"
      ],
      [
        "i",
        "v"
      ],
      [
        "0",
        "0"
      ],
      [
        "Ġw",
        "or"
      ],
      [
        "g",
        "h"
      ],
      [
        "'",
        "s"
      ],
      [
        "Ġp",
        "l"
      ],
      [
        "o",
        "d"
      ],
      [
        "as",
        "t"
      ],
      [
        "Ġa",
        "ll"
      ],
      [
        "e",
        "ar"
      ],
      [
        "r",
        "ou"
      ],
      [
        "Ġ",
        "J"
      ],
      [
        "c",
        "i"
      ],
      [
        "Ġ",
        "j"
      ],
      [
        "id",
        "e"
      ],
      [
        "a",
        "k"
      ],
      [
        "T",
        "he"
      ],
      [
        "u",
        "re"
      ],
      [
        "in",
        "e"
      ],
      [
        "a",
        "g"
      ],
      [
        "Ġ",
        "k"
      ],
      [
        "f",
        "e"
      ],
      [
        "Ġh",
        "as"
      ],
      [
        "p",
        "t"
      ],
      [
        "Ġs",
        "o"
      ],
      [
        "p",
        "er"
      ],
      [
        "ic",
        "e"
      ],
      [
        "Ġm",
        "e"
      ],
      [
        "âĢ",
        "Ŀ"
      ],
      [
        "a",
        "ck"
      ],
      [
        "Ġw",
        "he"
      ],
      [
        "Ġb",
        "ut"
      ],
      [
        "Ġu",
        "s"
      ],
      [
        "ct",
        "ion"
      ],
      [
        "a",
        "ge"
      ],
      [
        "Ġcom",
        "p"
      ],
      [
        "t",
        "her"
      ],
      [
        "Ġa",
        "d"
      ],
      [
        "a",
        "c"
      ],
      [
        "Ġo",
        "ut"
      ],
      [
        "ic",
        "h"
      ],
      [
        "oo",
        "k"
      ],
      [
        "Ġu",
        "p"
      ],
      [
        "Ġ",
        "U"
      ],
      [
        "a",
        "ke"
      ],
      [
        "Ġthe",
        "y"
      ],
      [
        "on",
        "e"
      ],
      [
        "Ġm",
        "ore"
      ],
      [
        "in",
        "d"
      ],
      [
        "a",
        "re"
      ],
      [
        "s",
        "o"
      ],
      [
        "Ġ",
        "en"
      ],
      [
        "o",
        "g"
      ],
      [
        "Ġthe",
        "ir"
      ],
      [
        "r",
        "y"
      ],
      [
        "p",
        "l"
      ],
      [
        "on",
        "g"
      ],
      [
        "at",
        "ed"
      ],
      [
        "im",
        "e"
      ],
      [
        "ver",
        "y"
      ],
      [
        "ab",
        "le"
      ],
      [
        "Ġt",
        "e"
      ],
      [
        "Ġm",
        "y"
      ],
      [
        "oo",
        "d"
      ],
      [
        "c",
        "c"
      ],
      [
        "ou",
        "s"
      ],
      [
        "an",
        "s"
      ],
      [
        "Ġh",
        "is"
      ],
      [
        "it",
        "e"
      ],
      [
        "Ġc",
        "l"
      ],
      [
        "i",
        "z"
      ],
      [
        "Ġon",
        "e"
      ],
      [
        "Ġs",
        "a"
      ],
      [
        "am",
        "e"
      ],
      [
        "i",
        "ke"
      ],
      [
        "ĠâĢ",
        "ľ"
      ],
      [
        "Ġab",
        "out"
      ],
      [
        "or",
        "m"
      ],
      [
        "i",
        "p"
      ],
      [
        "Ġwh",
        "o"
      ],
      [
        "ĠT",
        "h"
      ],
      [
        "i",
        "b"
      ],
      [
        "Ġ",
        "im"
      ],
      [
        "ĠI",
        "n"
      ],
      [
        "Ġcon",
        "t"
      ],
      [
        "Ġo",
        "ur"
      ],
      [
        "ion",
        "s"
      ],
      [
        "d",
        "u"
      ],
      [
        "Ġg",
        "o"
      ],
      [
        "Ġm",
        "an"
      ],
      [
        "r",
        "u"
      ],
      [
        "Ġin",
        "c"
      ],
      [
        "Ġ2",
        "0"
      ],
      [
        "an",
        "ce"
      ],
      [
        "n",
        "e"
      ],
      [
        "Ġwh",
        "ich"
      ],
      [
        "Ġf",
        "e"
      ],
      [
        "Ġ",
        "K"
      ],
      [
        "o",
        "c"
      ],
      [
        "as",
        "e"
      ],
      [
        "b",
        "er"
      ],
      [
        "i",
        "re"
      ],
      [
        "i",
        "a"
      ],
      [
        "a",
        "ct"
      ],
      [
        "Ġ",
        "Y"
      ],
      [
        "t",
        "o"
      ],
      [
        "Ġre",
        "s"
      ],
      [
        "f",
        "f"
      ],
      [
        "Ġwor",
        "k"
      ],
      [
        "ay",
        "s"
      ],
      [
        "a",
        "il"
      ],
      [
        "re",
        "e"
      ],
      [
        "re",
        "at"
      ],
      [
        "Ġp",
        "er"
      ],
      [
        "a",
        "ce"
      ],
      [
        "ig",
        "n"
      ],
      [
        "ar",
        "y"
      ],
      [
        "Ġo",
        "ther"
      ],
      [
        "a",
        "p"
      ],
      [
        "ation",
        "s"
      ],
      [
        "Ġa",
        "pp"
      ],
      [
        "a",
        "ch"
      ],
      [
        "ul",
        "t"
      ],
      [
        "e",
        "p"
      ],
      [
        "v",
        "en"
      ],
      [
        "ic",
        "k"
      ],
      [
        ".",
        "."
      ],
      [
        "as",
        "s"
      ],
      [
        "Ġy",
        "ear"
      ],
      [
        "u",
        "b"
      ],
      [
        "Ġof",
        "f"
      ],
      [
        "u",
        "e"
      ],
      [
        "ĠS",
        "t"
      ],
      [
        "Ġt",
        "ime"
      ],
      [
        "a",
        "u"
      ],
      [
        "ic",
        "al"
      ],
      [
        "Ġs",
        "ome"
      ],
      [
        "i",
        "le"
      ],
      [
        "Ġ",
        "qu"
      ],
      [
        "Ġl",
        "ike"
      ],
      [
        "Ġd",
        "is"
      ],
      [
        "Ġan",
        "y"
      ],
      [
        "Ġal",
        "so"
      ],
      [
        "n",
        "ow"
      ],
      [
        "ou",
        "nt"
      ],
      [
        "Ġg",
        "et"
      ],
      [
        "ve",
        "l"
      ],
      [
        "ar",
        "k"
      ],
      [
        "res",
        "s"
      ],
      [
        "Ġu",
        "n"
      ],
      [
        "or",
        "d"
      ],
      [
        "Ġne",
        "w"
      ],
      [
        "en",
        "ce"
      ],
      [
        "f",
        "orm"
      ],
      [
        "ĠI",
        "t"
      ],
      [
        "er",
        "v"
      ],
      [
        "ing",
        "s"
      ],
      [
        "Ġ",
        "V"
      ],
      [
        "Ġbe",
        "en"
      ],
      [
        "Ġthe",
        "m"
      ],
      [
        "Ġs",
        "p"
      ],
      [
        "Ġp",
        "art"
      ],
      [
        "Ġ",
        "\""
      ],
      [
        "Ġ",
        "-"
      ],
      [
        "Ġthe",
        "re"
      ],
      [
        "Ġp",
        "e"
      ],
      [
        "Ġh",
        "ad"
      ],
      [
        "Ġ",
        "3"
      ],
      [
        "Ġwe",
        "re"
      ],
      [
        "o",
        "ve"
      ],
      [
        "Ġa",
        "g"
      ],
      [
        "o",
        "se"
      ],
      [
        "Ġwhe",
        "n"
      ],
      [
        "ĠC",
        "h"
      ],
      [
        "on",
        "d"
      ],
      [
        "ou",
        "gh"
      ],
      [
        "it",
        "ion"
      ],
      [
        "Ġo",
        "ver"
      ],
      [
        "Ġwh",
        "at"
      ],
      [
        "Ġhe",
        "r"
      ],
      [
        "Ġ",
        "if"
      ],
      [
        "Ġw",
        "ould"
      ],
      [
        "a",
        "v"
      ],
      [
        "Ġa",
        "r"
      ],
      [
        "i",
        "al"
      ],
      [
        "in",
        "k"
      ],
      [
        "en",
        "s"
      ],
      [
        "or",
        "s"
      ],
      [
        "ent",
        "s"
      ],
      [
        "Ġth",
        "an"
      ],
      [
        "Ġ20",
        "1"
      ],
      [
        "Ġt",
        "r"
      ],
      [
        "Ġj",
        "ust"
      ],
      [
        "ou",
        "nd"
      ],
      [
        "Ġ",
        "ro"
      ],
      [
        "o",
        "b"
      ],
      [
        "Ġbe",
        "c"
      ],
      [
        "in",
        "t"
      ],
      [
        "Ġs",
        "pe"
      ],
      [
        "is",
        "h"
      ],
      [
        "m",
        "er"
      ],
      [
        "Ġre",
        "c"
      ],
      [
        "Ġk",
        "now"
      ],
      [
        "ir",
        "st"
      ],
      [
        "op",
        "le"
      ],
      [
        "il",
        "d"
      ],
      [
        "p",
        "ort"
      ],
      [
        "Ġp",
        "re"
      ],
      [
        "ĠW",
        "e"
      ],
      [
        "Ġin",
        "to"
      ],
      [
        "w",
        "n"
      ],
      [
        "Ġsa",
        "id"
      ],
      [
        "re",
        "n"
      ],
      [
        "Ġne",
        "ed"
      ],
      [
        "nd",
        "er"
      ],
      [
        "o",
        "y"
      ],
      [
        "or",
        "y"
      ],
      [
        "Ġh",
        "ow"
      ],
      [
        "ĠH",
        "e"
      ],
      [
        "ow",
        "n"
      ],
      [
        "Ġa",
        "m"
      ],
      [
        "f",
        "ter"
      ],
      [
        "o",
        "v"
      ],
      [
        "at",
        "er"
      ],
      [
        "Ġa",
        "cc"
      ],
      [
        "l",
        "ic"
      ],
      [
        "ad",
        "e"
      ],
      [
        "Ġpe",
        "ople"
      ],
      [
        "rou",
        "gh"
      ],
      [
        "ver",
        "s"
      ],
      [
        "it",
        "t"
      ],
      [
        "Ġt",
        "w"
      ],
      [
        "Ġs",
        "c"
      ],
      [
        "ol",
        "d"
      ],
      [
        "Ġn",
        "o"
      ],
      [
        "Ġc",
        "o"
      ],
      [
        "Ġit",
        "s"
      ],
      [
        "an",
        "g"
      ],
      [
        "n",
        "ing"
      ],
      [
        "Ġd",
        "es"
      ],
      [
        "Ġb",
        "l"
      ],
      [
        "Ġm",
        "ay"
      ],
      [
        "l",
        "ud"
      ],
      [
        "w",
        "e"
      ],
      [
        "on",
        "s"
      ],
      [
        "Ġf",
        "irst"
      ],
      [
        "ĠâĢ",
        "ĵ"
      ],
      [
        "Ġs",
        "he"
      ],
      [
        "u",
        "al"
      ],
      [
        "am",
        "p"
      ],
      [
        "'",
        "t"
      ],
      [
        "c",
        "es"
      ],
      [
        "au",
        "se"
      ],
      [
        "ci",
        "al"
      ],
      [
        "Ġcom",
        "m"
      ],
      [
        "he",
        "d"
      ],
      [
        "i",
        "an"
      ],
      [
        "at",
        "es"
      ],
      [
        "l",
        "p"
      ],
      [
        "f",
        "t"
      ],
      [
        "Ġad",
        "d"
      ],
      [
        "Ġon",
        "ly"
      ],
      [
        "r",
        "ic"
      ],
      [
        "l",
        "es"
      ],
      [
        "Ġm",
        "ake"
      ],
      [
        "u",
        "ll"
      ],
      [
        "Ġt",
        "ra"
      ],
      [
        "Ġ",
        "4"
      ],
      [
        "Ġbe",
        "t"
      ],
      [
        "Ġm",
        "ost"
      ],
      [
        "d",
        "ay"
      ],
      [
        "re",
        "nt"
      ],
      [
        "Ġe",
        "m"
      ],
      [
        "ment",
        "s"
      ],
      [
        "Ġhe",
        "lp"
      ],
      [
        "Ġl",
        "ook"
      ],
      [
        "Ġp",
        "o"
      ],
      [
        "ĠTh",
        "is"
      ],
      [
        "Ġb",
        "ack"
      ],
      [
        "ter",
        "n"
      ],
      [
        "g",
        "r"
      ],
      [
        "ĠR",
        "e"
      ],
      [
        "Ġin",
        "d"
      ],
      [
        "Ġ",
        "5"
      ],
      [
        "Ġinc",
        "lud"
      ],
      [
        "e",
        "nd"
      ],
      [
        "Ġ1",
        "9"
      ],
      [
        "Ġw",
        "ant"
      ],
      [
        "Ġe",
        "very"
      ],
      [
        "Ġpro",
        "v"
      ],
      [
        "Ġf",
        "l"
      ],
      [
        "rou",
        "nd"
      ],
      [
        "Ġu",
        "se"
      ],
      [
        "Ġth",
        "rough"
      ],
      [
        "i",
        "ly"
      ],
      [
        "Ġtw",
        "o"
      ],
      [
        "Ġpro",
        "du"
      ],
      [
        "Ġse",
        "e"
      ],
      [
        "at",
        "ing"
      ],
      [
        ")",
        "."
      ],
      [
        "ct",
        "s"
      ],
      [
        "ie",
        "w"
      ],
      [
        "Ġcon",
        "s"
      ],
      [
        "h",
        "ing"
      ],
      [
        "i",
        "ous"
      ],
      [
        "is",
        "e"
      ],
      [
        "Ġwe",
        "ll"
      ],
      [
        "k",
        "s"
      ],
      [
        "Ġb",
        "u"
      ],
      [
        "e",
        "w"
      ],
      [
        "Ġthe",
        "se"
      ],
      [
        "is",
        "s"
      ],
      [
        "Ġu",
        "nder"
      ],
      [
        "Ġa",
        "fter"
      ],
      [
        "x",
        "t"
      ],
      [
        "it",
        "ies"
      ],
      [
        "o",
        "ll"
      ],
      [
        "Ġp",
        "h"
      ],
      [
        "j",
        "e"
      ],
      [
        "a",
        "w"
      ],
      [
        "Ġa",
        "ct"
      ],
      [
        "Ġs",
        "erv"
      ],
      [
        "p",
        "h"
      ],
      [
        "se",
        "l"
      ],
      [
        "if",
        "e"
      ],
      [
        "Ġd",
        "if"
      ],
      [
        "f",
        "ore"
      ],
      [
        "c",
        "ed"
      ],
      [
        "Ġc",
        "ould"
      ],
      [
        "T",
        "h"
      ],
      [
        "Ġre",
        "l"
      ],
      [
        "er",
        "t"
      ],
      [
        "Ġsu",
        "pp"
      ],
      [
        "ur",
        "n"
      ],
      [
        "Ġpl",
        "ay"
      ],
      [
        "ro",
        "w"
      ],
      [
        "if",
        "ic"
      ],
      [
        "Ġyear",
        "s"
      ],
      [
        "he",
        "n"
      ],
      [
        "Ġs",
        "y"
      ],
      [
        "u",
        "ch"
      ],
      [
        "t",
        "ing"
      ],
      [
        "al",
        "s"
      ],
      [
        "Ġ",
        "very"
      ],
      [
        "ers",
        "on"
      ],
      [
        "Ġin",
        "v"
      ],
      [
        "Ġe",
        "ven"
      ],
      [
        "Ġ",
        "ra"
      ],
      [
        "r",
        "it"
      ],
      [
        "Ġn",
        "ow"
      ],
      [
        "Ġh",
        "im"
      ],
      [
        "Ġw",
        "ay"
      ],
      [
        "Ġg",
        "ood"
      ],
      [
        "Ġp",
        "r"
      ],
      [
        "on",
        "t"
      ],
      [
        "Ġre",
        "g"
      ],
      [
        "an",
        "ge"
      ],
      [
        "Ġman",
        "y"
      ],
      [
        "in",
        "ess"
      ],
      [
        "le",
        "ct"
      ],
      [
        "o",
        "ck"
      ],
      [
        "Ġe",
        "v"
      ],
      [
        "|",
        "|"
      ],
      [
        "Ġthe",
        "n"
      ],
      [
        "Ġim",
        "p"
      ],
      [
        "Ġs",
        "m"
      ],
      [
        "ation",
        "al"
      ],
      [
        "Ġsh",
        "ould"
      ],
      [
        "c",
        "ess"
      ],
      [
        "Ġc",
        "ol"
      ],
      [
        "os",
        "s"
      ],
      [
        "Ġde",
        "c"
      ],
      [
        "Ġst",
        "ud"
      ],
      [
        "Ġ2",
        "00"
      ],
      [
        "Ġre",
        "m"
      ],
      [
        "il",
        "ity"
      ],
      [
        "Ġ",
        "ke"
      ],
      [
        "as",
        "ed"
      ],
      [
        "ĠY",
        "ou"
      ],
      [
        "ol",
        "og"
      ],
      [
        "c",
        "om"
      ],
      [
        "Ġwhe",
        "re"
      ],
      [
        "ak",
        "ing"
      ],
      [
        "ot",
        "h"
      ],
      [
        "o",
        "ol"
      ],
      [
        "f",
        "fe"
      ],
      [
        "f",
        "ul"
      ],
      [
        "Ġbec",
        "ause"
      ],
      [
        "Ġr",
        "ight"
      ],
      [
        "ib",
        "le"
      ],
      [
        ".",
        "âĢĿ"
      ],
      [
        "an",
        "y"
      ],
      [
        "id",
        "ent"
      ],
      [
        "b",
        "s"
      ],
      [
        "u",
        "res"
      ],
      [
        "Ġd",
        "id"
      ],
      [
        "w",
        "ard"
      ],
      [
        "er",
        "m"
      ],
      [
        "ĠU",
        "n"
      ],
      [
        "ul",
        "ar"
      ],
      [
        "Ġse",
        "c"
      ],
      [
        "Ġd",
        "on"
      ],
      [
        "Ġg",
        "u"
      ],
      [
        "Ġst",
        "art"
      ],
      [
        "Ġg",
        "reat"
      ],
      [
        "g",
        "et"
      ],
      [
        "ĠW",
        "h"
      ],
      [
        "t",
        "s"
      ],
      [
        "b",
        "le"
      ],
      [
        "Ġb",
        "us"
      ],
      [
        "Ġo",
        "wn"
      ],
      [
        "ow",
        "er"
      ],
      [
        ")",
        ","
      ],
      [
        "Ġsu",
        "ch"
      ],
      [
        "ĠS",
        "e"
      ],
      [
        "at",
        "h"
      ],
      [
        "Ġf",
        "in"
      ],
      [
        "Ġa",
        "c"
      ],
      [
        "ĠA",
        "s"
      ],
      [
        "Ġth",
        "ink"
      ],
      [
        "Ġex",
        "per"
      ],
      [
        "at",
        "ive"
      ],
      [
        "Ġd",
        "own"
      ],
      [
        "form",
        "ation"
      ],
      [
        "ic",
        "es"
      ],
      [
        "Ġ",
        "$"
      ],
      [
        "ur",
        "ing"
      ],
      [
        "or",
        "k"
      ],
      [
        "Ġm",
        "uch"
      ],
      [
        "l",
        "i"
      ],
      [
        "it",
        "s"
      ],
      [
        "h",
        "ip"
      ],
      [
        "Ġat",
        "t"
      ],
      [
        "Ġto",
        "o"
      ],
      [
        "y",
        "s"
      ],
      [
        "he",
        "s"
      ],
      [
        "Ġ",
        "ent"
      ],
      [
        "Ġ",
        "6"
      ],
      [
        "ic",
        "s"
      ],
      [
        "t",
        "y"
      ],
      [
        "g",
        "an"
      ],
      [
        "st",
        "em"
      ],
      [
        "ot",
        "her"
      ],
      [
        "ar",
        "ch"
      ],
      [
        "al",
        "th"
      ],
      [
        "u",
        "p"
      ],
      [
        "it",
        "ed"
      ],
      [
        "Ġin",
        "te"
      ],
      [
        "I",
        "n"
      ],
      [
        "ĠC",
        "om"
      ],
      [
        "Ġd",
        "ay"
      ],
      [
        "vel",
        "op"
      ],
      [
        "ĠA",
        "nd"
      ],
      [
        "Ġl",
        "ong"
      ],
      [
        "pe",
        "ct"
      ],
      [
        "ic",
        "t"
      ],
      [
        "Ġs",
        "et"
      ],
      [
        "u",
        "nd"
      ],
      [
        "Ġwe",
        "e"
      ],
      [
        "Ġh",
        "igh"
      ],
      [
        "Ġin",
        "st"
      ],
      [
        "a",
        "ir"
      ],
      [
        "ri",
        "b"
      ],
      [
        "as",
        "on"
      ],
      [
        "Ġbe",
        "l"
      ],
      [
        "en",
        "er"
      ],
      [
        "om",
        "et"
      ],
      [
        "Ġag",
        "ain"
      ],
      [
        "Ġp",
        "res"
      ],
      [
        "Ġbe",
        "ing"
      ],
      [
        "e",
        "ll"
      ],
      [
        "Ġdo",
        "es"
      ],
      [
        "Ġt",
        "ake"
      ],
      [
        "Ġm",
        "on"
      ],
      [
        "Ġf",
        "ind"
      ],
      [
        "Ġhe",
        "re"
      ],
      [
        "ra",
        "ct"
      ],
      [
        "Ġe",
        "nd"
      ],
      [
        "Ġdif",
        "fe"
      ],
      [
        "Ġre",
        "ad"
      ],
      [
        "n",
        "er"
      ],
      [
        "Ġth",
        "ose"
      ],
      [
        "Ġbe",
        "fore"
      ],
      [
        "Ġ",
        "&"
      ],
      [
        "Ġc",
        "all"
      ],
      [
        "re",
        "st"
      ],
      [
        "ĠP",
        "ro"
      ],
      [
        "Ġsh",
        "ow"
      ],
      [
        "ĠD",
        "e"
      ],
      [
        "Ġb",
        "est"
      ],
      [
        "Ġm",
        "ade"
      ],
      [
        "i",
        "ed"
      ],
      [
        "Ġre",
        "qu"
      ],
      [
        "ĠA",
        "n"
      ],
      [
        "Ġs",
        "im"
      ],
      [
        "al",
        "k"
      ],
      [
        "a",
        "x"
      ],
      [
        "u",
        "es"
      ],
      [
        "Ġp",
        "erson"
      ],
      [
        "âĢ",
        "ľ"
      ],
      [
        "oll",
        "ow"
      ],
      [
        "gr",
        "am"
      ],
      [
        "Ġh",
        "ome"
      ],
      [
        "Ġwor",
        "ld"
      ],
      [
        "c",
        "y"
      ],
      [
        "Ġl",
        "ast"
      ],
      [
        "Ġs",
        "ur"
      ],
      [
        "Ġas",
        "s"
      ],
      [
        "u",
        "ally"
      ],
      [
        "ĠI",
        "f"
      ],
      [
        "ch",
        "ool"
      ],
      [
        "Ġin",
        "s"
      ],
      [
        "ĠN",
        "ew"
      ],
      [
        "2",
        "0"
      ],
      [
        "w",
        "ay"
      ],
      [
        "i",
        "o"
      ],
      [
        "l",
        "ine"
      ],
      [
        "Ġc",
        "ar"
      ],
      [
        "i",
        "x"
      ],
      [
        "Ġin",
        "formation"
      ],
      [
        "Ġbus",
        "iness"
      ],
      [
        "Ġc",
        "he"
      ],
      [
        "Ġm",
        "in"
      ],
      [
        "Ġl",
        "oc"
      ],
      [
        "an",
        "k"
      ],
      [
        "n",
        "g"
      ],
      [
        "l",
        "ed"
      ],
      [
        "je",
        "ct"
      ],
      [
        "Ġb",
        "r"
      ],
      [
        "Ġa",
        "v"
      ],
      [
        "Ġe",
        "ar"
      ],
      [
        "ub",
        "lic"
      ],
      [
        "Ġf",
        "am"
      ],
      [
        "Ġ1",
        "0"
      ],
      [
        "Ġdis",
        "c"
      ],
      [
        "Ġm",
        "ark"
      ],
      [
        "Ġha",
        "nd"
      ],
      [
        "Ġ",
        "7"
      ],
      [
        "..",
        "."
      ],
      [
        "Ġm",
        "ed"
      ],
      [
        "Ġp",
        "ol"
      ],
      [
        "p",
        "en"
      ],
      [
        "v",
        "ing"
      ],
      [
        "Ġtr",
        "ans"
      ],
      [
        "W",
        "e"
      ],
      [
        "Ġle",
        "ad"
      ],
      [
        "Ġwh",
        "ile"
      ],
      [
        "Ġde",
        "velop"
      ],
      [
        "Ġl",
        "ife"
      ],
      [
        "Ġus",
        "ed"
      ],
      [
        "ĠB",
        "ut"
      ],
      [
        "ch",
        "n"
      ],
      [
        "at",
        "ch"
      ],
      [
        "Ġsy",
        "stem"
      ],
      [
        "Ġin",
        "ter"
      ],
      [
        "sel",
        "f"
      ],
      [
        "a",
        "ve"
      ],
      [
        "in",
        "s"
      ],
      [
        "Ġc",
        "re"
      ],
      [
        "Ġm",
        "em"
      ],
      [
        "n",
        "ess"
      ],
      [
        "p",
        "le"
      ],
      [
        "Ġm",
        "od"
      ],
      [
        "Ġc",
        "ount"
      ],
      [
        "in",
        "ce"
      ],
      [
        "ou",
        "se"
      ],
      [
        "p",
        "r"
      ],
      [
        "ro",
        "s"
      ],
      [
        "ce",
        "pt"
      ],
      [
        "Ġn",
        "um"
      ],
      [
        "Ġre",
        "ally"
      ],
      [
        ",",
        "âĢĿ"
      ],
      [
        "Ġe",
        "ach"
      ],
      [
        "Ġre",
        "t"
      ],
      [
        "ar",
        "m"
      ],
      [
        "Ġfor",
        "m"
      ],
      [
        "Ġgo",
        "ing"
      ],
      [
        "iv",
        "es"
      ],
      [
        "Ġ",
        "8"
      ],
      [
        "at",
        "her"
      ],
      [
        "a",
        "z"
      ],
      [
        "Ġth",
        "ough"
      ],
      [
        "Ġd",
        "et"
      ],
      [
        "Ġar",
        "t"
      ],
      [
        "Ġsu",
        "b"
      ],
      [
        "en",
        "e"
      ],
      [
        "Ġa",
        "round"
      ],
      [
        "ĠA",
        "l"
      ],
      [
        "Ġb",
        "ook"
      ],
      [
        "ĠS",
        "h"
      ],
      [
        "Ġsupp",
        "ort"
      ],
      [
        "v",
        "iew"
      ],
      [
        "im",
        "es"
      ],
      [
        "p",
        "s"
      ],
      [
        "we",
        "en"
      ],
      [
        "i",
        "ence"
      ],
      [
        "l",
        "and"
      ],
      [
        "Ġs",
        "omet"
      ],
      [
        ".",
        "\""
      ],
      [
        "Ġf",
        "ollow"
      ],
      [
        "Ġv",
        "is"
      ],
      [
        "in",
        "es"
      ],
      [
        "ak",
        "es"
      ],
      [
        "g",
        "g"
      ],
      [
        "mer",
        "ic"
      ],
      [
        "Ġcomp",
        "le"
      ],
      [
        "Ġ",
        "ed"
      ],
      [
        "Ġdes",
        "ign"
      ],
      [
        "e",
        "ver"
      ],
      [
        "ion",
        "al"
      ],
      [
        "Ġst",
        "ill"
      ],
      [
        "Ġs",
        "er"
      ],
      [
        "re",
        "ad"
      ],
      [
        "le",
        "ase"
      ],
      [
        "Ġg",
        "r"
      ],
      [
        "et",
        "s"
      ],
      [
        "Ġte",
        "am"
      ],
      [
        "a",
        "h"
      ],
      [
        "ĠS",
        "o"
      ],
      [
        "Ġc",
        "ur"
      ],
      [
        "Ġre",
        "al"
      ],
      [
        "Ġdiffe",
        "rent"
      ],
      [
        "iz",
        "e"
      ],
      [
        "Ġs",
        "ay"
      ],
      [
        "al",
        "e"
      ],
      [
        "ire",
        "ct"
      ],
      [
        "at",
        "a"
      ],
      [
        "as",
        "h"
      ],
      [
        "i",
        "vers"
      ],
      [
        "Ġc",
        "our"
      ],
      [
        "ction",
        "s"
      ],
      [
        "Ġs",
        "l"
      ],
      [
        "d",
        "er"
      ],
      [
        "ri",
        "end"
      ],
      [
        "Ġbet",
        "ween"
      ],
      [
        "Ġr",
        "un"
      ],
      [
        "Ġc",
        "are"
      ],
      [
        "ou",
        "n"
      ],
      [
        "Ġpro",
        "gram"
      ],
      [
        "ĠF",
        "or"
      ],
      [
        "Th",
        "is"
      ],
      [
        "Ġs",
        "ame"
      ],
      [
        "Ġst",
        "r"
      ],
      [
        "Ġpo",
        "int"
      ],
      [
        "Ġad",
        "v"
      ],
      [
        "v",
        "ed"
      ],
      [
        "ag",
        "es"
      ],
      [
        "e",
        "x"
      ],
      [
        "Ġprov",
        "id"
      ],
      [
        "Ġch",
        "ar"
      ],
      [
        "Ġfe",
        "el"
      ],
      [
        "Ġb",
        "oth"
      ],
      [
        "m",
        "an"
      ],
      [
        "ut",
        "e"
      ],
      [
        "Ġs",
        "ign"
      ],
      [
        "Ġ",
        "9"
      ],
      [
        "ĠThe",
        "y"
      ],
      [
        "ust",
        "om"
      ],
      [
        "I",
        "t"
      ],
      [
        "ĠA",
        "r"
      ],
      [
        "Ġa",
        "ut"
      ],
      [
        "W",
        "h"
      ],
      [
        "Ġcomm",
        "un"
      ],
      [
        "Ġpl",
        "ace"
      ],
      [
        "Ġs",
        "k"
      ],
      [
        "itt",
        "le"
      ],
      [
        "Ġch",
        "ild"
      ],
      [
        "Ġb",
        "o"
      ],
      [
        "Ġp",
        "ost"
      ],
      [
        "Ġth",
        "ree"
      ],
      [
        "Ġst",
        "ate"
      ],
      [
        "w",
        "ays"
      ],
      [
        "00",
        "0"
      ],
      [
        "ĠC",
        "l"
      ],
      [
        "Ġl",
        "ot"
      ],
      [
        "Ġha",
        "pp"
      ],
      [
        "Ġg",
        "l"
      ],
      [
        "Ġex",
        "p"
      ],
      [
        "ĠB",
        "e"
      ],
      [
        "ar",
        "s"
      ],
      [
        "Ġf",
        "ound"
      ],
      [
        "t",
        "he"
      ],
      [
        "Ġf",
        "ree"
      ],
      [
        "et",
        "y"
      ],
      [
        "Ġe",
        "as"
      ],
      [
        "Ġc",
        "le"
      ],
      [
        "Ġp",
        "ur"
      ],
      [
        "ĠA",
        "meric"
      ],
      [
        "Ġfe",
        "w"
      ],
      [
        "t",
        "en"
      ],
      [
        "it",
        "al"
      ],
      [
        "Ġre",
        "p"
      ],
      [
        "Ġl",
        "ist"
      ],
      [
        "Ġl",
        "ove"
      ],
      [
        "iz",
        "ed"
      ],
      [
        "Ġm",
        "et"
      ],
      [
        "t",
        "on"
      ],
      [
        "l",
        "ess"
      ],
      [
        "Ġhe",
        "alth"
      ],
      [
        "u",
        "c"
      ],
      [
        "o",
        "h"
      ],
      [
        "Ġth",
        "ings"
      ],
      [
        "i",
        "red"
      ],
      [
        "ut",
        "ion"
      ],
      [
        "od",
        "y"
      ],
      [
        "am",
        "es"
      ],
      [
        "ĠA",
        "d"
      ],
      [
        "Ġpro",
        "f"
      ],
      [
        "ffe",
        "ct"
      ],
      [
        "Ġmon",
        "th"
      ],
      [
        "Ġpro",
        "cess"
      ],
      [
        "Ġre",
        "f"
      ],
      [
        "Ġg",
        "ener"
      ],
      [
        "Ġex",
        "t"
      ],
      [
        "v",
        "es"
      ],
      [
        "ĠL",
        "e"
      ],
      [
        "Ġf",
        "ull"
      ],
      [
        "i",
        "ent"
      ],
      [
        "at",
        "ure"
      ],
      [
        "Ġim",
        "port"
      ],
      [
        "b",
        "e"
      ],
      [
        "Ġl",
        "ar"
      ],
      [
        "Ġc",
        "or"
      ],
      [
        "c",
        "ent"
      ],
      [
        "Ġf",
        "un"
      ],
      [
        "b",
        "ers"
      ],
      [
        "Ġte",
        "chn"
      ],
      [
        "th",
        "ing"
      ],
      [
        "Ġinte",
        "rest"
      ],
      [
        "Ġto",
        "p"
      ],
      [
        "Ġre",
        "port"
      ],
      [
        "t",
        "t"
      ],
      [
        "Ġl",
        "ittle"
      ],
      [
        "olog",
        "y"
      ],
      [
        "c",
        "l"
      ],
      [
        "Ġpl",
        "an"
      ],
      [
        "Ġcom",
        "e"
      ],
      [
        "ail",
        "able"
      ],
      [
        "Ġf",
        "r"
      ],
      [
        "c",
        "on"
      ],
      [
        "ĠB",
        "l"
      ],
      [
        "is",
        "hed"
      ],
      [
        "1",
        "0"
      ],
      [
        "ic",
        "ally"
      ],
      [
        "is",
        "m"
      ],
      [
        "Ġo",
        "b"
      ],
      [
        "Ġke",
        "ep"
      ],
      [
        "ver",
        "n"
      ],
      [
        "er",
        "ing"
      ],
      [
        "ie",
        "ld"
      ],
      [
        "Ġus",
        "ing"
      ],
      [
        "c",
        "er"
      ],
      [
        "ar",
        "n"
      ],
      [
        "Ġde",
        "f"
      ],
      [
        "ist",
        "s"
      ],
      [
        "ros",
        "s"
      ],
      [
        "ant",
        "s"
      ],
      [
        "Ġd",
        "uring"
      ],
      [
        "iv",
        "ing"
      ],
      [
        "Ġre",
        "st"
      ],
      [
        "ra",
        "nd"
      ],
      [
        "Ġc",
        "ustom"
      ],
      [
        "Ġo",
        "pen"
      ],
      [
        "al",
        "ity"
      ],
      [
        "u",
        "g"
      ],
      [
        "Ġpart",
        "ic"
      ],
      [
        "Ġres",
        "p"
      ],
      [
        "Ġsomet",
        "hing"
      ],
      [
        "Ġcont",
        "in"
      ],
      [
        "Ġcomp",
        "any"
      ],
      [
        "Ġis",
        "s"
      ],
      [
        "Ġapp",
        "ro"
      ],
      [
        "Ġg",
        "ot"
      ],
      [
        "g",
        "y"
      ],
      [
        "pl",
        "oy"
      ],
      [
        "at",
        "t"
      ],
      [
        "Ġc",
        "ent"
      ],
      [
        "Ġp",
        "oss"
      ],
      [
        "Ġs",
        "chool"
      ],
      [
        "Ġf",
        "act"
      ],
      [
        "ur",
        "al"
      ],
      [
        "Ġne",
        "xt"
      ],
      [
        "Ġin",
        "t"
      ],
      [
        "o",
        "ad"
      ],
      [
        "Ġan",
        "other"
      ],
      [
        "ĠThe",
        "re"
      ],
      [
        "Ġsm",
        "all"
      ],
      [
        "Ġall",
        "ow"
      ],
      [
        "ent",
        "ion"
      ],
      [
        "Ġm",
        "ust"
      ],
      [
        ",",
        "\""
      ],
      [
        "Ġbet",
        "ter"
      ],
      [
        "Ġp",
        "ut"
      ],
      [
        "Ġf",
        "il"
      ],
      [
        "Ġg",
        "ame"
      ],
      [
        "Ġwith",
        "out"
      ],
      [
        "Ġs",
        "ol"
      ],
      [
        "in",
        "ing"
      ],
      [
        "a",
        "red"
      ],
      [
        "Ġinclud",
        "ing"
      ],
      [
        "Ġb",
        "ig"
      ],
      [
        "Ġcon",
        "f"
      ],
      [
        "Ġp",
        "ri"
      ],
      [
        "in",
        "ed"
      ],
      [
        "Ġg",
        "rou"
      ],
      [
        "Ġor",
        "gan"
      ],
      [
        "Ġwee",
        "k"
      ],
      [
        "Ġqu",
        "est"
      ],
      [
        "Ġal",
        "ways"
      ],
      [
        "Ġm",
        "ight"
      ],
      [
        "Ġres",
        "ult"
      ],
      [
        "w",
        "are"
      ],
      [
        "ĠH",
        "ow"
      ],
      [
        "Ġv",
        "ar"
      ],
      [
        "Ġt",
        "y"
      ],
      [
        "Ġd",
        "ist"
      ],
      [
        "Ġst",
        "and"
      ],
      [
        "or",
        "n"
      ],
      [
        "Ġav",
        "ailable"
      ],
      [
        "Ġf",
        "riend"
      ],
      [
        "Ġv",
        "al"
      ],
      [
        "ĠâĢ",
        "ĺ"
      ],
      [
        "Ġ",
        "ide"
      ],
      [
        "re",
        "en"
      ],
      [
        "i",
        "qu"
      ],
      [
        "Ġd",
        "ata"
      ],
      [
        "Ġm",
        "ain"
      ],
      [
        "g",
        "er"
      ],
      [
        "ble",
        "m"
      ],
      [
        "Ġmark",
        "et"
      ],
      [
        "amp",
        "le"
      ],
      [
        "Ġhe",
        "ad"
      ],
      [
        "us",
        "s"
      ],
      [
        "i",
        "k"
      ],
      [
        "o",
        "ot"
      ],
      [
        "Ġp",
        "ass"
      ],
      [
        "Ġt",
        "ry"
      ],
      [
        "Ġh",
        "ard"
      ],
      [
        "Ġnum",
        "ber"
      ],
      [
        "Ġo",
        "pt"
      ],
      [
        "Ġp",
        "at"
      ],
      [
        "Ġw",
        "r"
      ],
      [
        "Ġsec",
        "ond"
      ],
      [
        "Ġinc",
        "re"
      ],
      [
        "Ġs",
        "ince"
      ],
      [
        "ĠS",
        "he"
      ],
      [
        "Ġbu",
        "ild"
      ],
      [
        "Ġl",
        "aw"
      ],
      [
        "Ġre",
        "ce"
      ],
      [
        "Ġo",
        "pp"
      ],
      [
        "Ġp",
        "ay"
      ],
      [
        "âĢ",
        "¦"
      ],
      [
        "ill",
        "ion"
      ],
      [
        "st",
        "and"
      ],
      [
        "Ġm",
        "us"
      ],
      [
        "ert",
        "ain"
      ],
      [
        "Ġd",
        "ri"
      ],
      [
        "ĠâĢ",
        "Ķ"
      ],
      [
        "Ġt",
        "ri"
      ],
      [
        "Ġne",
        "ver"
      ],
      [
        "ren",
        "ce"
      ],
      [
        "Ġfam",
        "ily"
      ],
      [
        "Ġp",
        "ublic"
      ],
      [
        "en",
        "se"
      ],
      [
        "Ġas",
        "k"
      ],
      [
        "w",
        "ork"
      ],
      [
        "Ġc",
        "ost"
      ],
      [
        "âĢ",
        "Ķ"
      ],
      [
        "Ġcl",
        "ass"
      ],
      [
        "Ġserv",
        "ice"
      ],
      [
        "Ġw",
        "om"
      ],
      [
        "Ġpro",
        "blem"
      ],
      [
        "i",
        "er"
      ],
      [
        "ĠF",
        "r"
      ],
      [
        "Ġd",
        "ays"
      ],
      [
        "cc",
        "ess"
      ],
      [
        "ate",
        "ly"
      ],
      [
        "Ġle",
        "vel"
      ],
      [
        "ĠO",
        "n"
      ],
      [
        "Ġd",
        "irect"
      ],
      [
        "ĠP",
        "l"
      ],
      [
        "Ġp",
        "ower"
      ],
      [
        "ĠI",
        "s"
      ],
      [
        "ĠA",
        "ll"
      ],
      [
        "ivers",
        "ity"
      ],
      [
        "1",
        "9"
      ],
      [
        "Ġimport",
        "ant"
      ],
      [
        "Ġo",
        "ld"
      ],
      [
        "is",
        "ion"
      ],
      [
        "Ġw",
        "ater"
      ],
      [
        "ro",
        "l"
      ],
      [
        "Ġexper",
        "ience"
      ],
      [
        "I",
        "f"
      ],
      [
        "i",
        "or"
      ],
      [
        "a",
        "j"
      ],
      [
        "r",
        "ist"
      ],
      [
        "Ġinv",
        "est"
      ],
      [
        "Ġin",
        "f"
      ],
      [
        "Ġm",
        "ov"
      ],
      [
        "el",
        "s"
      ],
      [
        "ir",
        "d"
      ],
      [
        "Ġsu",
        "re"
      ],
      [
        "Ġe",
        "l"
      ],
      [
        "l",
        "ing"
      ],
      [
        "Ġper",
        "form"
      ],
      [
        "Ġb",
        "ro"
      ],
      [
        "Ġc",
        "r"
      ],
      [
        "m",
        "e"
      ],
      [
        "Ġ",
        "Q"
      ],
      [
        "Ġc",
        "a"
      ],
      [
        "u",
        "ck"
      ],
      [
        "Ġspe",
        "c"
      ],
      [
        "one",
        "y"
      ],
      [
        "Ġh",
        "um"
      ],
      [
        "t",
        "ed"
      ],
      [
        "pe",
        "nd"
      ],
      [
        "Ġg",
        "ive"
      ],
      [
        "o",
        "pe"
      ],
      [
        "ot",
        "e"
      ],
      [
        "Ġw",
        "in"
      ],
      [
        "Ġbel",
        "ie"
      ],
      [
        "Ġab",
        "le"
      ],
      [
        "g",
        "in"
      ],
      [
        "r",
        "al"
      ],
      [
        "our",
        "s"
      ],
      [
        "Ġagain",
        "st"
      ],
      [
        "ĠE",
        "x"
      ],
      [
        "Ġp",
        "os"
      ],
      [
        "Ġ1",
        "8"
      ],
      [
        "w",
        "w"
      ],
      [
        "Ġl",
        "ess"
      ],
      [
        "Ġle",
        "t"
      ],
      [
        "ĠC",
        "on"
      ],
      [
        "ĠI",
        "nd"
      ],
      [
        "Ġse",
        "em"
      ],
      [
        "at",
        "s"
      ],
      [
        "Ġex",
        "pl"
      ],
      [
        "Ġ1",
        "2"
      ],
      [
        "Ġb",
        "re"
      ],
      [
        "Ġ",
        "'"
      ],
      [
        "as",
        "es"
      ],
      [
        "E",
        "R"
      ],
      [
        "Ġg",
        "row"
      ],
      [
        "Ġwith",
        "in"
      ],
      [
        "Ġf",
        "our"
      ],
      [
        "e",
        "red"
      ],
      [
        "Ġl",
        "ight"
      ],
      [
        "he",
        "re"
      ],
      [
        "Ġ",
        "ve"
      ],
      [
        "ĠT",
        "e"
      ],
      [
        "Ġu",
        "nt"
      ],
      [
        "ort",
        "un"
      ],
      [
        "o",
        "k"
      ],
      [
        "Ġ",
        "i"
      ],
      [
        "ard",
        "s"
      ],
      [
        "Ġcur",
        "rent"
      ],
      [
        "in",
        "al"
      ],
      [
        "c",
        "o"
      ],
      [
        "Ġre",
        "se"
      ],
      [
        "ab",
        "ly"
      ],
      [
        "Ġle",
        "g"
      ],
      [
        "ĠC",
        "ol"
      ],
      [
        "pp",
        "ing"
      ],
      [
        "Ġprov",
        "ide"
      ],
      [
        "Ġs",
        "ays"
      ],
      [
        "Ġon",
        "line"
      ],
      [
        "Ġor",
        "der"
      ],
      [
        "ru",
        "ct"
      ],
      [
        "ĠTh",
        "at"
      ],
      [
        "ra",
        "ph"
      ],
      [
        "Ġ",
        "0"
      ],
      [
        "m",
        "ed"
      ],
      [
        "c",
        "ing"
      ],
      [
        "ĠP",
        "h"
      ],
      [
        "Ġt",
        "est"
      ],
      [
        "p",
        "os"
      ],
      [
        "5",
        "0"
      ],
      [
        "Ġj",
        "ob"
      ],
      [
        "en",
        "cy"
      ],
      [
        "Ġp",
        "op"
      ],
      [
        ".",
        ","
      ],
      [
        "Ġd",
        "i"
      ],
      [
        "ff",
        "ic"
      ],
      [
        "ur",
        "y"
      ],
      [
        "Ġs",
        "it"
      ],
      [
        "r",
        "ation"
      ],
      [
        "Ġto",
        "day"
      ],
      [
        "iv",
        "id"
      ],
      [
        "Ġme",
        "et"
      ],
      [
        "Ġacc",
        "ess"
      ],
      [
        "Ġ",
        "est"
      ],
      [
        "ou",
        "th"
      ],
      [
        "Ġgo",
        "vern"
      ],
      [
        "Ġpres",
        "ent"
      ],
      [
        "Ġpro",
        "te"
      ],
      [
        "H",
        "e"
      ],
      [
        "a",
        "ut"
      ],
      [
        "Ġ",
        "Z"
      ],
      [
        "iss",
        "ion"
      ],
      [
        "ain",
        "s"
      ],
      [
        "e",
        "c"
      ],
      [
        "Ġen",
        "g"
      ],
      [
        "Ġan",
        "n"
      ],
      [
        "r",
        "on"
      ],
      [
        "Ġpro",
        "per"
      ],
      [
        "ot",
        "t"
      ],
      [
        "Ġse",
        "ason"
      ],
      [
        "Ġt",
        "urn"
      ],
      [
        "Ġde",
        "m"
      ],
      [
        "i",
        "ents"
      ],
      [
        "Ġwork",
        "ing"
      ],
      [
        "ĠU",
        "S"
      ],
      [
        "re",
        "t"
      ],
      [
        "ord",
        "ing"
      ],
      [
        "c",
        "u"
      ],
      [
        "Ġo",
        "per"
      ],
      [
        "Ġa",
        "way"
      ],
      [
        "pp",
        "ed"
      ],
      [
        "Ġh",
        "ist"
      ],
      [
        "Ġv",
        "iew"
      ],
      [
        "Ġare",
        "a"
      ],
      [
        "le",
        "y"
      ],
      [
        "ent",
        "ly"
      ],
      [
        "ar",
        "ing"
      ],
      [
        "en",
        "g"
      ],
      [
        "Ġbe",
        "h"
      ],
      [
        "Ġph",
        "ot"
      ],
      [
        "Ġserv",
        "ices"
      ],
      [
        "or",
        "ies"
      ],
      [
        "Y",
        "ou"
      ],
      [
        "A",
        "s"
      ],
      [
        "h",
        "or"
      ],
      [
        "Ġadd",
        "ition"
      ],
      [
        "ĠR",
        "es"
      ],
      [
        "em",
        "ber"
      ],
      [
        "id",
        "er"
      ],
      [
        "'",
        "re"
      ],
      [
        "o",
        "int"
      ],
      [
        "ĠS",
        "p"
      ],
      [
        "ir",
        "on"
      ],
      [
        "te",
        "nd"
      ],
      [
        "Ġch",
        "ange"
      ],
      [
        "ab",
        "ility"
      ],
      [
        "is",
        "ed"
      ],
      [
        "an",
        "n"
      ],
      [
        "Ġf",
        "ood"
      ],
      [
        "Ġt",
        "erm"
      ],
      [
        "Ġunt",
        "il"
      ],
      [
        "Ġe",
        "qu"
      ],
      [
        "p",
        "or"
      ],
      [
        "ne",
        "y"
      ],
      [
        "ĠT",
        "o"
      ],
      [
        "ĠO",
        "r"
      ],
      [
        "Ġch",
        "ang"
      ],
      [
        "or",
        "th"
      ],
      [
        "Ġcour",
        "se"
      ],
      [
        "Ġs",
        "ing"
      ],
      [
        "Ġem",
        "ploy"
      ],
      [
        "id",
        "s"
      ],
      [
        "Ġp",
        "rom"
      ],
      [
        "Ġn",
        "ight"
      ],
      [
        "Ġc",
        "ap"
      ],
      [
        "Ġth",
        "ing"
      ],
      [
        "ĠCom",
        "m"
      ],
      [
        "l",
        "ish"
      ],
      [
        "Ġm",
        "aking"
      ],
      [
        "Ġp",
        "ract"
      ],
      [
        "3",
        "0"
      ],
      [
        "Ġt",
        "ru"
      ],
      [
        "at",
        "or"
      ],
      [
        "Ġprof",
        "ess"
      ],
      [
        "Ġstud",
        "ents"
      ],
      [
        "i",
        "um"
      ],
      [
        "le",
        "ction"
      ],
      [
        "if",
        "y"
      ],
      [
        "con",
        "om"
      ],
      [
        "Ġs",
        "al"
      ],
      [
        "le",
        "t"
      ],
      [
        "e",
        "ad"
      ],
      [
        "Ġspe",
        "cial"
      ],
      [
        "Ġ1",
        "5"
      ],
      [
        "Ġp",
        "ast"
      ],
      [
        "Ġloc",
        "al"
      ],
      [
        "Ġpre",
        "v"
      ],
      [
        "in",
        "a"
      ],
      [
        "re",
        "am"
      ],
      [
        "Ġro",
        "om"
      ],
      [
        "at",
        "ter"
      ],
      [
        "Ġt",
        "alk"
      ],
      [
        "b",
        "o"
      ],
      [
        "s",
        "h"
      ],
      [
        "Ġlook",
        "ing"
      ],
      [
        "Ġe",
        "ffect"
      ],
      [
        "iz",
        "ation"
      ],
      [
        "u",
        "red"
      ],
      [
        "ĠT",
        "r"
      ],
      [
        "b",
        "y"
      ],
      [
        "ir",
        "l"
      ],
      [
        "Ġwe",
        "bs"
      ],
      [
        "Ġw",
        "rit"
      ],
      [
        "Ġev",
        "ent"
      ],
      [
        "if",
        "ied"
      ],
      [
        "age",
        "ment"
      ],
      [
        "Ġc",
        "ase"
      ],
      [
        "Ġwh",
        "y"
      ],
      [
        "I",
        "N"
      ],
      [
        "is",
        "ing"
      ],
      [
        "Ġsu",
        "ccess"
      ],
      [
        "o",
        "f"
      ],
      [
        "g",
        "ed"
      ],
      [
        "Ġb",
        "as"
      ],
      [
        "Ġin",
        "tern"
      ],
      [
        "so",
        "ci"
      ],
      [
        "ĠN",
        "o"
      ],
      [
        "Ġlar",
        "ge"
      ],
      [
        "Ġk",
        "ind"
      ],
      [
        "Ġde",
        "v"
      ],
      [
        "j",
        "oy"
      ],
      [
        "m",
        "in"
      ],
      [
        "Ġwor",
        "d"
      ],
      [
        "Ġle",
        "ft"
      ],
      [
        "oh",
        "n"
      ],
      [
        "Ġf",
        "ac"
      ],
      [
        "ri",
        "es"
      ],
      [
        "om",
        "m"
      ],
      [
        "it",
        "ing"
      ],
      [
        "Ġchild",
        "ren"
      ],
      [
        "Ġm",
        "oney"
      ],
      [
        "Ġprodu",
        "ct"
      ],
      [
        "Ġen",
        "ough"
      ],
      [
        "Ġcomple",
        "te"
      ],
      [
        "Ġof",
        "ten"
      ],
      [
        "Ġunder",
        "stand"
      ],
      [
        "Ġche",
        "ck"
      ],
      [
        "ĠM",
        "an"
      ],
      [
        "Ġm",
        "ove"
      ],
      [
        "Ġv",
        "ide"
      ],
      [
        "Ġ",
        "."
      ],
      [
        "um",
        "p"
      ],
      [
        "Ġgrou",
        "p"
      ],
      [
        "Ġs",
        "ite"
      ],
      [
        "ĠS",
        "c"
      ],
      [
        "1",
        "1"
      ],
      [
        "ater",
        "ial"
      ],
      [
        "en",
        "n"
      ],
      [
        "fe",
        "ct"
      ],
      [
        "Ġn",
        "ame"
      ],
      [
        "oc",
        "us"
      ],
      [
        "in",
        "ation"
      ],
      [
        "Ġha",
        "ving"
      ],
      [
        "Ġact",
        "iv"
      ],
      [
        "ic",
        "le"
      ],
      [
        "Ġcon",
        "st"
      ],
      [
        "Ġimp",
        "ro"
      ],
      [
        "p",
        "art"
      ],
      [
        "Ġe",
        "ver"
      ],
      [
        "Ġto",
        "get"
      ],
      [
        "Ġtoget",
        "her"
      ],
      [
        "Ġt",
        "imes"
      ],
      [
        "Ġte",
        "ll"
      ],
      [
        "it",
        "ions"
      ],
      [
        "Ġind",
        "ust"
      ],
      [
        "Ġ",
        "|"
      ],
      [
        "Ġt",
        "reat"
      ],
      [
        "ĠC",
        "ent"
      ],
      [
        "aj",
        "or"
      ],
      [
        "'",
        "m"
      ],
      [
        "us",
        "h"
      ],
      [
        "as",
        "ter"
      ],
      [
        "ĠE",
        "ng"
      ],
      [
        "a",
        "im"
      ],
      [
        "Ġprodu",
        "cts"
      ],
      [
        "Ġm",
        "en"
      ],
      [
        "au",
        "gh"
      ],
      [
        "ĠW",
        "hen"
      ],
      [
        "iv",
        "ed"
      ],
      [
        "Ġapp",
        "lic"
      ],
      [
        "Ġinclud",
        "e"
      ],
      [
        "ver",
        "al"
      ],
      [
        "ill",
        "s"
      ],
      [
        "Ġdid",
        "n"
      ],
      [
        "ene",
        "f"
      ],
      [
        "ĠC",
        "an"
      ],
      [
        "Ġrec",
        "ord"
      ],
      [
        "Ġd",
        "ra"
      ],
      [
        "ĠWh",
        "at"
      ],
      [
        "Ġc",
        "reat"
      ],
      [
        "Ġd",
        "r"
      ],
      [
        "Ġs",
        "w"
      ],
      [
        "Ġcount",
        "ry"
      ],
      [
        "read",
        "y"
      ],
      [
        "ĠCh",
        "rist"
      ],
      [
        "are",
        "nt"
      ],
      [
        "e",
        "e"
      ],
      [
        "Ġle",
        "arn"
      ],
      [
        "Ġal",
        "ong"
      ],
      [
        "it",
        "ive"
      ],
      [
        "Ġd",
        "one"
      ],
      [
        "Ġ",
        "["
      ],
      [
        "Ġne",
        "ar"
      ],
      [
        "ent",
        "ial"
      ],
      [
        "1",
        "2"
      ],
      [
        "iv",
        "en"
      ],
      [
        "Ġcommun",
        "ity"
      ],
      [
        "Ġb",
        "it"
      ],
      [
        "Ġbec",
        "ome"
      ],
      [
        "Ġh",
        "ouse"
      ],
      [
        "Ġcon",
        "d"
      ],
      [
        "Ġoff",
        "er"
      ],
      [
        "ĠUn",
        "iversity"
      ],
      [
        "Ġ",
        "es"
      ],
      [
        "ĠM",
        "ay"
      ],
      [
        "Ġex",
        "pect"
      ],
      [
        "Ġbu",
        "y"
      ],
      [
        "ĠF",
        "l"
      ],
      [
        "Ġsh",
        "ort"
      ],
      [
        "er",
        "n"
      ],
      [
        "Wh",
        "at"
      ],
      [
        "ĠW",
        "ith"
      ],
      [
        "Ġfollow",
        "ing"
      ],
      [
        "ur",
        "s"
      ],
      [
        "ĠC",
        "o"
      ],
      [
        "Ġs",
        "ide"
      ],
      [
        "v",
        "iron"
      ],
      [
        "al",
        "f"
      ],
      [
        "od",
        "e"
      ],
      [
        "Ġtr",
        "ad"
      ],
      [
        "ĠA",
        "t"
      ],
      [
        "Ġacc",
        "ount"
      ],
      [
        "Ġ3",
        "0"
      ],
      [
        "ĠM",
        "ar"
      ],
      [
        "Ġmem",
        "bers"
      ],
      [
        "Ġa",
        "ir"
      ],
      [
        "Ġl",
        "ine"
      ],
      [
        "er",
        "y"
      ],
      [
        "Ġret",
        "urn"
      ],
      [
        "F",
        "or"
      ],
      [
        "Ġso",
        "cial"
      ],
      [
        "Ġed",
        "uc"
      ],
      [
        "s",
        "on"
      ],
      [
        "Ġcall",
        "ed"
      ],
      [
        "ore",
        "d"
      ],
      [
        "ivid",
        "ual"
      ],
      [
        "Ġf",
        "ar"
      ],
      [
        "ut",
        "es"
      ],
      [
        "O",
        "N"
      ],
      [
        "S",
        "t"
      ],
      [
        "f",
        "er"
      ],
      [
        "ot",
        "s"
      ],
      [
        "Ġnew",
        "s"
      ],
      [
        "Ġcon",
        "ne"
      ],
      [
        "Ġme",
        "ans"
      ],
      [
        "Ġp",
        "a"
      ],
      [
        "Ġper",
        "cent"
      ],
      [
        "Ġb",
        "ody"
      ],
      [
        "Ġst",
        "ory"
      ],
      [
        "un",
        "e"
      ],
      [
        "Ġen",
        "joy"
      ],
      [
        "Ġal",
        "ready"
      ],
      [
        "an",
        "e"
      ],
      [
        "ĠC",
        "ar"
      ],
      [
        "Ġp",
        "ain"
      ],
      [
        "Ġle",
        "ast"
      ],
      [
        "ow",
        "s"
      ],
      [
        "b",
        "r"
      ],
      [
        "u",
        "ff"
      ],
      [
        "Ġget",
        "ting"
      ],
      [
        "Ġcont",
        "rol"
      ],
      [
        "Ġoff",
        "ic"
      ],
      [
        "Ġfe",
        "at"
      ],
      [
        "Ġb",
        "ased"
      ],
      [
        "Ġl",
        "a"
      ],
      [
        "s",
        "ide"
      ],
      [
        "it",
        "her"
      ],
      [
        "Ġ19",
        "9"
      ],
      [
        "Ġdet",
        "ail"
      ],
      [
        "u",
        "ro"
      ],
      [
        "Ġse",
        "veral"
      ],
      [
        "Ġrese",
        "arch"
      ],
      [
        "Ġc",
        "ou"
      ],
      [
        "Ġc",
        "ertain"
      ],
      [
        "Ġneed",
        "s"
      ],
      [
        "and",
        "s"
      ],
      [
        "Ġ1",
        "1"
      ],
      [
        "Ġf",
        "ocus"
      ],
      [
        "Ġm",
        "akes"
      ],
      [
        "Ġm",
        "ar"
      ],
      [
        "ĠG",
        "od"
      ],
      [
        "Ġn",
        "et"
      ],
      [
        "Ġperson",
        "al"
      ],
      [
        "t",
        "ain"
      ],
      [
        "ut",
        "ure"
      ],
      [
        "'",
        "ve"
      ],
      [
        "Ġother",
        "s"
      ],
      [
        "Ġposs",
        "ible"
      ],
      [
        "Ġl",
        "ive"
      ],
      [
        "an",
        "ces"
      ],
      [
        "Ġre",
        "view"
      ],
      [
        "Ġdo",
        "ing"
      ],
      [
        "E",
        "S"
      ],
      [
        "Ġdoes",
        "n"
      ],
      [
        "Ġm",
        "illion"
      ],
      [
        "ĠJ",
        "ohn"
      ],
      [
        "o",
        "ice"
      ],
      [
        "m",
        "ber"
      ],
      [
        "Ġc",
        "ame"
      ],
      [
        "Ġme",
        "an"
      ],
      [
        "Ġeas",
        "y"
      ],
      [
        "Ġwebs",
        "ite"
      ],
      [
        "Ġt",
        "ax"
      ],
      [
        "Ġgovern",
        "ment"
      ],
      [
        "ĠM",
        "y"
      ],
      [
        "ĠAmeric",
        "an"
      ],
      [
        "Ġw",
        "on"
      ],
      [
        "Ġe",
        "conom"
      ],
      [
        "Ġw",
        "ent"
      ],
      [
        "Ġm",
        "ajor"
      ],
      [
        "Ġb",
        "enef"
      ],
      [
        "Ġm",
        "il"
      ],
      [
        "i",
        "en"
      ],
      [
        "at",
        "ic"
      ],
      [
        "Ġl",
        "im"
      ],
      [
        "Ġh",
        "old"
      ],
      [
        "Ġcre",
        "ate"
      ],
      [
        "er",
        "al"
      ],
      [
        "c",
        "rib"
      ],
      [
        "Ġind",
        "ividual"
      ],
      [
        "ra",
        "p"
      ],
      [
        "A",
        "N"
      ],
      [
        "iqu",
        "e"
      ],
      [
        "pt",
        "ion"
      ],
      [
        "Ġo",
        "cc"
      ],
      [
        "Ġf",
        "ore"
      ],
      [
        "id",
        "d"
      ],
      [
        "a",
        "pp"
      ],
      [
        "os",
        "ed"
      ],
      [
        "Ġf",
        "av"
      ],
      [
        "viron",
        "ment"
      ],
      [
        "Ġf",
        "und"
      ],
      [
        "Ġl",
        "ow"
      ],
      [
        "Ġt",
        "re"
      ],
      [
        "ci",
        "ally"
      ],
      [
        "Ġem",
        "ail"
      ],
      [
        "Ġqu",
        "ality"
      ],
      [
        "Ġmus",
        "ic"
      ],
      [
        "am",
        "a"
      ],
      [
        "ĠA",
        "m"
      ],
      [
        "ort",
        "s"
      ],
      [
        "Ġpro",
        "ject"
      ],
      [
        "A",
        "T"
      ],
      [
        "Ġwom",
        "en"
      ],
      [
        "i",
        "ans"
      ],
      [
        "Ġcom",
        "es"
      ],
      [
        "Ġc",
        "amp"
      ],
      [
        "ward",
        "s"
      ],
      [
        "Ġm",
        "aterial"
      ],
      [
        "Ġe",
        "lect"
      ],
      [
        "Ġhapp",
        "en"
      ],
      [
        "Ġthough",
        "t"
      ],
      [
        "b",
        "ook"
      ],
      [
        "id",
        "es"
      ],
      [
        "Ġact",
        "ually"
      ],
      [
        "c",
        "hes"
      ],
      [
        "Ġm",
        "ind"
      ],
      [
        "/",
        "/"
      ],
      [
        "ro",
        "p"
      ],
      [
        "m",
        "ost"
      ],
      [
        "Ġm",
        "om"
      ],
      [
        "Ġ",
        "Â"
      ],
      [
        "Ġpartic",
        "ular"
      ],
      [
        "le",
        "ment"
      ],
      [
        "Ġde",
        "al"
      ],
      [
        "Ġopp",
        "ortun"
      ],
      [
        "ro",
        "du"
      ],
      [
        "Ġn",
        "on"
      ],
      [
        "Ġyou",
        "ng"
      ],
      [
        "Ġvis",
        "it"
      ],
      [
        "The",
        "re"
      ],
      [
        "Ġp",
        "ot"
      ],
      [
        "w",
        "h"
      ],
      [
        "ull",
        "y"
      ],
      [
        "er",
        "r"
      ],
      [
        "fe",
        "rence"
      ],
      [
        "A",
        "R"
      ],
      [
        "c",
        "hed"
      ],
      [
        "Ġcle",
        "ar"
      ],
      [
        "Ġex",
        "ample"
      ],
      [
        "Ġor",
        "ig"
      ],
      [
        "o",
        "ver"
      ],
      [
        "Ġtoo",
        "k"
      ],
      [
        "a",
        "ff"
      ],
      [
        "n",
        "ot"
      ],
      [
        "Ġy",
        "et"
      ],
      [
        "Ġhum",
        "an"
      ],
      [
        "Ġdevelop",
        "ment"
      ],
      [
        "y",
        "le"
      ],
      [
        "ĠR",
        "ep"
      ],
      [
        "Ġc",
        "e"
      ],
      [
        "if",
        "t"
      ],
      [
        "ap",
        "s"
      ],
      [
        "o",
        "or"
      ],
      [
        "ir",
        "m"
      ],
      [
        "Ġac",
        "ross"
      ],
      [
        "Ġso",
        "ft"
      ],
      [
        "ĠB",
        "r"
      ],
      [
        "on",
        "y"
      ],
      [
        "ĠS",
        "te"
      ],
      [
        "a",
        "i"
      ],
      [
        "l",
        "oad"
      ],
      [
        "Ġh",
        "ours"
      ],
      [
        "Ġl",
        "ink"
      ],
      [
        "ro",
        "om"
      ],
      [
        "ate",
        "g"
      ],
      [
        "pl",
        "ay"
      ],
      [
        "Ġto",
        "ld"
      ],
      [
        "Ġ1",
        "6"
      ],
      [
        "Ġqu",
        "ick"
      ],
      [
        "ur",
        "ther"
      ],
      [
        "Ġon",
        "ce"
      ],
      [
        "Ġear",
        "ly"
      ],
      [
        "Ġ",
        "ident"
      ],
      [
        "Ġchar",
        "act"
      ],
      [
        "f",
        "or"
      ],
      [
        "ak",
        "en"
      ],
      [
        "l",
        "ished"
      ],
      [
        "Ġh",
        "ot"
      ],
      [
        "ens",
        "ive"
      ],
      [
        "Ġf",
        "uture"
      ],
      [
        "ul",
        "ation"
      ],
      [
        "Ġcont",
        "act"
      ],
      [
        "l",
        "f"
      ],
      [
        "c",
        "he"
      ],
      [
        "Ġre",
        "ason"
      ],
      [
        "Ġspec",
        "ific"
      ],
      [
        "O",
        "R"
      ],
      [
        "Ġbe",
        "aut"
      ],
      [
        "1",
        "6"
      ],
      [
        "is",
        "k"
      ],
      [
        "ct",
        "or"
      ],
      [
        "Ġstart",
        "ed"
      ],
      [
        "A",
        "n"
      ],
      [
        "Ġre",
        "du"
      ],
      [
        "ĠA",
        "pp"
      ],
      [
        "Ġl",
        "ater"
      ],
      [
        "c",
        "le"
      ],
      [
        "n",
        "ers"
      ],
      [
        "Ġc",
        "ut"
      ],
      [
        "Ġm",
        "ult"
      ],
      [
        "Ġinv",
        "ol"
      ],
      [
        "ĠSt",
        "ate"
      ],
      [
        "ĠS",
        "u"
      ],
      [
        "Ġke",
        "y"
      ],
      [
        "e",
        "b"
      ],
      [
        "Ġfriend",
        "s"
      ],
      [
        "Ġp",
        "ar"
      ],
      [
        "Ġbel",
        "ow"
      ],
      [
        "Ġrequ",
        "ire"
      ],
      [
        "Ġ",
        "vers"
      ],
      [
        "Ġf",
        "ive"
      ],
      [
        "Ġp",
        "ress"
      ],
      [
        "Ġcomp",
        "ut"
      ],
      [
        "Ġstr",
        "ong"
      ],
      [
        "ver",
        "age"
      ],
      [
        "on",
        "es"
      ],
      [
        "ĠM",
        "ed"
      ],
      [
        "Ġst",
        "ep"
      ],
      [
        "g",
        "es"
      ],
      [
        "it",
        "or"
      ],
      [
        "Ġc",
        "ity"
      ],
      [
        "Ġmonth",
        "s"
      ],
      [
        "Ġe",
        "y"
      ],
      [
        "Ġpol",
        "it"
      ],
      [
        ":",
        "//"
      ],
      [
        "ur",
        "ity"
      ],
      [
        "Ġbr",
        "ing"
      ],
      [
        "'",
        "ll"
      ],
      [
        "A",
        "nd"
      ],
      [
        "Ġvide",
        "o"
      ],
      [
        "Ġp",
        "ack"
      ],
      [
        "ar",
        "r"
      ],
      [
        "a",
        "pe"
      ],
      [
        "ĠUn",
        "ited"
      ],
      [
        "Ġan",
        "al"
      ],
      [
        "ĠIn",
        "tern"
      ],
      [
        "ight",
        "s"
      ],
      [
        "Ġit",
        "em"
      ],
      [
        "ic",
        "y"
      ],
      [
        "Ġh",
        "ig"
      ],
      [
        "Ġpro",
        "b"
      ],
      [
        "our",
        "ce"
      ],
      [
        "Ġty",
        "p"
      ],
      [
        "our",
        "n"
      ],
      [
        "Ġw",
        "a"
      ],
      [
        "ĠO",
        "ne"
      ],
      [
        "o",
        "on"
      ],
      [
        "Ġt",
        "em"
      ],
      [
        "Ġcl",
        "ose"
      ],
      [
        "ll",
        "ing"
      ],
      [
        "Ġf",
        "ield"
      ],
      [
        "id",
        "ay"
      ],
      [
        "ĠThe",
        "se"
      ],
      [
        "i",
        "od"
      ],
      [
        "ut",
        "ions"
      ],
      [
        "Ġhe",
        "art"
      ],
      [
        "Ġ-",
        "-"
      ],
      [
        "Ġsp",
        "ace"
      ],
      [
        "Ġpri",
        "v"
      ],
      [
        "res",
        "ent"
      ],
      [
        "Ġpur",
        "ch"
      ],
      [
        "Ġc",
        "ult"
      ],
      [
        "Ġbe",
        "gin"
      ],
      [
        "Ġadd",
        "ress"
      ],
      [
        "B",
        "ut"
      ],
      [
        "H",
        "ow"
      ],
      [
        "ip",
        "s"
      ],
      [
        "Ġ201",
        "2"
      ],
      [
        "Ġp",
        "age"
      ],
      [
        "u",
        "se"
      ],
      [
        "Ġ",
        "X"
      ],
      [
        "Ġknow",
        "n"
      ],
      [
        "Ġ",
        "#"
      ],
      [
        "Ġsh",
        "are"
      ],
      [
        "Ġper",
        "fect"
      ],
      [
        "âĢ",
        "ĵ"
      ],
      [
        "je",
        "cts"
      ],
      [
        "Ġen",
        "s"
      ],
      [
        "Ġsu",
        "m"
      ],
      [
        "an",
        "ies"
      ],
      [
        "is",
        "ter"
      ],
      [
        "Ġ1",
        "4"
      ],
      [
        "Ġch",
        "all"
      ],
      [
        "og",
        "raph"
      ],
      [
        "Ġstud",
        "y"
      ],
      [
        "Ġdisc",
        "uss"
      ],
      [
        "Ġe",
        "t"
      ],
      [
        "ill",
        "ed"
      ],
      [
        "y",
        "l"
      ],
      [
        "Ġcom",
        "b"
      ],
      [
        "un",
        "ch"
      ],
      [
        "ĠW",
        "or"
      ],
      [
        "oo",
        "se"
      ],
      [
        "Ġcomp",
        "et"
      ],
      [
        "Ġaut",
        "hor"
      ],
      [
        "g",
        "o"
      ],
      [
        "Ġfil",
        "m"
      ],
      [
        "our",
        "ces"
      ],
      [
        "d",
        "e"
      ],
      [
        "Ġapp",
        "ear"
      ],
      [
        "st",
        "er"
      ],
      [
        "Ġen",
        "er"
      ],
      [
        "Ġre",
        "le"
      ],
      [
        "ĠC",
        "al"
      ],
      [
        "1",
        "8"
      ],
      [
        "ac",
        "y"
      ],
      [
        "led",
        "ge"
      ],
      [
        "Ġto",
        "t"
      ],
      [
        "Ġse",
        "en"
      ],
      [
        "p",
        "ar"
      ],
      [
        "le",
        "ge"
      ],
      [
        "ra",
        "in"
      ],
      [
        "s",
        "w"
      ],
      [
        "W",
        "hen"
      ],
      [
        "Ġs",
        "ound"
      ],
      [
        "ĠY",
        "ork"
      ],
      [
        "!",
        "!"
      ],
      [
        "1",
        "5"
      ],
      [
        "ib",
        "ility"
      ],
      [
        "Ġcont",
        "ent"
      ],
      [
        "o",
        "ber"
      ],
      [
        "Ġhist",
        "ory"
      ],
      [
        "Ġam",
        "ong"
      ],
      [
        "Ġquest",
        "ion"
      ],
      [
        "a",
        "f"
      ],
      [
        "Ġg",
        "ames"
      ],
      [
        "or",
        "g"
      ],
      [
        "Ġsome",
        "one"
      ],
      [
        "Ġw",
        "alk"
      ],
      [
        "ĠC",
        "ont"
      ],
      [
        "ĠE",
        "n"
      ],
      [
        "Ġresp",
        "ons"
      ],
      [
        "ĠD",
        "o"
      ],
      [
        "ĠN",
        "e"
      ],
      [
        "g",
        "ing"
      ],
      [
        "at",
        "ur"
      ],
      [
        "Ġf",
        "ace"
      ],
      [
        "Ġp",
        "ick"
      ],
      [
        "Ġcl",
        "aim"
      ],
      [
        "Ġag",
        "o"
      ],
      [
        "ĠHow",
        "ever"
      ],
      [
        "Ġvar",
        "i"
      ],
      [
        "in",
        "o"
      ],
      [
        "Ġh",
        "ope"
      ],
      [
        "Ġ1",
        "00"
      ],
      [
        "Ġst",
        "ay"
      ],
      [
        "ĠN",
        "ot"
      ],
      [
        "n",
        "ed"
      ],
      [
        "S",
        "o"
      ],
      [
        "Ġman",
        "ag"
      ],
      [
        "re",
        "et"
      ],
      [
        "Ġp",
        "ie"
      ],
      [
        "f",
        "ic"
      ],
      [
        "Ġindust",
        "ry"
      ],
      [
        "Ġw",
        "ind"
      ],
      [
        "is",
        "on"
      ],
      [
        "un",
        "g"
      ],
      [
        "th",
        "ough"
      ],
      [
        "Ġbelie",
        "ve"
      ],
      [
        "at",
        "ural"
      ],
      [
        "Ġpr",
        "ice"
      ],
      [
        "E",
        "D"
      ],
      [
        "ct",
        "ed"
      ],
      [
        "ac",
        "es"
      ],
      [
        "Ġrel",
        "ations"
      ],
      [
        "Ġwhe",
        "ther"
      ],
      [
        "ne",
        "w"
      ],
      [
        "Ġany",
        "thing"
      ],
      [
        "Ġevery",
        "thing"
      ],
      [
        "Ġ",
        ":"
      ],
      [
        "pe",
        "cially"
      ],
      [
        "Ġen",
        "vironment"
      ],
      [
        "il",
        "ar"
      ],
      [
        "il",
        "ities"
      ],
      [
        "her",
        "s"
      ],
      [
        "Ġh",
        "alf"
      ],
      [
        "Ġex",
        "c"
      ],
      [
        "Ġ",
        "ess"
      ],
      [
        "ĠIn",
        "st"
      ],
      [
        "m",
        "b"
      ],
      [
        "Ġwho",
        "le"
      ],
      [
        "os",
        "p"
      ],
      [
        "ĠP",
        "r"
      ],
      [
        "O",
        "n"
      ],
      [
        "Ġmed",
        "ia"
      ],
      [
        "ĠM",
        "c"
      ],
      [
        "Ġ1",
        "7"
      ],
      [
        "Ġm",
        "or"
      ],
      [
        "u",
        "ed"
      ],
      [
        "Ġf",
        "re"
      ],
      [
        "Ġde",
        "li"
      ],
      [
        "b",
        "ack"
      ],
      [
        "Ġs",
        "ci"
      ],
      [
        "ro",
        "wn"
      ],
      [
        "Ġg",
        "irl"
      ],
      [
        "Ġde",
        "l"
      ],
      [
        "Ġp",
        "ub"
      ],
      [
        "Ġan",
        "t"
      ],
      [
        "Ġen",
        "c"
      ],
      [
        "Ġsing",
        "le"
      ],
      [
        "p",
        "ly"
      ],
      [
        "ur",
        "ch"
      ],
      [
        "h",
        "od"
      ],
      [
        "ab",
        "or"
      ],
      [
        "ĠE",
        "uro"
      ],
      [
        "re",
        "w"
      ],
      [
        "Ġg",
        "iven"
      ],
      [
        "Ġst",
        "ore"
      ],
      [
        "Ġbre",
        "ak"
      ],
      [
        "il",
        "le"
      ],
      [
        "Ġc",
        "ir"
      ],
      [
        "Ġj",
        "o"
      ],
      [
        "u",
        "ation"
      ],
      [
        "Ġst",
        "e"
      ],
      [
        "id",
        "ed"
      ],
      [
        "Ġp",
        "ort"
      ],
      [
        "Ġe",
        "ff"
      ],
      [
        "Ġsu",
        "per"
      ],
      [
        "Ġam",
        "ount"
      ],
      [
        "Ġab",
        "ove"
      ],
      [
        "Ġfr",
        "ont"
      ],
      [
        "Ġt",
        "aking"
      ],
      [
        "Ġth",
        "ird"
      ],
      [
        "Ġme",
        "as"
      ],
      [
        "Ġ201",
        "3"
      ],
      [
        "as",
        "ing"
      ],
      [
        "im",
        "ate"
      ],
      [
        "sel",
        "ves"
      ],
      [
        "f",
        "ully"
      ],
      [
        "Ġiss",
        "ues"
      ],
      [
        "E",
        "N"
      ],
      [
        "ĠM",
        "e"
      ],
      [
        "Ġcomm",
        "on"
      ],
      [
        "p",
        "ro"
      ],
      [
        "ric",
        "t"
      ],
      [
        "Ġa",
        "ge"
      ],
      [
        "ent",
        "al"
      ],
      [
        "1",
        "3"
      ],
      [
        "ĠS",
        "erv"
      ],
      [
        "Ġse",
        "arch"
      ],
      [
        "Ġp",
        "lease"
      ],
      [
        "Ġd",
        "ue"
      ],
      [
        "ĠC",
        "ity"
      ],
      [
        "gg",
        "est"
      ],
      [
        "c",
        "ome"
      ],
      [
        "ĠC",
        "ount"
      ],
      [
        "C",
        "h"
      ],
      [
        "Ġcomp",
        "anies"
      ],
      [
        "am",
        "s"
      ],
      [
        "Ġquest",
        "ions"
      ],
      [
        "og",
        "n"
      ],
      [
        "at",
        "ors"
      ],
      [
        "ĠS",
        "y"
      ],
      [
        "il",
        "t"
      ],
      [
        "Ġper",
        "iod"
      ],
      [
        "l",
        "er"
      ],
      [
        "Ġm",
        "ess"
      ],
      [
        "ĠP",
        "res"
      ],
      [
        "Ġbl",
        "og"
      ],
      [
        "Ġph",
        "ys"
      ],
      [
        "Ġf",
        "all"
      ],
      [
        "ĠG",
        "u"
      ],
      [
        "i",
        "ver"
      ],
      [
        "Ġb",
        "ad"
      ],
      [
        "Ġbl",
        "ack"
      ],
      [
        "Ġe",
        "ither"
      ],
      [
        "b",
        "all"
      ],
      [
        "ir",
        "t"
      ],
      [
        "âĢ",
        "¢"
      ],
      [
        "2",
        "00"
      ],
      [
        "Ġide",
        "a"
      ],
      [
        "Ġ1",
        "3"
      ],
      [
        "c",
        "ri"
      ],
      [
        "Ġto",
        "ol"
      ],
      [
        "Ġ2",
        "5"
      ],
      [
        "p",
        "ut"
      ],
      [
        "Ġs",
        "ix"
      ],
      [
        "Ġtechn",
        "ology"
      ],
      [
        "Ġ",
        "/"
      ],
      [
        "d",
        "d"
      ],
      [
        "ain",
        "ed"
      ],
      [
        "Ġener",
        "gy"
      ],
      [
        "Ġcons",
        "ider"
      ],
      [
        "Ġbuild",
        "ing"
      ],
      [
        "Ġrec",
        "omm"
      ],
      [
        "1",
        "4"
      ],
      [
        "id",
        "ence"
      ],
      [
        "R",
        "e"
      ],
      [
        "ĠY",
        "our"
      ],
      [
        "Ġw",
        "atch"
      ],
      [
        "Ġrecomm",
        "end"
      ],
      [
        "Ġare",
        "as"
      ],
      [
        "ĠC",
        "he"
      ],
      [
        "ĠJ",
        "an"
      ],
      [
        "Ġresult",
        "s"
      ],
      [
        "v",
        "ent"
      ],
      [
        "Ġv",
        "ol"
      ],
      [
        "Ġsim",
        "ple"
      ],
      [
        "Ġman",
        "agement"
      ],
      [
        "Ġwork",
        "s"
      ],
      [
        "Ġr",
        "ange"
      ],
      [
        "Ġne",
        "cess"
      ],
      [
        "Ġmin",
        "utes"
      ],
      [
        "Ġs",
        "ent"
      ],
      [
        "us",
        "ed"
      ],
      [
        "Ġal",
        "most"
      ],
      [
        "Ġlike",
        "ly"
      ],
      [
        "Ġ5",
        "0"
      ],
      [
        "fic",
        "ult"
      ],
      [
        "Ġc",
        "ra"
      ],
      [
        "Ġb",
        "rand"
      ],
      [
        "g",
        "ress"
      ],
      [
        "t",
        "ime"
      ],
      [
        "I",
        "S"
      ],
      [
        "Ġ2",
        "4"
      ],
      [
        "Ġf",
        "urther"
      ],
      [
        "Ġa",
        "ud"
      ],
      [
        "m",
        "y"
      ],
      [
        "Ġcle",
        "an"
      ],
      [
        "ĠO",
        "ur"
      ],
      [
        "Ġc",
        "red"
      ],
      [
        "Ġsu",
        "ggest"
      ],
      [
        "Ġse",
        "x"
      ],
      [
        "Ġa",
        "ff"
      ],
      [
        "Ġevery",
        "one"
      ],
      [
        "Ġb",
        "ar"
      ],
      [
        "Ġval",
        "ue"
      ],
      [
        "Ġm",
        "ot"
      ],
      [
        "Ġt",
        "aken"
      ],
      [
        "Ġinst",
        "all"
      ],
      [
        "ob",
        "al"
      ],
      [
        "ce",
        "ll"
      ],
      [
        ".",
        ")"
      ],
      [
        "Ġh",
        "ost"
      ],
      [
        "ĠM",
        "in"
      ],
      [
        "an",
        "cial"
      ],
      [
        "Ġse",
        "lf"
      ],
      [
        "Ġfav",
        "or"
      ],
      [
        "Ġser",
        "ies"
      ],
      [
        "ver",
        "t"
      ],
      [
        "Ġcon",
        "cer"
      ],
      [
        "Ġh",
        "tt"
      ],
      [
        "Ġc",
        "rit"
      ],
      [
        "g",
        "le"
      ],
      [
        "ĠW",
        "ill"
      ],
      [
        "ious",
        "ly"
      ],
      [
        "y",
        "ear"
      ],
      [
        "Ġd",
        "ou"
      ],
      [
        "g",
        "est"
      ],
      [
        "itt",
        "ed"
      ],
      [
        "Ġw",
        "ond"
      ],
      [
        "Ġde",
        "b"
      ],
      [
        "Ġtra",
        "ck"
      ],
      [
        "ĠEuro",
        "pe"
      ],
      [
        "A",
        "L"
      ],
      [
        "i",
        "ally"
      ],
      [
        "Ġent",
        "ire"
      ],
      [
        "Ġtra",
        "ining"
      ],
      [
        "Ġfeat",
        "ures"
      ],
      [
        "Ġpoint",
        "s"
      ],
      [
        "ĠN",
        "ational"
      ],
      [
        "o",
        "id"
      ],
      [
        "Ġab",
        "s"
      ],
      [
        "ri",
        "ed"
      ],
      [
        "pl",
        "es"
      ],
      [
        "I",
        "C"
      ],
      [
        "e",
        "es"
      ],
      [
        "Ġm",
        "iss"
      ],
      [
        "ch",
        "ie"
      ],
      [
        "ive",
        "ly"
      ],
      [
        "Ġ",
        "z"
      ],
      [
        "Ġcustom",
        "ers"
      ],
      [
        "f",
        "ort"
      ],
      [
        "Ġc",
        "al"
      ],
      [
        "Ġes",
        "pecially"
      ],
      [
        "i",
        "res"
      ],
      [
        "op",
        "y"
      ],
      [
        "Ġoff",
        "ice"
      ],
      [
        "Ġpre",
        "t"
      ],
      [
        "if",
        "ul"
      ],
      [
        "Ġtry",
        "ing"
      ],
      [
        "A",
        "S"
      ],
      [
        "Ġpos",
        "ition"
      ],
      [
        "it",
        "ch"
      ],
      [
        "it",
        "es"
      ],
      [
        "Ġd",
        "ig"
      ],
      [
        "ri",
        "e"
      ],
      [
        "ĠSt",
        "ates"
      ],
      [
        "Ġhow",
        "ever"
      ],
      [
        "ĠB",
        "o"
      ],
      [
        "2",
        "5"
      ],
      [
        "Ġdo",
        "cu"
      ],
      [
        "pl",
        "ace"
      ],
      [
        "om",
        "es"
      ],
      [
        "Ġacc",
        "ording"
      ],
      [
        "Ġdif",
        "ficult"
      ],
      [
        "ic",
        "ation"
      ],
      [
        "Ġcom",
        "ing"
      ],
      [
        "ĠN",
        "orth"
      ],
      [
        "Ġtra",
        "vel"
      ],
      [
        "ĠG",
        "o"
      ],
      [
        "Ġvar",
        "ious"
      ],
      [
        "ĠD",
        "ep"
      ],
      [
        "ru",
        "g"
      ],
      [
        "Ã",
        "©"
      ],
      [
        "Ġs",
        "we"
      ],
      [
        "Ġl",
        "iving"
      ],
      [
        "Ġst",
        "op"
      ],
      [
        "Ġwant",
        "ed"
      ],
      [
        "Ġrequ",
        "ired"
      ],
      [
        "ic",
        "ro"
      ],
      [
        "Ġre",
        "d"
      ],
      [
        "Ġprob",
        "ably"
      ],
      [
        "Ġask",
        "ed"
      ],
      [
        "an",
        "ks"
      ],
      [
        "Ġrelations",
        "hip"
      ],
      [
        "T",
        "o"
      ],
      [
        "ro",
        "ll"
      ],
      [
        "Ġr",
        "ather"
      ],
      [
        "ĠT",
        "w"
      ],
      [
        "um",
        "e"
      ],
      [
        "Ġneed",
        "ed"
      ],
      [
        "Ġcontin",
        "ue"
      ],
      [
        "ĠSe",
        "c"
      ],
      [
        "Ġwe",
        "b"
      ],
      [
        "itt",
        "ing"
      ],
      [
        "Ġadd",
        "ed"
      ],
      [
        "Ġel",
        "se"
      ],
      [
        "ĠB",
        "ar"
      ],
      [
        "ĠP",
        "art"
      ],
      [
        "Ġty",
        "pe"
      ],
      [
        "Ġpret",
        "ty"
      ],
      [
        "il",
        "i"
      ],
      [
        "Ġbeh",
        "ind"
      ],
      [
        "Ġprofess",
        "ional"
      ],
      [
        "ĠWor",
        "ld"
      ],
      [
        "ar",
        "ning"
      ],
      [
        "as",
        "k"
      ],
      [
        "el",
        "t"
      ],
      [
        "Ġ201",
        "1"
      ],
      [
        "nd",
        "ing"
      ],
      [
        "Ġf",
        "ail"
      ],
      [
        "Ġqu",
        "ite"
      ],
      [
        "Ġis",
        "n"
      ],
      [
        "Ġw",
        "ays"
      ],
      [
        "Ġoff",
        "ers"
      ],
      [
        "I",
        "T"
      ],
      [
        "ib",
        "r"
      ],
      [
        "Ġpartic",
        "ip"
      ],
      [
        "min",
        "ist"
      ],
      [
        "Ġimpro",
        "ve"
      ],
      [
        "n",
        "es"
      ],
      [
        "ific",
        "ation"
      ],
      [
        "Ġdo",
        "g"
      ],
      [
        "Ġev",
        "ents"
      ],
      [
        "Ġte",
        "xt"
      ],
      [
        "Ġm",
        "ag"
      ],
      [
        "res",
        "h"
      ],
      [
        "Ġl",
        "and"
      ],
      [
        "Ġcomput",
        "er"
      ],
      [
        "Ġperform",
        "ance"
      ],
      [
        "Ġf",
        "ire"
      ],
      [
        "Ġwh",
        "ite"
      ],
      [
        "Ġiss",
        "ue"
      ],
      [
        "ĠS",
        "chool"
      ],
      [
        "ĠG",
        "e"
      ],
      [
        "itt",
        "en"
      ],
      [
        "Ġt",
        "ou"
      ],
      [
        "ĠP",
        "e"
      ],
      [
        "um",
        "b"
      ],
      [
        "Ġup",
        "d"
      ],
      [
        "Ġp",
        "ict"
      ],
      [
        "he",
        "ad"
      ],
      [
        "Ġex",
        "ist"
      ],
      [
        "ab",
        "les"
      ],
      [
        "Ġr",
        "isk"
      ],
      [
        "Ġknow",
        "ledge"
      ],
      [
        "w",
        "here"
      ],
      [
        "ition",
        "al"
      ],
      [
        "a",
        "pt"
      ],
      [
        "v",
        "al"
      ],
      [
        "ĠG",
        "l"
      ],
      [
        "Ġm",
        "atter"
      ],
      [
        "Ġeduc",
        "ation"
      ],
      [
        "Ġs",
        "ize"
      ],
      [
        "Ġsign",
        "ific"
      ],
      [
        "ov",
        "ed"
      ],
      [
        "ĠA",
        "fter"
      ],
      [
        "Ġsim",
        "ply"
      ],
      [
        "re",
        "me"
      ],
      [
        "l",
        "t"
      ],
      [
        "ru",
        "ction"
      ],
      [
        "Ġac",
        "cept"
      ],
      [
        "y",
        "n"
      ],
      [
        "Ġrep",
        "resent"
      ],
      [
        "i",
        "ol"
      ],
      [
        "Ġmet",
        "hod"
      ],
      [
        "Ġe",
        "le"
      ],
      [
        "ie",
        "f"
      ],
      [
        "a",
        "ur"
      ],
      [
        "Ġass",
        "ist"
      ],
      [
        "Ġwrit",
        "ing"
      ],
      [
        "et",
        "h"
      ],
      [
        "ĠA",
        "f"
      ],
      [
        "ang",
        "u"
      ],
      [
        "Ġd",
        "am"
      ],
      [
        "Ġinclud",
        "es"
      ],
      [
        "Ġprovid",
        "es"
      ],
      [
        "r",
        "ing"
      ],
      [
        "ĠE",
        "d"
      ],
      [
        "Ġexper",
        "ien"
      ],
      [
        "Ġcharact",
        "er"
      ],
      [
        "am",
        "er"
      ],
      [
        "ĠH",
        "is"
      ],
      [
        "Ġr",
        "ad"
      ],
      [
        "Ġh",
        "on"
      ],
      [
        "Ġin",
        "it"
      ],
      [
        "ĠIn",
        "c"
      ],
      [
        "Ġan",
        "sw"
      ],
      [
        "ĠD",
        "es"
      ],
      [
        "Ġwee",
        "ks"
      ],
      [
        "Ġproblem",
        "s"
      ],
      [
        "Ġnot",
        "hing"
      ],
      [
        "u",
        "ge"
      ],
      [
        "Ġo",
        "il"
      ],
      [
        "ĠS",
        "outh"
      ],
      [
        "Ġnet",
        "work"
      ],
      [
        "ed",
        "s"
      ],
      [
        "ĠA",
        "ust"
      ],
      [
        "u",
        "ary"
      ],
      [
        "Ġst",
        "at"
      ],
      [
        "Ġse",
        "lect"
      ],
      [
        "ĠAmeric",
        "a"
      ],
      [
        "Ġinf",
        "l"
      ],
      [
        "Ġword",
        "s"
      ],
      [
        "is",
        "es"
      ],
      [
        "le",
        "x"
      ],
      [
        "ĠP",
        "ark"
      ],
      [
        "Ġdet",
        "erm"
      ],
      [
        "Ġpop",
        "ular"
      ],
      [
        "ob",
        "ile"
      ],
      [
        "Ġsim",
        "ilar"
      ],
      [
        "-",
        "-"
      ],
      [
        "ĠS",
        "m"
      ],
      [
        "Ġup",
        "on"
      ],
      [
        "ĠQ",
        "u"
      ],
      [
        "Ġrequ",
        "est"
      ],
      [
        "Ġmod",
        "el"
      ],
      [
        "1",
        "7"
      ],
      [
        "Ġso",
        "on"
      ],
      [
        "pr",
        "il"
      ],
      [
        "an",
        "c"
      ],
      [
        "ĠA",
        "b"
      ],
      [
        "Ġpr",
        "int"
      ],
      [
        "Ġin",
        "n"
      ],
      [
        "I",
        "D"
      ],
      [
        "Ġst",
        "aff"
      ],
      [
        "ul",
        "es"
      ],
      [
        "a",
        "ily"
      ],
      [
        "Ġimp",
        "act"
      ],
      [
        "Ġext",
        "ra"
      ],
      [
        "Ġde",
        "ath"
      ],
      [
        "ĠT",
        "H"
      ],
      [
        "Ġeng",
        "ine"
      ],
      [
        "Ġproper",
        "ty"
      ],
      [
        "Ġprovid",
        "ed"
      ],
      [
        "u",
        "f"
      ],
      [
        "A",
        "l"
      ],
      [
        "ag",
        "ue"
      ],
      [
        "ach",
        "ing"
      ],
      [
        "Ġg",
        "ra"
      ],
      [
        "Ġd",
        "om"
      ],
      [
        "ĠO",
        "b"
      ],
      [
        "Ġan",
        "im"
      ],
      [
        "o",
        "le"
      ],
      [
        "Ġr",
        "ate"
      ],
      [
        "Ġseem",
        "s"
      ],
      [
        "Ġt",
        "akes"
      ],
      [
        "Ġpre",
        "p"
      ],
      [
        "Ġcons",
        "um"
      ],
      [
        "ĠO",
        "ct"
      ],
      [
        "Ġincre",
        "ase"
      ],
      [
        "ur",
        "ance"
      ],
      [
        "ist",
        "ic"
      ],
      [
        "ĠI",
        "m"
      ],
      [
        "Ġfin",
        "al"
      ],
      [
        "Ġl",
        "og"
      ],
      [
        "Ġp",
        "arent"
      ],
      [
        "Ġf",
        "oot"
      ],
      [
        "Ġg",
        "round"
      ],
      [
        "Ġc",
        "ook"
      ],
      [
        "Ġfor",
        "ward"
      ],
      [
        "Ġb",
        "all"
      ],
      [
        "Ġn",
        "atural"
      ],
      [
        "Ġpart",
        "y"
      ],
      [
        "u",
        "ly"
      ],
      [
        "Ġin",
        "j"
      ],
      [
        "ĠK",
        "e"
      ],
      [
        "Ġa",
        "ction"
      ],
      [
        "ĠG",
        "r"
      ],
      [
        "Ġart",
        "icle"
      ],
      [
        "Ġbook",
        "s"
      ],
      [
        "Ġgener",
        "al"
      ],
      [
        "Ġl",
        "ay"
      ],
      [
        "Ġrec",
        "ogn"
      ],
      [
        "Ġmem",
        "ber"
      ],
      [
        "Ġro",
        "le"
      ],
      [
        "med",
        "i"
      ],
      [
        "ar",
        "get"
      ],
      [
        "Ġchang",
        "es"
      ],
      [
        "ĠPres",
        "ident"
      ],
      [
        "R",
        "E"
      ],
      [
        "Ġtru",
        "e"
      ],
      [
        "Ġann",
        "oun"
      ],
      [
        "Ġl",
        "o"
      ],
      [
        "ci",
        "ety"
      ],
      [
        "Ġrec",
        "ent"
      ],
      [
        "Ġatt",
        "ack"
      ],
      [
        "ĠCent",
        "er"
      ],
      [
        "Ġun",
        "ique"
      ],
      [
        "z",
        "e"
      ],
      [
        "8",
        "0"
      ],
      [
        "Ġcan",
        "not"
      ],
      [
        "Ġhe",
        "ld"
      ],
      [
        "ĠP",
        "ol"
      ],
      [
        "Ġyour",
        "self"
      ],
      [
        "Ġs",
        "ong"
      ],
      [
        "2",
        "2"
      ],
      [
        "U",
        "S"
      ],
      [
        "ĠJ",
        "ust"
      ],
      [
        "Ġph",
        "one"
      ],
      [
        "o",
        "e"
      ],
      [
        "m",
        "it"
      ],
      [
        "ĠP",
        "er"
      ],
      [
        "Ġsa",
        "w"
      ],
      [
        "Ġw",
        "ide"
      ],
      [
        "it",
        "er"
      ],
      [
        "Ġf",
        "ig"
      ],
      [
        "Ġh",
        "y"
      ],
      [
        "ress",
        "ion"
      ],
      [
        "ĠC",
        "or"
      ],
      [
        "Ġd",
        "ate"
      ],
      [
        "Ġest",
        "ab"
      ],
      [
        "Ġs",
        "ens"
      ],
      [
        "et",
        "er"
      ],
      [
        "Ġc",
        "ard"
      ],
      [
        "ast",
        "ic"
      ],
      [
        "Ġk",
        "ids"
      ],
      [
        "Ġro",
        "ad"
      ],
      [
        "Ġsignific",
        "ant"
      ],
      [
        "Ġc",
        "ell"
      ],
      [
        "pp",
        "er"
      ],
      [
        "Ġ201",
        "0"
      ],
      [
        "re",
        "g"
      ],
      [
        "Ġdes",
        "crib"
      ],
      [
        "Ġf",
        "it"
      ],
      [
        "4",
        "0"
      ],
      [
        "f",
        "ace"
      ],
      [
        "op",
        "h"
      ],
      [
        "Ġsec",
        "urity"
      ],
      [
        "Ġt",
        "able"
      ],
      [
        "ĠM",
        "arch"
      ],
      [
        "em",
        "pt"
      ],
      [
        "ĠE",
        "m"
      ],
      [
        "Ġrun",
        "ning"
      ],
      [
        "Ġens",
        "ure"
      ],
      [
        "ĠA",
        "ct"
      ],
      [
        "Ġa",
        "chie"
      ],
      [
        "Ġs",
        "ense"
      ],
      [
        "ĠJ",
        "une"
      ],
      [
        "ed",
        "eral"
      ],
      [
        "Ġcre",
        "ated"
      ],
      [
        "ad",
        "a"
      ],
      [
        "Ġco",
        "ver"
      ],
      [
        "h",
        "ib"
      ],
      [
        "ĠD",
        "is"
      ],
      [
        "Ġplay",
        "ers"
      ],
      [
        "olog",
        "ical"
      ],
      [
        "ad",
        "es"
      ],
      [
        "ag",
        "ing"
      ],
      [
        "ĠM",
        "ark"
      ],
      [
        "Ġind",
        "e"
      ],
      [
        "ĠA",
        "g"
      ],
      [
        "Ġorig",
        "inal"
      ],
      [
        "ar",
        "ter"
      ],
      [
        "Ġout",
        "side"
      ],
      [
        "ĠCom",
        "p"
      ],
      [
        "Ġbeaut",
        "iful"
      ],
      [
        "av",
        "ing"
      ],
      [
        "b",
        "ased"
      ],
      [
        "Ġl",
        "oss"
      ],
      [
        "A",
        "C"
      ],
      [
        "Ġshow",
        "s"
      ],
      [
        "Ġsoft",
        "ware"
      ],
      [
        "Ġem",
        "b"
      ],
      [
        "ĠM",
        "r"
      ],
      [
        "Ġtot",
        "al"
      ],
      [
        "ĠA",
        "ug"
      ],
      [
        "op",
        "s"
      ],
      [
        "Ġlong",
        "er"
      ],
      [
        "Ġmom",
        "ent"
      ],
      [
        "Ġas",
        "soci"
      ],
      [
        "Ġh",
        "it"
      ],
      [
        "ear",
        "ch"
      ],
      [
        "Ġag",
        "ree"
      ],
      [
        "Ġco",
        "ll"
      ],
      [
        "or",
        "ing"
      ],
      [
        "Ġn",
        "ice"
      ],
      [
        "Ġn",
        "ational"
      ],
      [
        "ĠS",
        "ome"
      ],
      [
        "Ġt",
        "it"
      ],
      [
        "Ġb",
        "ase"
      ],
      [
        "6",
        "0"
      ],
      [
        "ove",
        "red"
      ],
      [
        "er",
        "c"
      ],
      [
        "Ġle",
        "ave"
      ],
      [
        "Ġrece",
        "ive"
      ],
      [
        "Ġhig",
        "her"
      ],
      [
        "Ġspe",
        "ak"
      ],
      [
        "Ġst",
        "ruct"
      ],
      [
        "Ġl",
        "ate"
      ],
      [
        "Ġsa",
        "fe"
      ],
      [
        "Ġ",
        "ill"
      ],
      [
        "Ġthrough",
        "out"
      ],
      [
        "a",
        "ign"
      ],
      [
        "Ġus",
        "ers"
      ],
      [
        "Ġdesign",
        "ed"
      ],
      [
        "Ġp",
        "ark"
      ],
      [
        "ol",
        "ution"
      ],
      [
        "Ġreg",
        "ard"
      ],
      [
        "Ġn",
        "orm"
      ],
      [
        "Ġet",
        "c"
      ],
      [
        "Ġreg",
        "ular"
      ],
      [
        "Ġo",
        "p"
      ],
      [
        "iz",
        "ing"
      ],
      [
        "Ġbl",
        "ood"
      ],
      [
        "Ġbo",
        "x"
      ],
      [
        "Ġtreat",
        "ment"
      ],
      [
        "Ġwor",
        "th"
      ],
      [
        "Ġsystem",
        "s"
      ],
      [
        "Ġoffic",
        "ial"
      ],
      [
        "iv",
        "al"
      ],
      [
        "ĠCount",
        "y"
      ],
      [
        "id",
        "ge"
      ],
      [
        "Ġmed",
        "ical"
      ],
      [
        "ĠT",
        "ra"
      ],
      [
        "am",
        "ent"
      ],
      [
        "ĠB",
        "y"
      ],
      [
        "Ġright",
        "s"
      ],
      [
        "Ġf",
        "a"
      ],
      [
        "Ġcou",
        "ple"
      ],
      [
        "Ġread",
        "y"
      ],
      [
        "Ġlead",
        "ers"
      ],
      [
        "Ġdis",
        "play"
      ],
      [
        "Ġread",
        "ing"
      ],
      [
        "Ġprogram",
        "s"
      ],
      [
        "Ġopportun",
        "ity"
      ],
      [
        "Ġpract",
        "ice"
      ],
      [
        "n",
        "a"
      ],
      [
        "Ġl",
        "at"
      ],
      [
        "ĠD",
        "ay"
      ],
      [
        "ĠN",
        "ow"
      ],
      [
        "Ġdetail",
        "s"
      ],
      [
        "Ġw",
        "ar"
      ],
      [
        "Ġrec",
        "ently"
      ],
      [
        "Ġfin",
        "ancial"
      ],
      [
        "c",
        "ast"
      ],
      [
        "i",
        "et"
      ],
      [
        "Ġex",
        "am"
      ],
      [
        "re",
        "m"
      ],
      [
        "Ġcont",
        "rib"
      ],
      [
        "Ġs",
        "le"
      ],
      [
        "Ġsal",
        "es"
      ],
      [
        "an",
        "ced"
      ],
      [
        "o",
        "x"
      ],
      [
        "ir",
        "it"
      ],
      [
        "ĠSe",
        "pt"
      ],
      [
        "Ġ201",
        "4"
      ],
      [
        "Ġcurrent",
        "ly"
      ],
      [
        "Ġus",
        "ually"
      ],
      [
        "idd",
        "le"
      ],
      [
        "Ġvers",
        "ion"
      ],
      [
        "ud",
        "e"
      ],
      [
        "Ġdef",
        "in"
      ],
      [
        "Ġterm",
        "s"
      ],
      [
        "o",
        "es"
      ],
      [
        "ut",
        "h"
      ],
      [
        "ĠD",
        "av"
      ],
      [
        "ĠP",
        "ar"
      ],
      [
        "Ġf",
        "ast"
      ],
      [
        "am",
        "ed"
      ],
      [
        "ac",
        "ed"
      ],
      [
        "Ġrece",
        "ived"
      ],
      [
        "Ġpriv",
        "ate"
      ],
      [
        "Ġpa",
        "per"
      ],
      [
        "r",
        "ight"
      ],
      [
        "ĠH",
        "ouse"
      ],
      [
        "Ġfun",
        "ction"
      ],
      [
        "atur",
        "day"
      ],
      [
        "Ġb",
        "ed"
      ],
      [
        "Ġs",
        "qu"
      ],
      [
        "Ġp",
        "ers"
      ],
      [
        "Ġst",
        "ri"
      ],
      [
        "Ġg",
        "en"
      ],
      [
        "Ġde",
        "ep"
      ],
      [
        "Ġhapp",
        "y"
      ],
      [
        "Ġch",
        "oose"
      ],
      [
        "Ġpol",
        "icy"
      ],
      [
        "_",
        "_"
      ],
      [
        "oo",
        "gle"
      ],
      [
        "Ġte",
        "ac"
      ],
      [
        "Ġbl",
        "ock"
      ],
      [
        "ffe",
        "cts"
      ],
      [
        "Ġrem",
        "ain"
      ],
      [
        "Ġ",
        "..."
      ],
      [
        "Ġany",
        "one"
      ],
      [
        "Ġmor",
        "ning"
      ],
      [
        "ou",
        "ra"
      ],
      [
        "ĠD",
        "r"
      ],
      [
        "Ġsk",
        "in"
      ],
      [
        "Ġp",
        "ric"
      ],
      [
        "ĠH",
        "ar"
      ],
      [
        "Ġaddition",
        "al"
      ],
      [
        "Ġopt",
        "ions"
      ],
      [
        "Ġgrow",
        "th"
      ],
      [
        "g",
        "u"
      ],
      [
        "Ġitem",
        "s"
      ],
      [
        "Ġ",
        "ut"
      ],
      [
        "Ġcom",
        "fort"
      ],
      [
        "es",
        "e"
      ],
      [
        "ĠU",
        "s"
      ],
      [
        "uf",
        "act"
      ],
      [
        "Ġcol",
        "or"
      ],
      [
        "Ġint",
        "rodu"
      ],
      [
        "Ġw",
        "all"
      ],
      [
        "Ġcol",
        "lect"
      ],
      [
        "Ġapplic",
        "ation"
      ],
      [
        "ĠM",
        "ore"
      ],
      [
        "art",
        "ment"
      ],
      [
        "re",
        "ct"
      ],
      [
        "ĠS",
        "an"
      ],
      [
        "Ġthem",
        "selves"
      ],
      [
        "Ġb",
        "al"
      ],
      [
        "Ġins",
        "ide"
      ],
      [
        "Ġcon",
        "du"
      ],
      [
        "ĠH",
        "igh"
      ],
      [
        "Ġ2",
        "1"
      ],
      [
        "Ġfor",
        "mer"
      ],
      [
        "Ġat",
        "tend"
      ],
      [
        "Ġex",
        "act"
      ],
      [
        "ou",
        "d"
      ],
      [
        "Ġc",
        "ause"
      ],
      [
        "ourn",
        "al"
      ],
      [
        "Ġde",
        "pend"
      ],
      [
        "att",
        "le"
      ],
      [
        "ĠA",
        "pril"
      ],
      [
        "Ġpri",
        "or"
      ],
      [
        "Ġc",
        "oun"
      ],
      [
        "Ġpot",
        "ential"
      ],
      [
        "s",
        "c"
      ],
      [
        "Ġb",
        "ott"
      ],
      [
        "Ġbe",
        "gan"
      ],
      [
        "a",
        "ction"
      ],
      [
        "l",
        "ike"
      ],
      [
        "Ġ",
        "x"
      ],
      [
        "Ġ4",
        "0"
      ],
      [
        "Ġl",
        "ost"
      ],
      [
        "Ġbo",
        "ard"
      ],
      [
        "ic",
        "les"
      ],
      [
        "if",
        "f"
      ],
      [
        "li",
        "er"
      ],
      [
        "Ġpres",
        "ident"
      ],
      [
        "Ġst",
        "ra"
      ],
      [
        "Ġcl",
        "ick"
      ],
      [
        "P",
        "h"
      ],
      [
        "Ġv",
        "ict"
      ],
      [
        "h",
        "a"
      ],
      [
        "Ġhand",
        "s"
      ],
      [
        "Ġs",
        "at"
      ],
      [
        "Ġpolit",
        "ical"
      ],
      [
        "O",
        "U"
      ],
      [
        "v",
        "ille"
      ],
      [
        "Ġne",
        "g"
      ],
      [
        "O",
        "S"
      ],
      [
        "Ġo",
        "bs"
      ],
      [
        "nd",
        "s"
      ],
      [
        "ĠAs",
        "soci"
      ],
      [
        "Ġcount",
        "ries"
      ],
      [
        "et",
        "t"
      ],
      [
        "ĠS",
        "pe"
      ],
      [
        "ĠSt",
        "ud"
      ],
      [
        "W",
        "ith"
      ],
      [
        "ĠS",
        "er"
      ],
      [
        "Ġd",
        "est"
      ],
      [
        "Ġde",
        "g"
      ],
      [
        "ĠRe",
        "g"
      ],
      [
        "Ġst",
        "ock"
      ],
      [
        "Ġv",
        "ia"
      ],
      [
        "Ġus",
        "er"
      ],
      [
        "at",
        "ory"
      ],
      [
        "Ġres",
        "pect"
      ],
      [
        "c",
        "il"
      ],
      [
        "Ġv",
        "iol"
      ],
      [
        "ĠP",
        "at"
      ],
      [
        "Ġr",
        "ound"
      ],
      [
        "m",
        "a"
      ],
      [
        "on",
        "se"
      ],
      [
        "ww",
        "w"
      ],
      [
        "ĠD",
        "on"
      ],
      [
        "M",
        "y"
      ],
      [
        "O",
        "ur"
      ],
      [
        "Ġp",
        "an"
      ],
      [
        "al",
        "es"
      ],
      [
        "Ġmeet",
        "ing"
      ],
      [
        "Ġcour",
        "t"
      ],
      [
        "b",
        "it"
      ],
      [
        "ĠW",
        "est"
      ],
      [
        "Ġf",
        "irm"
      ],
      [
        "A",
        "M"
      ],
      [
        "s",
        "y"
      ],
      [
        "Ġdec",
        "ision"
      ],
      [
        "Ġwas",
        "n"
      ],
      [
        "ond",
        "ay"
      ],
      [
        "Ġcare",
        "er"
      ],
      [
        "Ġ",
        ","
      ],
      [
        "Ġde",
        "p"
      ],
      [
        "ĠO",
        "ff"
      ],
      [
        "o",
        "ke"
      ],
      [
        "Ġnecess",
        "ary"
      ],
      [
        "m",
        "ing"
      ],
      [
        "Ġt",
        "arget"
      ],
      [
        "Ġf",
        "ight"
      ],
      [
        "Ġre",
        "lease"
      ],
      [
        "Ġf",
        "ile"
      ],
      [
        "Ġl",
        "ives"
      ],
      [
        "Ġit",
        "self"
      ],
      [
        "ĠP",
        "a"
      ],
      [
        "ĠF",
        "eb"
      ],
      [
        "A",
        "ll"
      ],
      [
        "ĠE",
        "l"
      ],
      [
        "Ġwom",
        "an"
      ],
      [
        "Ġp",
        "le"
      ],
      [
        "Ġd",
        "rug"
      ],
      [
        "Ġgo",
        "es"
      ],
      [
        "..",
        ".."
      ],
      [
        "ĠF",
        "ace"
      ],
      [
[...]
